{
  "version": "1.0",
  "truncation": null,
  "padding": null,
  "added_tokens": [],
  "normalizer": null,
  "pre_tokenizer": {
    "type": "Whitespace"
  },
  "post_processor": null,
  "decoder": null,
  "model": {
    "type": "BPE",
    "dropout": null,
    "unk_token": null,
    "continuing_subword_prefix": null,
    "end_of_word_suffix": null,
    "fuse_unk": false,
    "vocab": {
      "!": 0,
      "\"": 1,
      "#": 2,
      "$": 3,
      "%": 4,
      "&": 5,
      "'": 6,
      "(": 7,
      ")": 8,
      "*": 9,
      "+": 10,
      ",": 11,
      "-": 12,
      ".": 13,
      "/": 14,
      "0": 15,
      "1": 16,
      "2": 17,
      "3": 18,
      "4": 19,
      "5": 20,
      "6": 21,
      "7": 22,
      "8": 23,
      "9": 24,
      ":": 25,
      ";": 26,
      "<": 27,
      "=": 28,
      ">": 29,
      "?": 30,
      "@": 31,
      "A": 32,
      "B": 33,
      "C": 34,
      "D": 35,
      "E": 36,
      "F": 37,
      "G": 38,
      "H": 39,
      "I": 40,
      "J": 41,
      "K": 42,
      "L": 43,
      "M": 44,
      "N": 45,
      "O": 46,
      "P": 47,
      "Q": 48,
      "R": 49,
      "S": 50,
      "T": 51,
      "U": 52,
      "V": 53,
      "W": 54,
      "X": 55,
      "Y": 56,
      "Z": 57,
      "[": 58,
      "\\": 59,
      "]": 60,
      "_": 61,
      "`": 62,
      "a": 63,
      "b": 64,
      "c": 65,
      "d": 66,
      "e": 67,
      "f": 68,
      "g": 69,
      "h": 70,
      "i": 71,
      "j": 72,
      "k": 73,
      "l": 74,
      "m": 75,
      "n": 76,
      "o": 77,
      "p": 78,
      "q": 79,
      "r": 80,
      "s": 81,
      "t": 82,
      "u": 83,
      "v": 84,
      "w": 85,
      "x": 86,
      "y": 87,
      "z": 88,
      "|": 89,
      "~": 90,
      "½": 91,
      "ü": 92,
      "–": 93,
      "‘": 94,
      "’": 95,
      "“": 96,
      "…": 97,
      "�": 98,
      "th": 99,
      "in": 100,
      "the": 101,
      "an": 102,
      "re": 103,
      "ou": 104,
      "at": 105,
      "er": 106,
      "to": 107,
      "ing": 108,
      "on": 109,
      "en": 110,
      "is": 111,
      "or": 112,
      "and": 113,
      "le": 114,
      "he": 115,
      "as": 116,
      "om": 117,
      "it": 118,
      "al": 119,
      "es": 120,
      "of": 121,
      "ed": 122,
      "be": 123,
      "ld": 124,
      "se": 125,
      "ar": 126,
      "st": 127,
      "that": 128,
      "ve": 129,
      "ad": 130,
      "CA": 131,
      "you": 132,
      "ut": 133,
      "ow": 134,
      "ch": 135,
      "li": 136,
      "oo": 137,
      "ly": 138,
      "PS": 139,
      "CAPS": 140,
      "ay": 141,
      "me": 142,
      "wh": 143,
      "ould": 144,
      "was": 145,
      "are": 146,
      "we": 147,
      "au": 148,
      "ot": 149,
      "op": 150,
      "ri": 151,
      "ac": 152,
      "wi": 153,
      "gh": 154,
      "com": 155,
      "ver": 156,
      "ha": 157,
      "for": 158,
      "ke": 159,
      "The": 160,
      "mo": 161,
      "pe": 162,
      "out": 163,
      "id": 164,
      "ll": 165,
      "ti": 166,
      "fe": 167,
      "ir": 168,
      "ers": 169,
      "sh": 170,
      "so": 171,
      "ne": 172,
      "ge": 173,
      "put": 174,
      "ome": 175,
      "they": 176,
      "ab": 177,
      "ople": 178,
      "have": 179,
      "with": 180,
      "ent": 181,
      "thing": 182,
      "ook": 183,
      "people": 184,
      "ther": 185,
      "am": 186,
      "all": 187,
      "one": 188,
      "do": 189,
      "ic": 190,
      "us": 191,
      "not": 192,
      "comput": 193,
      "ts": 194,
      "my": 195,
      "ion": 196,
      "ild": 197,
      "can": 198,
      "ON": 199,
      "cau": 200,
      "ter": 201,
      "ro": 202,
      "cause": 203,
      "if": 204,
      "end": 205,
      "would": 206,
      "some": 207,
      "ma": 208,
      "CAPS1": 209,
      "very": 210,
      "his": 211,
      "way": 212,
      "book": 213,
      "un": 214,
      "because": 215,
      "any": 216,
      "she": 217,
      "go": 218,
      "ex": 219,
      "this": 220,
      "con": 221,
      "about": 222,
      "ce": 223,
      "ta": 224,
      "im": 225,
      "bu": 226,
      "fr": 227,
      "there": 228,
      "ant": 229,
      "te": 230,
      "get": 231,
      "ood": 232,
      "ght": 233,
      "ate": 234,
      "ry": 235,
      "ble": 236,
      "up": 237,
      "pl": 238,
      "wor": 239,
      "but": 240,
      "ul": 241,
      "ind": 242,
      "lo": 243,
      "other": 244,
      "off": 245,
      "had": 246,
      "ust": 247,
      "ive": 248,
      "gr": 249,
      "our": 250,
      "sa": 251,
      "ation": 252,
      "ting": 253,
      "like": 254,
      "now": 255,
      "br": 256,
      "ap": 257,
      "oun": 258,
      "time": 259,
      "ur": 260,
      "when": 261,
      "their": 262,
      "what": 263,
      "de": 264,
      "her": 265,
      "were": 266,
      "from": 267,
      "them": 268,
      "ink": 269,
      "should": 270,
      "computer": 271,
      "could": 272,
      "ren": 273,
      "ally": 274,
      "ure": 275,
      "ens": 276,
      "read": 277,
      "just": 278,
      "ON1": 279,
      "will": 280,
      "ies": 281,
      "think": 282,
      "cl": 283,
      "your": 284,
      "computers": 285,
      "build": 286,
      "gi": 287,
      "ga": 288,
      "sto": 289,
      "di": 290,
      "ast": 291,
      "no": 292,
      "TI": 293,
      "ct": 294,
      "fri": 295,
      "how": 296,
      "by": 297,
      "ss": 298,
      "friend": 299,
      "books": 300,
      "ough": 301,
      "day": 302,
      "brar": 303,
      "ily": 304,
      "ist": 305,
      "est": 306,
      "every": 307,
      "say": 308,
      "UM": 309,
      "NUM": 310,
      "ER": 311,
      "fam": 312,
      "things": 313,
      "sp": 314,
      "CAPS2": 315,
      "PER": 316,
      "librar": 317,
      "ound": 318,
      "ven": 319,
      "more": 320,
      "know": 321,
      "augh": 322,
      "aren": 323,
      "pro": 324,
      "ide": 325,
      "mp": 326,
      "mov": 327,
      "ater": 328,
      "king": 329,
      "then": 330,
      "uch": 331,
      "ty": 332,
      "want": 333,
      "many": 334,
      "po": 335,
      "family": 336,
      "In": 337,
      "el": 338,
      "ob": 339,
      "reat": 340,
      "gible": 341,
      "ie": 342,
      "see": 343,
      "rigible": 344,
      "pp": 345,
      "il": 346,
      "ong": 347,
      "PERS": 348,
      "ack": 349,
      "paren": 350,
      "don": 351,
      "own": 352,
      "thor": 353,
      "child": 354,
      "ves": 355,
      "hel": 356,
      "dirigible": 357,
      "able": 358,
      "It": 359,
      "laugh": 360,
      "help": 361,
      "author": 362,
      "over": 363,
      "hi": 364,
      "par": 365,
      "fac": 366,
      "also": 367,
      "building": 368,
      "ck": 369,
      "Th": 370,
      "ple": 371,
      "ine": 372,
      "life": 373,
      "happ": 374,
      "sit": 375,
      "did": 376,
      "tal": 377,
      "ati": 378,
      "ard": 379,
      "parents": 380,
      "ip": 381,
      "who": 382,
      "him": 383,
      "TION1": 384,
      "new": 385,
      "friends": 386,
      "ful": 387,
      "make": 388,
      "This": 389,
      "good": 390,
      "ensive": 391,
      "has": 392,
      "home": 393,
      "need": 394,
      "ways": 395,
      "tion": 396,
      "even": 397,
      "lf": 398,
      "whi": 399,
      "offensive": 400,
      "af": 401,
      "take": 402,
      "Wh": 403,
      "going": 404,
      "ire": 405,
      "here": 406,
      "lear": 407,
      "ship": 408,
      "story": 409,
      "bo": 410,
      "reas": 411,
      "CAPS3": 412,
      "pati": 413,
      "ous": 414,
      "too": 415,
      "ue": 416,
      "If": 417,
      "use": 418,
      "led": 419,
      "got": 420,
      "erson": 421,
      "ight": 422,
      "tr": 423,
      "ess": 424,
      "art": 425,
      "dif": 426,
      "ach": 427,
      "We": 428,
      "ving": 429,
      "ial": 430,
      "cy": 431,
      "mood": 432,
      "look": 433,
      "back": 434,
      "learn": 435,
      "pre": 436,
      "An": 437,
      "reason": 438,
      "ame": 439,
      "ort": 440,
      "des": 441,
      "find": 442,
      "person": 443,
      "something": 444,
      "most": 445,
      "said": 446,
      "red": 447,
      "much": 448,
      "library": 449,
      "work": 450,
      "ye": 451,
      "ang": 452,
      "obst": 453,
      "ill": 454,
      "show": 455,
      "cycl": 456,
      "ool": 457,
      "ity": 458,
      "try": 459,
      "ef": 460,
      "fect": 461,
      ".\"": 462,
      "kid": 463,
      "So": 464,
      "ig": 465,
      "come": 466,
      "ass": 467,
      "why": 468,
      "NUM1": 469,
      "les": 470,
      "feel": 471,
      "cyclist": 472,
      "ment": 473,
      "ature": 474,
      "LO": 475,
      "St": 476,
      "obstac": 477,
      "ence": 478,
      "than": 479,
      "LOCA": 480,
      "ade": 481,
      "ep": 482,
      "great": 483,
      "AN": 484,
      "pr": 485,
      "cis": 486,
      "OR": 487,
      "gain": 488,
      "irst": 489,
      "where": 490,
      "ite": 491,
      "usic": 492,
      "talk": 493,
      "dirigibles": 494,
      "PERSON1": 495,
      "down": 496,
      "GAN": 497,
      "IZ": 498,
      "ORGAN": 499,
      "IZA": 500,
      "ORGANIZA": 501,
      "children": 502,
      "plac": 503,
      "set": 504,
      "qu": 505,
      "wr": 506,
      "When": 507,
      "being": 508,
      "eng": 509,
      "always": 510,
      "around": 511,
      "wa": 512,
      "mpire": 513,
      "Al": 514,
      "really": 515,
      "rough": 516,
      "They": 517,
      "patient": 518,
      "into": 519,
      "music": 520,
      "old": 521,
      "right": 522,
      "CAPS4": 523,
      "grap": 524,
      "age": 525,
      "world": 526,
      "air": 527,
      "graph": 528,
      "ore": 529,
      "ree": 530,
      "inter": 531,
      "again": 532,
      "cer": 533,
      "self": 534,
      "these": 535,
      "beli": 536,
      "chool": 537,
      "TH": 538,
      "tain": 539,
      "rent": 540,
      "only": 541,
      "MON": 542,
      "side": 543,
      "school": 544,
      "There": 545,
      "ag": 546,
      "He": 547,
      "bad": 548,
      "ever": 549,
      "which": 550,
      "wait": 551,
      "agraph": 552,
      "kids": 553,
      "away": 554,
      "der": 555,
      "Empire": 556,
      "made": 557,
      "start": 558,
      "allow": 559,
      "ice": 560,
      "ON2": 561,
      "stu": 562,
      "its": 563,
      "paragraph": 564,
      "ain": 565,
      "State": 566,
      "bet": 567,
      "oring": 568,
      "su": 569,
      "been": 570,
      "diffe": 571,
      "mes": 572,
      "play": 573,
      "kes": 574,
      "imp": 575,
      "TH1": 576,
      "MONTH1": 577,
      "someone": 578,
      "low": 579,
      "aterial": 580,
      "ose": 581,
      "ated": 582,
      "dr": 583,
      "line": 584,
      "lot": 585,
      "fun": 586,
      "form": 587,
      "material": 588,
      "through": 589,
      "movies": 590,
      "water": 591,
      "never": 592,
      "top": 593,
      "itt": 594,
      "blem": 595,
      "belie": 596,
      "went": 597,
      "str": 598,
      "jo": 599,
      "co": 600,
      "different": 601,
      "problem": 602,
      "ample": 603,
      "That": 604,
      "example": 605,
      "libraries": 606,
      "iz": 607,
      "test": 608,
      "gaz": 609,
      "..": 610,
      "does": 611,
      "cus": 612,
      "mom": 613,
      "My": 614,
      "Bu": 615,
      "ans": 616,
      "ORGANIZATION1": 617,
      "Build": 618,
      "didn": 619,
      "concl": 620,
      "ouse": 621,
      "per": 622,
      "fore": 623,
      "lves": 624,
      "less": 625,
      "hard": 626,
      "believe": 627,
      "real": 628,
      "Building": 629,
      "magaz": 630,
      "la": 631,
      "memo": 632,
      "love": 633,
      "memoir": 634,
      "LOCATION1": 635,
      "Com": 636,
      "But": 637,
      "You": 638,
      "happy": 639,
      "mast": 640,
      "setting": 641,
      "um": 642,
      "ines": 643,
      "Sa": 644,
      "Also": 645,
      "soc": 646,
      "came": 647,
      "long": 648,
      "ought": 649,
      "cal": 650,
      "first": 651,
      "builders": 652,
      "keep": 653,
      "CAPS5": 654,
      "house": 655,
      "act": 656,
      "Comput": 657,
      "everyone": 658,
      "tur": 659,
      "atch": 660,
      "hy": 661,
      "Saeng": 662,
      "tell": 663,
      "che": 664,
      "et": 665,
      "fin": 666,
      "says": 667,
      "still": 668,
      "dri": 669,
      "hand": 670,
      "better": 671,
      "ub": 672,
      "times": 673,
      "let": 674,
      "ensor": 675,
      "Computers": 676,
      "though": 677,
      "such": 678,
      "mem": 679,
      "turn": 680,
      "For": 681,
      "ked": 682,
      "dock": 683,
      "ittle": 684,
      "place": 685,
      "cts": 686,
      "creat": 687,
      "wind": 688,
      "faced": 689,
      "obstacles": 690,
      "ction": 691,
      "dy": 692,
      "little": 693,
      "vi": 694,
      "??": 695,
      "spe": 696,
      "gen": 697,
      "used": 698,
      "ult": 699,
      "int": 700,
      "affect": 701,
      "ved": 702,
      "iscus": 703,
      "inform": 704,
      "One": 705,
      "coun": 706,
      "Some": 707,
      "ear": 708,
      "pt": 709,
      "high": 710,
      "ance": 711,
      "AT": 712,
      "E1": 713,
      "import": 714,
      "spend": 715,
      "cont": 716,
      "sc": 717,
      "found": 718,
      "min": 719,
      "those": 720,
      "ather": 721,
      "eas": 722,
      "arcis": 723,
      "year": 724,
      "arciso": 725,
      "biscus": 726,
      "hour": 727,
      "wo": 728,
      "Narciso": 729,
      "watch": 730,
      "dis": 731,
      "ol": 732,
      "mi": 733,
      "She": 734,
      "joy": 735,
      "comm": 736,
      "might": 737,
      "ste": 738,
      "pic": 739,
      "same": 740,
      "important": 741,
      "DAT": 742,
      "tow": 743,
      "information": 744,
      "another": 745,
      "fl": 746,
      "CAPS6": 747,
      "certain": 748,
      "mooring": 749,
      "reading": 750,
      "Another": 751,
      "magazines": 752,
      "give": 753,
      "And": 754,
      "arch": 755,
      "iety": 756,
      "clo": 757,
      "net": 758,
      "shelves": 759,
      "shows": 760,
      "censor": 761,
      "laughter": 762,
      "ning": 763,
      "happen": 764,
      "getting": 765,
      "car": 766,
      "online": 767,
      "while": 768,
      "NUM2": 769,
      "ave": 770,
      "stay": 771,
      "started": 772,
      "safe": 773,
      "stand": 774,
      "big": 775,
      "add": 776,
      "\"@": 777,
      "ents": 778,
      "pass": 779,
      "last": 780,
      "list": 781,
      "cond": 782,
      "teach": 783,
      "rel": 784,
      "well": 785,
      "hop": 786,
      "each": 787,
      "everything": 788,
      "moved": 789,
      "thought": 790,
      "hed": 791,
      "ates": 792,
      "face": 793,
      "rest": 794,
      "tri": 795,
      "arm": 796,
      "anything": 797,
      "As": 798,
      "ten": 799,
      "wal": 800,
      "two": 801,
      "society": 802,
      "laughing": 803,
      "enjoy": 804,
      "having": 805,
      "ding": 806,
      "ber": 807,
      "Pe": 808,
      "doing": 809,
      "told": 810,
      "inion": 811,
      "fa": 812,
      "tic": 813,
      "hibiscus": 814,
      "kind": 815,
      "Ne": 816,
      "TION2": 817,
      "People": 818,
      ".�": 819,
      "word": 820,
      "after": 821,
      "room": 822,
      "outside": 823,
      "law": 824,
      "body": 825,
      "nature": 826,
      "obstacle": 827,
      "best": 828,
      "ft": 829,
      "under": 830,
      "before": 831,
      "grate": 832,
      "New": 833,
      "nex": 834,
      "wanted": 835,
      "others": 836,
      "ext": 837,
      "shelf": 838,
      "opinion": 839,
      "ames": 840,
      "ken": 841,
      "ng": 842,
      "dro": 843,
      "DATE1": 844,
      "listen": 845,
      "sing": 846,
      "commun": 847,
      "PERSON2": 848,
      "next": 849,
      "movie": 850,
      "internet": 851,
      "conclu": 852,
      "Mo": 853,
      "without": 854,
      "bl": 855,
      "gy": 856,
      "je": 857,
      "press": 858,
      "created": 859,
      "dont": 860,
      "mind": 861,
      "ants": 862,
      "beg": 863,
      "lt": 864,
      "effect": 865,
      "aper": 866,
      "mean": 867,
      "web": 868,
      "cr": 869,
      "ress": 870,
      "young": 871,
      "temp": 872,
      "Ro": 873,
      "gether": 874,
      "grateful": 875,
      "cur": 876,
      "ually": 877,
      "igh": 878,
      "makes": 879,
      "won": 880,
      "together": 881,
      "ci": 882,
      "ating": 883,
      "hope": 884,
      "feature": 885,
      "trying": 886,
      "ff": 887,
      "left": 888,
      "drogen": 889,
      "Then": 890,
      "ces": 891,
      "ban": 892,
      "din": 893,
      "games": 894,
      "lic": 895,
      "realiz": 896,
      "gue": 897,
      "ish": 898,
      "plain": 899,
      "materials": 900,
      "posit": 901,
      "med": 902,
      "move": 903,
      "point": 904,
      "ben": 905,
      "ser": 906,
      "CAPS7": 907,
      "exer": 908,
      "else": 909,
      "land": 910,
      "talking": 911,
      "bro": 912,
      "man": 913,
      "took": 914,
      "town": 915,
      "ring": 916,
      "gu": 917,
      "ited": 918,
      "done": 919,
      "head": 920,
      "idea": 921,
      "censorship": 922,
      "enough": 923,
      "ign": 924,
      "dad": 925,
      "stop": 926,
      "search": 927,
      "taken": 928,
      "nothing": 929,
      "stud": 930,
      "hydrogen": 931,
      "ended": 932,
      "Dear": 933,
      "ask": 934,
      "ense": 935,
      "exercis": 936,
      "ships": 937,
      "ith": 938,
      "doesn": 939,
      "sed": 940,
      "live": 941,
      "wouldn": 942,
      "mat": 943,
      "reasons": 944,
      "cid": 945,
      "attemp": 946,
      "mother": 947,
      "ations": 948,
      "ary": 949,
      "ready": 950,
      "saying": 951,
      "prop": 952,
      "gir": 953,
      "type": 954,
      "features": 955,
      "cess": 956,
      "stead": 957,
      "eye": 958,
      "ange": 959,
      "cri": 960,
      "agree": 961,
      "Every": 962,
      "part": 963,
      "fre": 964,
      "viol": 965,
      "girl": 966,
      "sup": 967,
      "far": 968,
      "removed": 969,
      "using": 970,
      "patience": 971,
      "tor": 972,
      "guez": 973,
      "driguez": 974,
      "country": 975,
      "Rodriguez": 976,
      "hot": 977,
      "yes": 978,
      "ition": 979,
      "Li": 980,
      "making": 981,
      "hours": 982,
      "All": 983,
      "ase": 984,
      "ness": 985,
      "ese": 986,
      "dang": 987,
      "With": 988,
      "wrong": 989,
      "area": 990,
      "ph": 991,
      "fly": 992,
      "ier": 993,
      "usion": 994,
      "writ": 995,
      "few": 996,
      "whole": 997,
      "ick": 998,
      "vide": 999
    },
    "merges": [
      "t h",
      "i n",
      "th e",
      "a n",
      "r e",
      "o u",
      "a t",
      "e r",
      "t o",
      "in g",
      "o n",
      "e n",
      "i s",
      "o r",
      "an d",
      "l e",
      "h e",
      "a s",
      "o m",
      "i t",
      "a l",
      "e s",
      "o f",
      "e d",
      "b e",
      "l d",
      "s e",
      "a r",
      "s t",
      "th at",
      "v e",
      "a d",
      "C A",
      "y ou",
      "u t",
      "o w",
      "c h",
      "l i",
      "o o",
      "l y",
      "P S",
      "CA PS",
      "a y",
      "m e",
      "w h",
      "ou ld",
      "w as",
      "a re",
      "w e",
      "a u",
      "o t",
      "o p",
      "r i",
      "a c",
      "w i",
      "g h",
      "c om",
      "v er",
      "h a",
      "f or",
      "k e",
      "T he",
      "m o",
      "p e",
      "ou t",
      "i d",
      "l l",
      "t i",
      "f e",
      "i r",
      "er s",
      "s h",
      "s o",
      "n e",
      "g e",
      "p ut",
      "om e",
      "the y",
      "a b",
      "op le",
      "ha ve",
      "wi th",
      "en t",
      "th ing",
      "oo k",
      "pe ople",
      "the r",
      "a m",
      "al l",
      "on e",
      "d o",
      "i c",
      "u s",
      "n ot",
      "com put",
      "t s",
      "m y",
      "i on",
      "i ld",
      "c an",
      "O N",
      "c au",
      "t er",
      "r o",
      "cau se",
      "i f",
      "en d",
      "w ould",
      "s ome",
      "m a",
      "CAPS 1",
      "ver y",
      "h is",
      "w ay",
      "b ook",
      "u n",
      "be cause",
      "an y",
      "s he",
      "g o",
      "e x",
      "th is",
      "c on",
      "ab out",
      "c e",
      "t a",
      "i m",
      "b u",
      "f r",
      "the re",
      "an t",
      "t e",
      "ge t",
      "oo d",
      "gh t",
      "at e",
      "r y",
      "b le",
      "u p",
      "p l",
      "w or",
      "b ut",
      "u l",
      "in d",
      "l o",
      "o ther",
      "of f",
      "h ad",
      "u st",
      "i ve",
      "g r",
      "ou r",
      "s a",
      "at ion",
      "t ing",
      "li ke",
      "n ow",
      "b r",
      "a p",
      "ou n",
      "ti me",
      "u r",
      "wh en",
      "the ir",
      "wh at",
      "d e",
      "h er",
      "we re",
      "fr om",
      "the m",
      "in k",
      "sh ould",
      "comput er",
      "c ould",
      "re n",
      "al ly",
      "u re",
      "en s",
      "re ad",
      "j ust",
      "ON 1",
      "wi ll",
      "i es",
      "th ink",
      "c l",
      "you r",
      "comput ers",
      "bu ild",
      "g i",
      "g a",
      "s to",
      "d i",
      "as t",
      "n o",
      "T I",
      "c t",
      "f ri",
      "h ow",
      "b y",
      "s s",
      "fri end",
      "book s",
      "ou gh",
      "d ay",
      "br ar",
      "i ly",
      "is t",
      "es t",
      "e very",
      "s ay",
      "U M",
      "N UM",
      "E R",
      "f am",
      "thing s",
      "s p",
      "CAPS 2",
      "P ER",
      "li brar",
      "oun d",
      "v en",
      "mo re",
      "k now",
      "au gh",
      "are n",
      "p ro",
      "id e",
      "m p",
      "mo v",
      "at er",
      "k ing",
      "the n",
      "u ch",
      "t y",
      "w ant",
      "m any",
      "p o",
      "fam ily",
      "I n",
      "e l",
      "o b",
      "re at",
      "gi ble",
      "i e",
      "se e",
      "ri gible",
      "p p",
      "i l",
      "on g",
      "PER S",
      "ac k",
      "p aren",
      "d on",
      "ow n",
      "th or",
      "ch ild",
      "v es",
      "he l",
      "di rigible",
      "ab le",
      "I t",
      "l augh",
      "hel p",
      "au thor",
      "o ver",
      "h i",
      "p ar",
      "f ac",
      "al so",
      "build ing",
      "c k",
      "T h",
      "p le",
      "in e",
      "li fe",
      "ha pp",
      "s it",
      "d id",
      "t al",
      "at i",
      "ar d",
      "paren ts",
      "i p",
      "wh o",
      "h im",
      "TI ON1",
      "ne w",
      "friend s",
      "f ul",
      "ma ke",
      "T his",
      "g ood",
      "ens ive",
      "h as",
      "h ome",
      "ne ed",
      "way s",
      "ti on",
      "e ven",
      "l f",
      "wh i",
      "off ensive",
      "a f",
      "ta ke",
      "W h",
      "go ing",
      "i re",
      "he re",
      "le ar",
      "sh ip",
      "sto ry",
      "b o",
      "re as",
      "CAPS 3",
      "p ati",
      "ou s",
      "to o",
      "u e",
      "I f",
      "u se",
      "le d",
      "g ot",
      "ers on",
      "i ght",
      "t r",
      "es s",
      "ar t",
      "d if",
      "a ch",
      "W e",
      "v ing",
      "i al",
      "c y",
      "m ood",
      "l ook",
      "b ack",
      "lear n",
      "p re",
      "A n",
      "reas on",
      "a me",
      "or t",
      "d es",
      "f ind",
      "p erson",
      "some thing",
      "mo st",
      "sa id",
      "re d",
      "m uch",
      "librar y",
      "wor k",
      "y e",
      "an g",
      "ob st",
      "i ll",
      "sh ow",
      "cy cl",
      "oo l",
      "it y",
      "t ry",
      "e f",
      "fe ct",
      ". \"",
      "k id",
      "S o",
      "i g",
      "com e",
      "as s",
      "wh y",
      "NUM 1",
      "le s",
      "fe el",
      "cycl ist",
      "m ent",
      "at ure",
      "L O",
      "S t",
      "obst ac",
      "en ce",
      "th an",
      "LO CA",
      "ad e",
      "e p",
      "g reat",
      "A N",
      "p r",
      "c is",
      "O R",
      "ga in",
      "ir st",
      "w here",
      "it e",
      "us ic",
      "tal k",
      "dirigible s",
      "PERS ON1",
      "d own",
      "G AN",
      "I Z",
      "OR GAN",
      "IZ A",
      "ORGAN IZA",
      "child ren",
      "pl ac",
      "se t",
      "q u",
      "w r",
      "Wh en",
      "be ing",
      "en g",
      "al ways",
      "ar ound",
      "w a",
      "mp ire",
      "A l",
      "re ally",
      "r ough",
      "The y",
      "pati ent",
      "in to",
      "m usic",
      "o ld",
      "ri ght",
      "CAPS 4",
      "gr ap",
      "a ge",
      "wor ld",
      "a ir",
      "grap h",
      "o re",
      "re e",
      "in ter",
      "a gain",
      "c er",
      "se lf",
      "the se",
      "be li",
      "ch ool",
      "T H",
      "ta in",
      "ren t",
      "on ly",
      "M ON",
      "s ide",
      "s chool",
      "The re",
      "a g",
      "H e",
      "b ad",
      "e ver",
      "whi ch",
      "wa it",
      "a graph",
      "kid s",
      "a way",
      "d er",
      "E mpire",
      "m ade",
      "st art",
      "all ow",
      "ic e",
      "ON 2",
      "st u",
      "it s",
      "par agraph",
      "a in",
      "St ate",
      "be t",
      "or ing",
      "s u",
      "be en",
      "dif fe",
      "m es",
      "pl ay",
      "k es",
      "im p",
      "TH 1",
      "MON TH1",
      "some one",
      "l ow",
      "ater ial",
      "o se",
      "at ed",
      "d r",
      "l ine",
      "l ot",
      "f un",
      "for m",
      "m aterial",
      "th rough",
      "mov ies",
      "w ater",
      "ne ver",
      "to p",
      "it t",
      "ble m",
      "beli e",
      "w ent",
      "st r",
      "j o",
      "c o",
      "diffe rent",
      "pro blem",
      "am ple",
      "Th at",
      "ex ample",
      "librar ies",
      "i z",
      "t est",
      "ga z",
      ". .",
      "do es",
      "c us",
      "m om",
      "M y",
      "B u",
      "an s",
      "ORGANIZA TION1",
      "Bu ild",
      "did n",
      "con cl",
      "ou se",
      "p er",
      "f ore",
      "l ves",
      "le ss",
      "h ard",
      "belie ve",
      "re al",
      "Build ing",
      "ma gaz",
      "l a",
      "me mo",
      "lo ve",
      "memo ir",
      "LOCA TION1",
      "C om",
      "B ut",
      "Y ou",
      "happ y",
      "m ast",
      "set ting",
      "u m",
      "in es",
      "S a",
      "Al so",
      "so c",
      "c ame",
      "l ong",
      "ou ght",
      "c al",
      "f irst",
      "build ers",
      "ke ep",
      "CAPS 5",
      "h ouse",
      "ac t",
      "Com put",
      "every one",
      "t ur",
      "at ch",
      "h y",
      "Sa eng",
      "te ll",
      "c he",
      "e t",
      "f in",
      "say s",
      "st ill",
      "d ri",
      "h and",
      "bet ter",
      "u b",
      "ti mes",
      "le t",
      "ens or",
      "Comput ers",
      "th ough",
      "s uch",
      "me m",
      "tur n",
      "F or",
      "k ed",
      "do ck",
      "itt le",
      "plac e",
      "c ts",
      "c reat",
      "w ind",
      "fac ed",
      "obstac les",
      "c tion",
      "d y",
      "l ittle",
      "v i",
      "? ?",
      "s pe",
      "g en",
      "us ed",
      "ul t",
      "in t",
      "af fect",
      "v ed",
      "is cus",
      "in form",
      "O ne",
      "c oun",
      "S ome",
      "e ar",
      "p t",
      "hi gh",
      "an ce",
      "A T",
      "E 1",
      "imp ort",
      "sp end",
      "con t",
      "s c",
      "f ound",
      "m in",
      "th ose",
      "a ther",
      "e as",
      "ar cis",
      "ye ar",
      "arcis o",
      "b iscus",
      "h our",
      "w o",
      "N arciso",
      "w atch",
      "d is",
      "o l",
      "m i",
      "S he",
      "jo y",
      "com m",
      "m ight",
      "st e",
      "p ic",
      "sa me",
      "import ant",
      "D AT",
      "to w",
      "inform ation",
      "an other",
      "f l",
      "CAPS 6",
      "cer tain",
      "mo oring",
      "read ing",
      "An other",
      "magaz ines",
      "g ive",
      "An d",
      "ar ch",
      "ie ty",
      "c lo",
      "ne t",
      "she lves",
      "show s",
      "c ensor",
      "laugh ter",
      "n ing",
      "happ en",
      "get ting",
      "c ar",
      "on line",
      "whi le",
      "NUM 2",
      "a ve",
      "st ay",
      "start ed",
      "sa fe",
      "st and",
      "b ig",
      "ad d",
      "\" @",
      "ent s",
      "p ass",
      "l ast",
      "l ist",
      "con d",
      "te ach",
      "re l",
      "we ll",
      "h op",
      "e ach",
      "every thing",
      "mov ed",
      "th ought",
      "he d",
      "at es",
      "fac e",
      "re st",
      "t ri",
      "ar m",
      "any thing",
      "A s",
      "t en",
      "w al",
      "t wo",
      "soc iety",
      "laugh ing",
      "en joy",
      "ha ving",
      "d ing",
      "b er",
      "P e",
      "do ing",
      "to ld",
      "in ion",
      "f a",
      "ti c",
      "hi biscus",
      "k ind",
      "N e",
      "TI ON2",
      "Pe ople",
      ". �",
      "wor d",
      "af ter",
      "ro om",
      "out side",
      "la w",
      "bo dy",
      "n ature",
      "obstac le",
      "b est",
      "f t",
      "un der",
      "be fore",
      "gr ate",
      "Ne w",
      "ne x",
      "want ed",
      "other s",
      "ex t",
      "she lf",
      "op inion",
      "am es",
      "k en",
      "n g",
      "d ro",
      "DAT E1",
      "list en",
      "s ing",
      "comm un",
      "PERS ON2",
      "nex t",
      "mov ie",
      "inter net",
      "concl u",
      "M o",
      "with out",
      "b l",
      "g y",
      "j e",
      "pre ss",
      "creat ed",
      "don t",
      "m ind",
      "an ts",
      "be g",
      "l t",
      "ef fect",
      "ap er",
      "me an",
      "we b",
      "c r",
      "re ss",
      "you ng",
      "te mp",
      "R o",
      "ge ther",
      "grate ful",
      "c ur",
      "u ally",
      "i gh",
      "ma kes",
      "w on",
      "to gether",
      "c i",
      "at ing",
      "hop e",
      "fe ature",
      "try ing",
      "f f",
      "le ft",
      "dro gen",
      "Th en",
      "c es",
      "b an",
      "d in",
      "g ames",
      "li c",
      "real iz",
      "g ue",
      "is h",
      "pl ain",
      "material s",
      "po sit",
      "m ed",
      "mo ve",
      "po int",
      "b en",
      "s er",
      "CAPS 7",
      "ex er",
      "el se",
      "l and",
      "tal king",
      "b ro",
      "m an",
      "too k",
      "tow n",
      "r ing",
      "g u",
      "it ed",
      "d one",
      "he ad",
      "ide a",
      "censor ship",
      "en ough",
      "ig n",
      "d ad",
      "sto p",
      "se arch",
      "ta ken",
      "no thing",
      "stu d",
      "hy drogen",
      "end ed",
      "D ear",
      "as k",
      "en se",
      "exer cis",
      "ship s",
      "i th",
      "does n",
      "s ed",
      "li ve",
      "would n",
      "m at",
      "reason s",
      "c id",
      "at temp",
      "mo ther",
      "ation s",
      "ar y",
      "read y",
      "say ing",
      "pr op",
      "g ir",
      "ty pe",
      "feature s",
      "c ess",
      "ste ad",
      "e ye",
      "an ge",
      "c ri",
      "ag ree",
      "E very",
      "par t",
      "f re",
      "vi ol",
      "gir l",
      "s up",
      "f ar",
      "re moved",
      "us ing",
      "pati ence",
      "to r",
      "gue z",
      "dri guez",
      "coun try",
      "Ro driguez",
      "h ot",
      "y es",
      "it ion",
      "L i",
      "ma king",
      "hour s",
      "A ll",
      "as e",
      "n ess",
      "es e",
      "d ang",
      "W ith",
      "wr ong",
      "are a",
      "p h",
      "f ly",
      "i er",
      "us ion",
      "wr it",
      "fe w",
      "who le",
      "ic k",
      "v ide"
    ]
  }
}