{
  "version": "1.0",
  "truncation": null,
  "padding": null,
  "added_tokens": [
    {
      "id": 0,
      "content": "<PAD>",
      "single_word": false,
      "lstrip": false,
      "rstrip": false,
      "normalized": false,
      "special": true
    },
    {
      "id": 1,
      "content": "@CAPS",
      "single_word": false,
      "lstrip": false,
      "rstrip": false,
      "normalized": false,
      "special": true
    },
    {
      "id": 2,
      "content": "@CITY",
      "single_word": false,
      "lstrip": false,
      "rstrip": false,
      "normalized": false,
      "special": true
    },
    {
      "id": 3,
      "content": "@DATE",
      "single_word": false,
      "lstrip": false,
      "rstrip": false,
      "normalized": false,
      "special": true
    },
    {
      "id": 4,
      "content": "@DR",
      "single_word": false,
      "lstrip": false,
      "rstrip": false,
      "normalized": false,
      "special": true
    },
    {
      "id": 5,
      "content": "@EMAIL",
      "single_word": false,
      "lstrip": false,
      "rstrip": false,
      "normalized": false,
      "special": true
    },
    {
      "id": 6,
      "content": "@LOCATION",
      "single_word": false,
      "lstrip": false,
      "rstrip": false,
      "normalized": false,
      "special": true
    },
    {
      "id": 7,
      "content": "@MONEY",
      "single_word": false,
      "lstrip": false,
      "rstrip": false,
      "normalized": false,
      "special": true
    },
    {
      "id": 8,
      "content": "@MONTH",
      "single_word": false,
      "lstrip": false,
      "rstrip": false,
      "normalized": false,
      "special": true
    },
    {
      "id": 9,
      "content": "@NUM",
      "single_word": false,
      "lstrip": false,
      "rstrip": false,
      "normalized": false,
      "special": true
    },
    {
      "id": 10,
      "content": "@ORGANIZATION",
      "single_word": false,
      "lstrip": false,
      "rstrip": false,
      "normalized": false,
      "special": true
    },
    {
      "id": 11,
      "content": "@PERCENT",
      "single_word": false,
      "lstrip": false,
      "rstrip": false,
      "normalized": false,
      "special": true
    },
    {
      "id": 12,
      "content": "@PERSON",
      "single_word": false,
      "lstrip": false,
      "rstrip": false,
      "normalized": false,
      "special": true
    },
    {
      "id": 13,
      "content": "@STATE",
      "single_word": false,
      "lstrip": false,
      "rstrip": false,
      "normalized": false,
      "special": true
    },
    {
      "id": 14,
      "content": "@TIME",
      "single_word": false,
      "lstrip": false,
      "rstrip": false,
      "normalized": false,
      "special": true
    }
  ],
  "normalizer": {
    "type": "Lowercase"
  },
  "pre_tokenizer": {
    "type": "Whitespace"
  },
  "post_processor": null,
  "decoder": null,
  "model": {
    "type": "BPE",
    "dropout": null,
    "unk_token": null,
    "continuing_subword_prefix": null,
    "end_of_word_suffix": null,
    "fuse_unk": false,
    "vocab": {
      "<PAD>": 0,
      "@CAPS": 1,
      "@CITY": 2,
      "@DATE": 3,
      "@DR": 4,
      "@EMAIL": 5,
      "@LOCATION": 6,
      "@MONEY": 7,
      "@MONTH": 8,
      "@NUM": 9,
      "@ORGANIZATION": 10,
      "@PERCENT": 11,
      "@PERSON": 12,
      "@STATE": 13,
      "@TIME": 14,
      "!": 15,
      "\"": 16,
      "#": 17,
      "$": 18,
      "%": 19,
      "&": 20,
      "'": 21,
      "(": 22,
      ")": 23,
      "*": 24,
      "+": 25,
      ",": 26,
      "-": 27,
      ".": 28,
      "/": 29,
      "0": 30,
      "1": 31,
      "2": 32,
      "3": 33,
      "4": 34,
      "5": 35,
      "6": 36,
      "7": 37,
      "8": 38,
      "9": 39,
      ":": 40,
      ";": 41,
      "<": 42,
      "=": 43,
      ">": 44,
      "?": 45,
      "@": 46,
      "[": 47,
      "\\": 48,
      "]": 49,
      "_": 50,
      "`": 51,
      "a": 52,
      "b": 53,
      "c": 54,
      "d": 55,
      "e": 56,
      "f": 57,
      "g": 58,
      "h": 59,
      "i": 60,
      "j": 61,
      "k": 62,
      "l": 63,
      "m": 64,
      "n": 65,
      "o": 66,
      "p": 67,
      "q": 68,
      "r": 69,
      "s": 70,
      "t": 71,
      "u": 72,
      "v": 73,
      "w": 74,
      "x": 75,
      "y": 76,
      "z": 77,
      "|": 78,
      "~": 79,
      "½": 80,
      "ü": 81,
      "–": 82,
      "‘": 83,
      "’": 84,
      "“": 85,
      "…": 86,
      "�": 87,
      "th": 88,
      "the": 89,
      "in": 90,
      "an": 91,
      "re": 92,
      "at": 93,
      "ou": 94,
      "er": 95,
      "on": 96,
      "to": 97,
      "ing": 98,
      "en": 99,
      "or": 100,
      "is": 101,
      "and": 102,
      "le": 103,
      "as": 104,
      "it": 105,
      "al": 106,
      "om": 107,
      "es": 108,
      "ed": 109,
      "of": 110,
      "be": 111,
      "ca": 112,
      "ld": 113,
      "st": 114,
      "se": 115,
      "ar": 116,
      "that": 117,
      "he": 118,
      "ve": 119,
      "you": 120,
      "ha": 121,
      "ps": 122,
      "ch": 123,
      "li": 124,
      "ut": 125,
      "wh": 126,
      "ow": 127,
      "oo": 128,
      "ly": 129,
      "caps": 130,
      "we": 131,
      "ay": 132,
      "me": 133,
      "ould": 134,
      "was": 135,
      "com": 136,
      "wi": 137,
      "ot": 138,
      "for": 139,
      "ri": 140,
      "op": 141,
      "are": 142,
      "gh": 143,
      "ers": 144,
      "ad": 145,
      "ac": 146,
      "ion": 147,
      "ver": 148,
      "mo": 149,
      "pe": 150,
      "ke": 151,
      "so": 152,
      "out": 153,
      "id": 154,
      "they": 155,
      "fe": 156,
      "ir": 157,
      "ll": 158,
      "sh": 159,
      "ge": 160,
      "ent": 161,
      "put": 162,
      "ne": 163,
      "ome": 164,
      "with": 165,
      "ab": 166,
      "one": 167,
      "peop": 168,
      "people": 169,
      "have": 170,
      "ic": 171,
      "if": 172,
      "use": 173,
      "comput": 174,
      "my": 175,
      "all": 176,
      "thing": 177,
      "ook": 178,
      "do": 179,
      "not": 180,
      "ther": 181,
      "us": 182,
      "am": 183,
      "ation": 184,
      "ro": 185,
      "this": 186,
      "ild": 187,
      "ti": 188,
      "ts": 189,
      "some": 190,
      "can": 191,
      "ter": 192,
      "cause": 193,
      "end": 194,
      "would": 195,
      "lo": 196,
      "she": 197,
      "there": 198,
      "un": 199,
      "book": 200,
      "ma": 201,
      "bu": 202,
      "because": 203,
      "au": 204,
      "caps1": 205,
      "very": 206,
      "way": 207,
      "any": 208,
      "but": 209,
      "go": 210,
      "ate": 211,
      "when": 212,
      "ex": 213,
      "sa": 214,
      "ta": 215,
      "con": 216,
      "fr": 217,
      "about": 218,
      "te": 219,
      "ant": 220,
      "ce": 221,
      "get": 222,
      "ble": 223,
      "im": 224,
      "ood": 225,
      "ry": 226,
      "ght": 227,
      "up": 228,
      "wor": 229,
      "now": 230,
      "pl": 231,
      "de": 232,
      "um": 233,
      "other": 234,
      "ul": 235,
      "build": 236,
      "ind": 237,
      "off": 238,
      "pers": 239,
      "had": 240,
      "ust": 241,
      "our": 242,
      "like": 243,
      "gr": 244,
      "computers": 245,
      "ive": 246,
      "what": 247,
      "time": 248,
      "ct": 249,
      "person": 250,
      "ting": 251,
      "br": 252,
      "their": 253,
      "oun": 254,
      "her": 255,
      "from": 256,
      "were": 257,
      "should": 258,
      "his": 259,
      "ap": 260,
      "them": 261,
      "ink": 262,
      "just": 263,
      "ur": 264,
      "computer": 265,
      "could": 266,
      "ren": 267,
      "ally": 268,
      "ens": 269,
      "ure": 270,
      "read": 271,
      "think": 272,
      "no": 273,
      "will": 274,
      "your": 275,
      "ies": 276,
      "cl": 277,
      "how": 278,
      "every": 279,
      "di": 280,
      "gi": 281,
      "ast": 282,
      "ga": 283,
      "by": 284,
      "books": 285,
      "building": 286,
      "est": 287,
      "sto": 288,
      "also": 289,
      "then": 290,
      "fri": 291,
      "num": 292,
      "friend": 293,
      "ss": 294,
      "ough": 295,
      "ist": 296,
      "libr": 297,
      "day": 298,
      "librar": 299,
      "say": 300,
      "ily": 301,
      "augh": 302,
      "fam": 303,
      "sp": 304,
      "things": 305,
      "laugh": 306,
      "many": 307,
      "caps2": 308,
      "more": 309,
      "ound": 310,
      "ev": 311,
      "know": 312,
      "mov": 313,
      "pro": 314,
      "aren": 315,
      "ide": 316,
      "ater": 317,
      "em": 318,
      "po": 319,
      "new": 320,
      "king": 321,
      "art": 322,
      "uch": 323,
      "family": 324,
      "want": 325,
      "ob": 326,
      "iz": 327,
      "paren": 328,
      "gible": 329,
      "ty": 330,
      "reat": 331,
      "diri": 332,
      "don": 333,
      "el": 334,
      "child": 335,
      "ie": 336,
      "ong": 337,
      "pp": 338,
      "dirigible": 339,
      "il": 340,
      "own": 341,
      "over": 342,
      "thor": 343,
      "ack": 344,
      "af": 345,
      "author": 346,
      "hel": 347,
      "ves": 348,
      "even": 349,
      "fac": 350,
      "ck": 351,
      "ple": 352,
      "able": 353,
      "hi": 354,
      "whi": 355,
      "parents": 356,
      "did": 357,
      "life": 358,
      "pat": 359,
      "happ": 360,
      "tal": 361,
      "ine": 362,
      "who": 363,
      "sit": 364,
      "home": 365,
      "him": 366,
      "friends": 367,
      "make": 368,
      "ation1": 369,
      "ire": 370,
      "good": 371,
      "ful": 372,
      "see": 373,
      "ensive": 374,
      "ard": 375,
      "has": 376,
      "pati": 377,
      "here": 378,
      "need": 379,
      "help": 380,
      "ways": 381,
      "offensive": 382,
      "most": 383,
      "take": 384,
      "lf": 385,
      "ach": 386,
      "going": 387,
      "bo": 388,
      "lear": 389,
      "shi": 390,
      "red": 391,
      "story": 392,
      "reas": 393,
      "too": 394,
      "caps3": 395,
      "ous": 396,
      "loc": 397,
      "ial": 398,
      "ue": 399,
      "led": 400,
      "got": 401,
      "tr": 402,
      "ess": 403,
      "dif": 404,
      "these": 405,
      "look": 406,
      "gan": 407,
      "back": 408,
      "cy": 409,
      "ight": 410,
      "mood": 411,
      "learn": 412,
      "ving": 413,
      "reason": 414,
      "des": 415,
      "ort": 416,
      "find": 417,
      "something": 418,
      "pre": 419,
      "par": 420,
      "kid": 421,
      "ye": 422,
      "said": 423,
      "state": 424,
      "why": 425,
      "library": 426,
      "much": 427,
      "fect": 428,
      "work": 429,
      "obst": 430,
      "show": 431,
      "cycl": 432,
      "ill": 433,
      "try": 434,
      "ity": 435,
      "than": 436,
      "mon": 437,
      "ool": 438,
      "ang": 439,
      ".\"": 440,
      "come": 441,
      "being": 442,
      "ass": 443,
      "dirigibles": 444,
      "children": 445,
      "ig": 446,
      "num1": 447,
      "les": 448,
      "feel": 449,
      "cyclist": 450,
      "ef": 451,
      "obstac": 452,
      "organ": 453,
      "ature": 454,
      "where": 455,
      "organiz": 456,
      "per": 457,
      "ence": 458,
      "rough": 459,
      "another": 460,
      "great": 461,
      "pr": 462,
      "mus": 463,
      "emp": 464,
      "cis": 465,
      "gain": 466,
      "irst": 467,
      "music": 468,
      "talk": 469,
      "ade": 470,
      "down": 471,
      "wr": 472,
      "qu": 473,
      "set": 474,
      "person1": 475,
      "act": 476,
      "plac": 477,
      "ment": 478,
      "fo": 479,
      "patient": 480,
      "ship": 481,
      "wa": 482,
      "always": 483,
      "eng": 484,
      "around": 485,
      "right": 486,
      "really": 487,
      "empire": 488,
      "cer": 489,
      "into": 490,
      "its": 491,
      "sch": 492,
      "grap": 493,
      "old": 494,
      "age": 495,
      "caps4": 496,
      "inter": 497,
      "again": 498,
      "world": 499,
      "graph": 500,
      "month": 501,
      "self": 502,
      "which": 503,
      "ep": 504,
      "beli": 505,
      "kids": 506,
      "first": 507,
      "only": 508,
      "ree": 509,
      "school": 510,
      "tain": 511,
      "rent": 512,
      "air": 513,
      "ice": 514,
      "side": 515,
      "bad": 516,
      "fin": 517,
      "ag": 518,
      "ever": 519,
      "libraries": 520,
      "para": 521,
      "wait": 522,
      "allow": 523,
      "der": 524,
      "stu": 525,
      "away": 526,
      "through": 527,
      "made": 528,
      "start": 529,
      "paragraph": 530,
      "ite": 531,
      "movies": 532,
      "bet": 533,
      "someone": 534,
      "diffe": 535,
      "mast": 536,
      "ain": 537,
      "fl": 538,
      "oring": 539,
      "play": 540,
      "been": 541,
      "jo": 542,
      "port": 543,
      "dr": 544,
      "everyone": 545,
      "mes": 546,
      "kes": 547,
      "mater": 548,
      "ub": 549,
      "co": 550,
      "month1": 551,
      "never": 552,
      "material": 553,
      "lot": 554,
      "ose": 555,
      "ated": 556,
      "line": 557,
      "water": 558,
      "fun": 559,
      "form": 560,
      "itt": 561,
      "str": 562,
      "went": 563,
      "proble": 564,
      "different": 565,
      "top": 566,
      "problem": 567,
      "does": 568,
      "ample": 569,
      "fore": 570,
      "example": 571,
      "test": 572,
      "la": 573,
      "gaz": 574,
      "mom": 575,
      "..": 576,
      "eve": 577,
      "cus": 578,
      "atch": 579,
      "saeng": 580,
      "after": 581,
      "magaz": 582,
      "ans": 583,
      "organization1": 584,
      "concl": 585,
      "didn": 586,
      "love": 587,
      "lves": 588,
      "ouse": 589,
      "cens": 590,
      "believe": 591,
      "less": 592,
      "hard": 593,
      "real": 594,
      "pt": 595,
      "setting": 596,
      "memo": 597,
      "memoir": 598,
      "happy": 599,
      "location1": 600,
      "soc": 601,
      "ions": 602,
      "hy": 603,
      "last": 604,
      "builders": 605,
      "laughter": 606,
      "used": 607,
      "came": 608,
      "long": 609,
      "let": 610,
      "ought": 611,
      "ines": 612,
      "well": 613,
      "caps5": 614,
      "tur": 615,
      "house": 616,
      "dri": 617,
      "tell": 618,
      "spe": 619,
      "hand": 620,
      "such": 621,
      "still": 622,
      "though": 623,
      "those": 624,
      "mooring": 625,
      "says": 626,
      "better": 627,
      "times": 628,
      "wind": 629,
      "turn": 630,
      "keep": 631,
      "mem": 632,
      "censor": 633,
      "ked": 634,
      "ittle": 635,
      "dock": 636,
      "watch": 637,
      "creat": 638,
      "little": 639,
      "place": 640,
      "affect": 641,
      "date": 642,
      "obstacles": 643,
      "nar": 644,
      "cts": 645,
      "faced": 646,
      "vi": 647,
      "dy": 648,
      "??": 649,
      "min": 650,
      "gen": 651,
      "ult": 652,
      "high": 653,
      "int": 654,
      "while": 655,
      "inform": 656,
      "coun": 657,
      "iscus": 658,
      "hib": 659,
      "spend": 660,
      "ance": 661,
      "low": 662,
      "cont": 663,
      "import": 664,
      "found": 665,
      "wo": 666,
      "fa": 667,
      "et": 668,
      "car": 669,
      "arch": 670,
      "year": 671,
      "narcis": 672,
      "inst": 673,
      "certain": 674,
      "narciso": 675,
      "hour": 676,
      "su": 677,
      "magazines": 678,
      "sm": 679,
      "eas": 680,
      "dis": 681,
      "hibiscus": 682,
      "reading": 683,
      "pic": 684,
      "same": 685,
      "joy": 686,
      "might": 687,
      "lim": 688,
      "tow": 689,
      "ved": 690,
      "teach": 691,
      "information": 692,
      "important": 693,
      "ol": 694,
      "ish": 695,
      "caps6": 696,
      "give": 697,
      "ents": 698,
      "without": 699,
      "clo": 700,
      "pass": 701,
      "iety": 702,
      "having": 703,
      "nex": 704,
      "everything": 705,
      "laughing": 706,
      "getting": 707,
      "net": 708,
      "shelves": 709,
      "online": 710,
      "shows": 711,
      "safe": 712,
      "next": 713,
      "add": 714,
      "happen": 715,
      "cal": 716,
      "hop": 717,
      "censorship": 718,
      "cent": 719,
      "comm": 720,
      "stay": 721,
      "big": 722,
      "two": 723,
      "each": 724,
      "num2": 725,
      "stand": 726,
      "started": 727,
      "ci": 728,
      "\"@": 729,
      "list": 730,
      "rel": 731,
      "ning": 732,
      "cond": 733,
      "face": 734,
      "before": 735,
      "anything": 736,
      "nature": 737,
      "moved": 738,
      "thought": 739,
      "ates": 740,
      "tri": 741,
      "wal": 742,
      "rest": 743,
      "society": 744,
      "arm": 745,
      "part": 746,
      "enjoy": 747,
      "doing": 748,
      "body": 749,
      "ame": 750,
      "ber": 751,
      "ding": 752,
      "ather": 753,
      "told": 754,
      "finally": 755,
      "vel": 756,
      "others": 757,
      "kind": 758,
      "sim": 759,
      "opin": 760,
      "outside": 761,
      "ation2": 762,
      "word": 763,
      ".�": 764,
      "bl": 765,
      "room": 766,
      "under": 767,
      "obstacle": 768,
      "che": 769,
      "ft": 770,
      "best": 771,
      "mp": 772,
      "grate": 773,
      "commun": 774,
      "dro": 775,
      "wanted": 776,
      "shelf": 777,
      "cr": 778,
      "law": 779,
      "ken": 780,
      "ng": 781,
      "date1": 782,
      "listen": 783,
      "ames": 784,
      "internet": 785,
      "conclu": 786,
      "effect": 787,
      "movie": 788,
      "dont": 789,
      "person2": 790,
      "mean": 791,
      "ually": 792,
      "young": 793,
      "web": 794,
      "press": 795,
      "gy": 796,
      "created": 797,
      "je": 798,
      "mind": 799,
      "using": 800,
      "igh": 801,
      "ants": 802,
      "patience": 803,
      "lt": 804,
      "aper": 805,
      "cur": 806,
      "yes": 807,
      "hope": 808,
      "ress": 809,
      "grateful": 810,
      "ction": 811,
      "gether": 812,
      "makes": 813,
      "won": 814,
      "together": 815,
      "feature": 816,
      "trying": 817,
      "ban": 818,
      "left": 819,
      "materials": 820,
      "hydro": 821,
      "ating": 822,
      "hydrogen": 823,
      "stud": 824,
      "ces": 825,
      "games": 826,
      "road": 827,
      "din": 828,
      "realiz": 829,
      "exer": 830,
      "second": 831,
      "posit": 832,
      "talking": 833,
      "search": 834,
      "plain": 835,
      "cre": 836,
      "ten": 837,
      "ser": 838,
      "lic": 839,
      "move": 840,
      "ben": 841,
      "point": 842,
      "nothing": 843,
      "land": 844,
      "caps7": 845,
      "man": 846,
      "else": 847,
      "ff": 848,
      "gue": 849,
      "head": 850,
      "took": 851,
      "town": 852,
      "ring": 853,
      "ped": 854,
      "idea": 855,
      "done": 856,
      "ited": 857,
      "dear": 858,
      "res": 859,
      "enough": 860,
      "exercis": 861,
      "dad": 862,
      "ange": 863,
      "bro": 864,
      "ign": 865,
      "ext": 866,
      "atte": 867,
      "taken": 868,
      "wouldn": 869,
      "ask": 870,
      "lives": 871,
      "ships": 872,
      "ended": 873,
      "once": 874,
      "today": 875,
      "ense": 876,
      "iss": 877,
      "doesn": 878,
      "mother": 879,
      "fre": 880,
      "taking": 881,
      "features": 882,
      "live": 883,
      "reasons": 884,
      "saying": 885,
      "cri": 886,
      "cid": 887,
      "making": 888,
      "viol": 889,
      "mat": 890,
      "ations": 891,
      "ready": 892,
      "prop": 893,
      "seem": 894,
      "gir": 895,
      "sup": 896,
      "type": 897,
      "ead": 898,
      "cess": 899,
      "almost": 900,
      "eye": 901,
      "gu": 902,
      "girl": 903,
      "states": 904,
      "removed": 905,
      "tor": 906,
      "hot": 907,
      "far": 908,
      "country": 909,
      "guez": 910,
      "rodri": 911,
      "rodriguez": 912,
      "ick": 913,
      "lea": 914,
      "vie": 915,
      "hours": 916,
      "oney": 917,
      "stop": 918,
      "ph": 919,
      "ness": 920,
      "dang": 921,
      "ese": 922,
      "writ": 923,
      "agree": 924,
      "vide": 925,
      "instead": 926,
      "opinion": 927,
      "ase": 928,
      "wrong": 929,
      "ier": 930,
      "area": 931,
      "fly": 932,
      "money": 933,
      "tech": 934,
      "few": 935,
      "positive": 936,
      "whole": 937,
      "cen": 938,
      "open": 939,
      "cub": 940,
      "winds": 941,
      "usion": 942,
      "ride": 943,
      "problems": 944,
      "looking": 945,
      "ary": 946,
      "understand": 947,
      "sure": 948,
      "sur": 949,
      "ven": 950,
      "unti": 951,
      "ince": 952,
      "ative": 953,
      "places": 954,
      "stuff": 955,
      "couldn": 956,
      "job": 957,
      "both": 958,
      "due": 959,
      "may": 960,
      "spring": 961,
      "pub": 962,
      "frame": 963,
      "sing": 964,
      "communic": 965,
      "exper": 966,
      "conclusion": 967,
      "waiting": 968,
      "ote": 969,
      "ny": 970,
      "deser": 971,
      "stru": 972,
      "comes": 973,
      "become": 974,
      "gin": 975,
      "websit": 976,
      "class": 977,
      "adv": 978,
      "percent": 979,
      "sk": 980,
      "riate": 981,
      "hill": 982,
      "grow": 983,
      "concludes": 984,
      "wasn": 985,
      "feeling": 986,
      "sometimes": 987,
      "thank": 988,
      "since": 989,
      "stress": 990,
      "fects": 991,
      "cor": 992,
      "benef": 993,
      "until": 994,
      "techno": 995,
      "ull": 996,
      "fic": 997,
      "shouldn": 998,
      "bab": 999
    },
    "merges": [
      "t h",
      "th e",
      "i n",
      "a n",
      "r e",
      "a t",
      "o u",
      "e r",
      "o n",
      "t o",
      "in g",
      "e n",
      "o r",
      "i s",
      "an d",
      "l e",
      "a s",
      "i t",
      "a l",
      "o m",
      "e s",
      "e d",
      "o f",
      "b e",
      "c a",
      "l d",
      "s t",
      "s e",
      "a r",
      "th at",
      "h e",
      "v e",
      "y ou",
      "h a",
      "p s",
      "c h",
      "l i",
      "u t",
      "w h",
      "o w",
      "o o",
      "l y",
      "ca ps",
      "w e",
      "a y",
      "m e",
      "ou ld",
      "w as",
      "c om",
      "w i",
      "o t",
      "f or",
      "r i",
      "o p",
      "a re",
      "g h",
      "er s",
      "a d",
      "a c",
      "i on",
      "v er",
      "m o",
      "p e",
      "k e",
      "s o",
      "ou t",
      "i d",
      "the y",
      "f e",
      "i r",
      "l l",
      "s h",
      "g e",
      "en t",
      "p ut",
      "n e",
      "om e",
      "wi th",
      "a b",
      "on e",
      "pe op",
      "peop le",
      "ha ve",
      "i c",
      "i f",
      "u se",
      "com put",
      "m y",
      "al l",
      "th ing",
      "oo k",
      "d o",
      "n ot",
      "the r",
      "u s",
      "a m",
      "at ion",
      "r o",
      "th is",
      "i ld",
      "t i",
      "t s",
      "s ome",
      "c an",
      "t er",
      "ca use",
      "en d",
      "w ould",
      "l o",
      "s he",
      "the re",
      "u n",
      "b ook",
      "m a",
      "b u",
      "be cause",
      "a u",
      "caps 1",
      "ver y",
      "w ay",
      "an y",
      "b ut",
      "g o",
      "at e",
      "wh en",
      "e x",
      "s a",
      "t a",
      "c on",
      "f r",
      "ab out",
      "t e",
      "an t",
      "c e",
      "ge t",
      "b le",
      "i m",
      "oo d",
      "r y",
      "gh t",
      "u p",
      "w or",
      "n ow",
      "p l",
      "d e",
      "u m",
      "o ther",
      "u l",
      "bu ild",
      "in d",
      "of f",
      "p ers",
      "ha d",
      "u st",
      "ou r",
      "li ke",
      "g r",
      "comput ers",
      "i ve",
      "wh at",
      "ti me",
      "c t",
      "pers on",
      "t ing",
      "b r",
      "the ir",
      "ou n",
      "h er",
      "fr om",
      "we re",
      "sh ould",
      "h is",
      "a p",
      "the m",
      "in k",
      "j ust",
      "u r",
      "comput er",
      "c ould",
      "re n",
      "al ly",
      "en s",
      "u re",
      "re ad",
      "th ink",
      "n o",
      "wi ll",
      "you r",
      "i es",
      "c l",
      "h ow",
      "e very",
      "d i",
      "g i",
      "as t",
      "g a",
      "b y",
      "book s",
      "build ing",
      "es t",
      "s to",
      "al so",
      "the n",
      "f ri",
      "n um",
      "fri end",
      "s s",
      "ou gh",
      "is t",
      "li br",
      "d ay",
      "libr ar",
      "s ay",
      "i ly",
      "au gh",
      "f am",
      "s p",
      "thing s",
      "l augh",
      "m any",
      "caps 2",
      "mo re",
      "oun d",
      "e v",
      "k now",
      "mo v",
      "p ro",
      "are n",
      "id e",
      "at er",
      "e m",
      "p o",
      "ne w",
      "k ing",
      "ar t",
      "u ch",
      "fam ily",
      "w ant",
      "o b",
      "i z",
      "p aren",
      "gi ble",
      "t y",
      "re at",
      "di ri",
      "d on",
      "e l",
      "ch ild",
      "i e",
      "on g",
      "p p",
      "diri gible",
      "i l",
      "ow n",
      "o ver",
      "th or",
      "ac k",
      "a f",
      "au thor",
      "he l",
      "v es",
      "ev en",
      "f ac",
      "c k",
      "p le",
      "ab le",
      "h i",
      "wh i",
      "paren ts",
      "d id",
      "li fe",
      "p at",
      "ha pp",
      "t al",
      "in e",
      "wh o",
      "s it",
      "h ome",
      "h im",
      "friend s",
      "ma ke",
      "ation 1",
      "i re",
      "g ood",
      "f ul",
      "se e",
      "ens ive",
      "ar d",
      "h as",
      "pat i",
      "he re",
      "ne ed",
      "hel p",
      "way s",
      "off ensive",
      "mo st",
      "ta ke",
      "l f",
      "a ch",
      "go ing",
      "b o",
      "le ar",
      "sh i",
      "re d",
      "sto ry",
      "re as",
      "to o",
      "caps 3",
      "ou s",
      "lo c",
      "i al",
      "u e",
      "le d",
      "g ot",
      "t r",
      "es s",
      "d if",
      "the se",
      "l ook",
      "g an",
      "b ack",
      "c y",
      "i ght",
      "m ood",
      "lear n",
      "v ing",
      "reas on",
      "d es",
      "or t",
      "f ind",
      "some thing",
      "p re",
      "p ar",
      "k id",
      "y e",
      "sa id",
      "st ate",
      "wh y",
      "librar y",
      "m uch",
      "fe ct",
      "wor k",
      "ob st",
      "sh ow",
      "cy cl",
      "i ll",
      "t ry",
      "it y",
      "th an",
      "m on",
      "oo l",
      "an g",
      ". \"",
      "com e",
      "be ing",
      "as s",
      "dirigible s",
      "child ren",
      "i g",
      "num 1",
      "le s",
      "fe el",
      "cycl ist",
      "e f",
      "obst ac",
      "or gan",
      "at ure",
      "w here",
      "organ iz",
      "p er",
      "en ce",
      "r ough",
      "an other",
      "g reat",
      "p r",
      "m us",
      "em p",
      "c is",
      "ga in",
      "ir st",
      "mus ic",
      "tal k",
      "ad e",
      "d own",
      "w r",
      "q u",
      "se t",
      "person 1",
      "ac t",
      "pl ac",
      "m ent",
      "f o",
      "pati ent",
      "shi p",
      "w a",
      "al ways",
      "en g",
      "ar ound",
      "ri ght",
      "re ally",
      "emp ire",
      "c er",
      "in to",
      "it s",
      "s ch",
      "gr ap",
      "o ld",
      "a ge",
      "caps 4",
      "in ter",
      "a gain",
      "wor ld",
      "grap h",
      "mon th",
      "se lf",
      "whi ch",
      "e p",
      "be li",
      "kid s",
      "f irst",
      "on ly",
      "re e",
      "sch ool",
      "ta in",
      "ren t",
      "a ir",
      "ic e",
      "s ide",
      "b ad",
      "f in",
      "a g",
      "e ver",
      "librar ies",
      "par a",
      "wa it",
      "all ow",
      "d er",
      "st u",
      "a way",
      "th rough",
      "m ade",
      "st art",
      "para graph",
      "it e",
      "mov ies",
      "be t",
      "some one",
      "dif fe",
      "m ast",
      "a in",
      "f l",
      "or ing",
      "pl ay",
      "be en",
      "j o",
      "p ort",
      "d r",
      "every one",
      "m es",
      "k es",
      "m ater",
      "u b",
      "c o",
      "month 1",
      "ne ver",
      "mater ial",
      "l ot",
      "o se",
      "at ed",
      "l ine",
      "w ater",
      "f un",
      "for m",
      "it t",
      "st r",
      "w ent",
      "pro ble",
      "diffe rent",
      "to p",
      "proble m",
      "do es",
      "am ple",
      "fo re",
      "ex ample",
      "t est",
      "l a",
      "ga z",
      "m om",
      ". .",
      "e ve",
      "c us",
      "at ch",
      "sa eng",
      "af ter",
      "ma gaz",
      "an s",
      "organiz ation1",
      "con cl",
      "did n",
      "lo ve",
      "l ves",
      "ou se",
      "c ens",
      "beli eve",
      "le ss",
      "h ard",
      "re al",
      "p t",
      "set ting",
      "me mo",
      "memo ir",
      "happ y",
      "loc ation1",
      "so c",
      "ion s",
      "h y",
      "l ast",
      "build ers",
      "laugh ter",
      "us ed",
      "ca me",
      "l ong",
      "le t",
      "ou ght",
      "in es",
      "we ll",
      "caps 5",
      "t ur",
      "h ouse",
      "d ri",
      "te ll",
      "s pe",
      "h and",
      "s uch",
      "st ill",
      "th ough",
      "th ose",
      "mo oring",
      "say s",
      "bet ter",
      "ti mes",
      "w ind",
      "tur n",
      "ke ep",
      "me m",
      "cens or",
      "k ed",
      "itt le",
      "do ck",
      "w atch",
      "c reat",
      "l ittle",
      "plac e",
      "af fect",
      "d ate",
      "obstac les",
      "n ar",
      "c ts",
      "fac ed",
      "v i",
      "d y",
      "? ?",
      "m in",
      "g en",
      "ul t",
      "hi gh",
      "in t",
      "whi le",
      "in form",
      "c oun",
      "is cus",
      "hi b",
      "sp end",
      "an ce",
      "l ow",
      "con t",
      "im port",
      "f ound",
      "w o",
      "f a",
      "e t",
      "ca r",
      "ar ch",
      "ye ar",
      "nar cis",
      "in st",
      "cer tain",
      "narcis o",
      "h our",
      "s u",
      "magaz ines",
      "s m",
      "e as",
      "d is",
      "hib iscus",
      "read ing",
      "p ic",
      "sa me",
      "jo y",
      "m ight",
      "li m",
      "to w",
      "v ed",
      "te ach",
      "inform ation",
      "import ant",
      "o l",
      "is h",
      "caps 6",
      "g ive",
      "ent s",
      "with out",
      "c lo",
      "p ass",
      "ie ty",
      "ha ving",
      "ne x",
      "every thing",
      "laugh ing",
      "get ting",
      "ne t",
      "she lves",
      "on line",
      "show s",
      "sa fe",
      "nex t",
      "ad d",
      "happ en",
      "c al",
      "h op",
      "censor ship",
      "c ent",
      "com m",
      "st ay",
      "b ig",
      "t wo",
      "e ach",
      "num 2",
      "st and",
      "start ed",
      "c i",
      "\" @",
      "l ist",
      "re l",
      "n ing",
      "con d",
      "fac e",
      "be fore",
      "any thing",
      "n ature",
      "mov ed",
      "th ought",
      "at es",
      "t ri",
      "w al",
      "re st",
      "soc iety",
      "ar m",
      "p art",
      "en joy",
      "do ing",
      "bo dy",
      "a me",
      "b er",
      "d ing",
      "a ther",
      "to ld",
      "fin ally",
      "ve l",
      "other s",
      "k ind",
      "s im",
      "op in",
      "out side",
      "ation 2",
      "wor d",
      ". �",
      "b l",
      "ro om",
      "un der",
      "obstac le",
      "c he",
      "f t",
      "b est",
      "m p",
      "gr ate",
      "comm un",
      "d ro",
      "want ed",
      "she lf",
      "c r",
      "la w",
      "k en",
      "n g",
      "date 1",
      "list en",
      "am es",
      "inter net",
      "concl u",
      "ef fect",
      "mov ie",
      "don t",
      "person 2",
      "me an",
      "u ally",
      "you ng",
      "we b",
      "pre ss",
      "g y",
      "creat ed",
      "j e",
      "m ind",
      "us ing",
      "i gh",
      "an ts",
      "pati ence",
      "l t",
      "ap er",
      "c ur",
      "y es",
      "hop e",
      "re ss",
      "grate ful",
      "ct ion",
      "ge ther",
      "ma kes",
      "w on",
      "to gether",
      "fe ature",
      "try ing",
      "b an",
      "le ft",
      "material s",
      "hy dro",
      "at ing",
      "hydro gen",
      "stu d",
      "c es",
      "g ames",
      "ro ad",
      "d in",
      "real iz",
      "ex er",
      "se cond",
      "po sit",
      "tal king",
      "se arch",
      "pl ain",
      "c re",
      "t en",
      "s er",
      "li c",
      "mo ve",
      "b en",
      "po int",
      "no thing",
      "l and",
      "caps 7",
      "m an",
      "el se",
      "f f",
      "g ue",
      "he ad",
      "too k",
      "tow n",
      "r ing",
      "p ed",
      "ide a",
      "d one",
      "it ed",
      "de ar",
      "re s",
      "en ough",
      "exer cis",
      "d ad",
      "an ge",
      "b ro",
      "ig n",
      "ex t",
      "at te",
      "ta ken",
      "would n",
      "as k",
      "li ves",
      "shi ps",
      "end ed",
      "on ce",
      "to day",
      "en se",
      "is s",
      "does n",
      "mo ther",
      "f re",
      "ta king",
      "feature s",
      "li ve",
      "reason s",
      "say ing",
      "c ri",
      "c id",
      "ma king",
      "vi ol",
      "m at",
      "ation s",
      "read y",
      "pr op",
      "se em",
      "g ir",
      "s up",
      "ty pe",
      "e ad",
      "c ess",
      "al most",
      "e ye",
      "g u",
      "gir l",
      "st ates",
      "re moved",
      "to r",
      "h ot",
      "f ar",
      "coun try",
      "gue z",
      "ro dri",
      "rodri guez",
      "ic k",
      "le a",
      "v ie",
      "hour s",
      "one y",
      "sto p",
      "p h",
      "n ess",
      "d ang",
      "es e",
      "wr it",
      "ag ree",
      "v ide",
      "inst ead",
      "opin ion",
      "as e",
      "wr ong",
      "i er",
      "are a",
      "f ly",
      "m oney",
      "te ch",
      "fe w",
      "posit ive",
      "who le",
      "c en",
      "op en",
      "c ub",
      "wind s",
      "us ion",
      "ri de",
      "problem s",
      "look ing",
      "ar y",
      "under stand",
      "s ure",
      "s ur",
      "v en",
      "un ti",
      "in ce",
      "at ive",
      "plac es",
      "stu ff",
      "could n",
      "j ob",
      "bo th",
      "d ue",
      "m ay",
      "sp ring",
      "p ub",
      "fr ame",
      "s ing",
      "commun ic",
      "ex per",
      "concl usion",
      "wait ing",
      "ot e",
      "n y",
      "des er",
      "str u",
      "com es",
      "be come",
      "g in",
      "web sit",
      "cl ass",
      "ad v",
      "per cent",
      "s k",
      "ri ate",
      "hi ll",
      "gr ow",
      "conclu des",
      "was n",
      "feel ing",
      "some times",
      "than k",
      "s ince",
      "st ress",
      "fe cts",
      "c or",
      "ben ef",
      "unti l",
      "tech no",
      "u ll",
      "f ic",
      "should n",
      "b ab"
    ]
  }
}