{
  "version": "1.0",
  "truncation": null,
  "padding": null,
  "added_tokens": [
    {
      "id": 0,
      "content": "@CAPS",
      "single_word": false,
      "lstrip": false,
      "rstrip": false,
      "normalized": false,
      "special": true
    },
    {
      "id": 1,
      "content": "@CITY",
      "single_word": false,
      "lstrip": false,
      "rstrip": false,
      "normalized": false,
      "special": true
    },
    {
      "id": 2,
      "content": "@DATE",
      "single_word": false,
      "lstrip": false,
      "rstrip": false,
      "normalized": false,
      "special": true
    },
    {
      "id": 3,
      "content": "@DR",
      "single_word": false,
      "lstrip": false,
      "rstrip": false,
      "normalized": false,
      "special": true
    },
    {
      "id": 4,
      "content": "@EMAIL",
      "single_word": false,
      "lstrip": false,
      "rstrip": false,
      "normalized": false,
      "special": true
    },
    {
      "id": 5,
      "content": "@LOCATION",
      "single_word": false,
      "lstrip": false,
      "rstrip": false,
      "normalized": false,
      "special": true
    },
    {
      "id": 6,
      "content": "@MONEY",
      "single_word": false,
      "lstrip": false,
      "rstrip": false,
      "normalized": false,
      "special": true
    },
    {
      "id": 7,
      "content": "@MONTH",
      "single_word": false,
      "lstrip": false,
      "rstrip": false,
      "normalized": false,
      "special": true
    },
    {
      "id": 8,
      "content": "@NUM",
      "single_word": false,
      "lstrip": false,
      "rstrip": false,
      "normalized": false,
      "special": true
    },
    {
      "id": 9,
      "content": "@ORGANIZATION",
      "single_word": false,
      "lstrip": false,
      "rstrip": false,
      "normalized": false,
      "special": true
    },
    {
      "id": 10,
      "content": "@PERCENT",
      "single_word": false,
      "lstrip": false,
      "rstrip": false,
      "normalized": false,
      "special": true
    },
    {
      "id": 11,
      "content": "@PERSON",
      "single_word": false,
      "lstrip": false,
      "rstrip": false,
      "normalized": false,
      "special": true
    },
    {
      "id": 12,
      "content": "@STATE",
      "single_word": false,
      "lstrip": false,
      "rstrip": false,
      "normalized": false,
      "special": true
    },
    {
      "id": 13,
      "content": "@TIME",
      "single_word": false,
      "lstrip": false,
      "rstrip": false,
      "normalized": false,
      "special": true
    }
  ],
  "normalizer": null,
  "pre_tokenizer": {
    "type": "Whitespace"
  },
  "post_processor": null,
  "decoder": null,
  "model": {
    "type": "BPE",
    "dropout": null,
    "unk_token": null,
    "continuing_subword_prefix": null,
    "end_of_word_suffix": null,
    "fuse_unk": false,
    "vocab": {
      "@CAPS": 0,
      "@CITY": 1,
      "@DATE": 2,
      "@DR": 3,
      "@EMAIL": 4,
      "@LOCATION": 5,
      "@MONEY": 6,
      "@MONTH": 7,
      "@NUM": 8,
      "@ORGANIZATION": 9,
      "@PERCENT": 10,
      "@PERSON": 11,
      "@STATE": 12,
      "@TIME": 13,
      "!": 14,
      "\"": 15,
      "#": 16,
      "$": 17,
      "%": 18,
      "&": 19,
      "'": 20,
      "(": 21,
      ")": 22,
      "*": 23,
      "+": 24,
      ",": 25,
      "-": 26,
      ".": 27,
      "/": 28,
      "0": 29,
      "1": 30,
      "2": 31,
      "3": 32,
      "4": 33,
      "5": 34,
      "6": 35,
      "7": 36,
      "8": 37,
      "9": 38,
      ":": 39,
      ";": 40,
      "<": 41,
      "=": 42,
      ">": 43,
      "?": 44,
      "@": 45,
      "A": 46,
      "B": 47,
      "C": 48,
      "D": 49,
      "E": 50,
      "F": 51,
      "G": 52,
      "H": 53,
      "I": 54,
      "J": 55,
      "K": 56,
      "L": 57,
      "M": 58,
      "N": 59,
      "O": 60,
      "P": 61,
      "Q": 62,
      "R": 63,
      "S": 64,
      "T": 65,
      "U": 66,
      "V": 67,
      "W": 68,
      "X": 69,
      "Y": 70,
      "Z": 71,
      "[": 72,
      "\\": 73,
      "]": 74,
      "_": 75,
      "`": 76,
      "a": 77,
      "b": 78,
      "c": 79,
      "d": 80,
      "e": 81,
      "f": 82,
      "g": 83,
      "h": 84,
      "i": 85,
      "j": 86,
      "k": 87,
      "l": 88,
      "m": 89,
      "n": 90,
      "o": 91,
      "p": 92,
      "q": 93,
      "r": 94,
      "s": 95,
      "t": 96,
      "u": 97,
      "v": 98,
      "w": 99,
      "x": 100,
      "y": 101,
      "z": 102,
      "|": 103,
      "~": 104,
      "½": 105,
      "ü": 106,
      "–": 107,
      "‘": 108,
      "’": 109,
      "“": 110,
      "…": 111,
      "�": 112,
      "th": 113,
      "in": 114,
      "the": 115,
      "an": 116,
      "re": 117,
      "ou": 118,
      "at": 119,
      "er": 120,
      "to": 121,
      "ing": 122,
      "on": 123,
      "en": 124,
      "is": 125,
      "or": 126,
      "and": 127,
      "le": 128,
      "he": 129,
      "as": 130,
      "om": 131,
      "it": 132,
      "al": 133,
      "es": 134,
      "of": 135,
      "ed": 136,
      "be": 137,
      "ld": 138,
      "se": 139,
      "ar": 140,
      "st": 141,
      "that": 142,
      "ve": 143,
      "ad": 144,
      "CA": 145,
      "you": 146,
      "ut": 147,
      "ow": 148,
      "ch": 149,
      "li": 150,
      "oo": 151,
      "ly": 152,
      "PS": 153,
      "CAPS": 154,
      "ay": 155,
      "me": 156,
      "wh": 157,
      "ould": 158,
      "was": 159,
      "are": 160,
      "we": 161,
      "au": 162,
      "ot": 163,
      "op": 164,
      "ri": 165,
      "ac": 166,
      "wi": 167,
      "gh": 168,
      "com": 169,
      "ver": 170,
      "ha": 171,
      "for": 172,
      "ke": 173,
      "The": 174,
      "mo": 175,
      "pe": 176,
      "out": 177,
      "id": 178,
      "ll": 179,
      "ti": 180,
      "fe": 181,
      "ir": 182,
      "ers": 183,
      "sh": 184,
      "so": 185,
      "ne": 186,
      "ge": 187,
      "put": 188,
      "ome": 189,
      "they": 190,
      "ab": 191,
      "ople": 192,
      "have": 193,
      "with": 194,
      "ent": 195,
      "thing": 196,
      "ook": 197,
      "people": 198,
      "ther": 199,
      "am": 200,
      "all": 201,
      "one": 202,
      "do": 203,
      "ic": 204,
      "us": 205,
      "not": 206,
      "comput": 207,
      "ts": 208,
      "my": 209,
      "ion": 210,
      "ild": 211,
      "can": 212,
      "ON": 213,
      "cau": 214,
      "ter": 215,
      "ro": 216,
      "cause": 217,
      "if": 218,
      "end": 219,
      "would": 220,
      "some": 221,
      "ma": 222,
      "CAPS1": 223,
      "very": 224,
      "his": 225,
      "way": 226,
      "book": 227,
      "un": 228,
      "because": 229,
      "any": 230,
      "she": 231,
      "go": 232,
      "ex": 233,
      "this": 234,
      "con": 235,
      "about": 236,
      "ce": 237,
      "ta": 238,
      "im": 239,
      "bu": 240,
      "fr": 241,
      "there": 242,
      "ant": 243,
      "te": 244,
      "get": 245,
      "ood": 246,
      "ght": 247,
      "ate": 248,
      "ry": 249,
      "ble": 250,
      "up": 251,
      "pl": 252,
      "wor": 253,
      "but": 254,
      "ul": 255,
      "ind": 256,
      "lo": 257,
      "other": 258,
      "off": 259,
      "had": 260,
      "ust": 261,
      "ive": 262,
      "gr": 263,
      "our": 264,
      "sa": 265,
      "ation": 266,
      "ting": 267,
      "like": 268,
      "now": 269,
      "br": 270,
      "ap": 271,
      "oun": 272,
      "time": 273,
      "ur": 274,
      "when": 275,
      "their": 276,
      "what": 277,
      "de": 278,
      "her": 279,
      "were": 280,
      "from": 281,
      "them": 282,
      "ink": 283,
      "should": 284,
      "computer": 285,
      "could": 286,
      "ren": 287,
      "ally": 288,
      "ure": 289,
      "ens": 290,
      "read": 291,
      "just": 292,
      "ON1": 293,
      "will": 294,
      "ies": 295,
      "think": 296,
      "cl": 297,
      "your": 298,
      "computers": 299,
      "build": 300,
      "gi": 301,
      "ga": 302,
      "sto": 303,
      "di": 304,
      "ast": 305,
      "no": 306,
      "TI": 307,
      "ct": 308,
      "fri": 309,
      "how": 310,
      "by": 311,
      "ss": 312,
      "friend": 313,
      "books": 314,
      "ough": 315,
      "day": 316,
      "brar": 317,
      "ily": 318,
      "ist": 319,
      "est": 320,
      "every": 321,
      "say": 322,
      "UM": 323,
      "NUM": 324,
      "ER": 325,
      "fam": 326,
      "things": 327,
      "sp": 328,
      "CAPS2": 329,
      "PER": 330,
      "librar": 331,
      "ound": 332,
      "ven": 333,
      "more": 334,
      "know": 335,
      "augh": 336,
      "aren": 337,
      "pro": 338,
      "ide": 339,
      "mp": 340,
      "mov": 341,
      "ater": 342,
      "king": 343,
      "then": 344,
      "uch": 345,
      "ty": 346,
      "want": 347,
      "many": 348,
      "po": 349,
      "family": 350,
      "In": 351,
      "el": 352,
      "ob": 353,
      "reat": 354,
      "gible": 355,
      "ie": 356,
      "see": 357,
      "rigible": 358,
      "pp": 359,
      "il": 360,
      "ong": 361,
      "PERS": 362,
      "ack": 363,
      "paren": 364,
      "don": 365,
      "own": 366,
      "thor": 367,
      "child": 368,
      "ves": 369,
      "hel": 370,
      "dirigible": 371,
      "able": 372,
      "It": 373,
      "laugh": 374,
      "help": 375,
      "author": 376,
      "over": 377,
      "hi": 378,
      "par": 379,
      "fac": 380,
      "also": 381,
      "building": 382,
      "ck": 383,
      "Th": 384,
      "ple": 385,
      "ine": 386,
      "life": 387,
      "happ": 388,
      "sit": 389,
      "did": 390,
      "tal": 391,
      "ati": 392,
      "ard": 393,
      "parents": 394,
      "ip": 395,
      "who": 396,
      "him": 397,
      "TION1": 398,
      "new": 399,
      "friends": 400,
      "ful": 401,
      "make": 402,
      "This": 403,
      "good": 404,
      "ensive": 405,
      "has": 406,
      "home": 407,
      "need": 408,
      "ways": 409,
      "tion": 410,
      "even": 411,
      "lf": 412,
      "whi": 413,
      "offensive": 414,
      "af": 415,
      "take": 416,
      "Wh": 417,
      "going": 418,
      "ire": 419,
      "here": 420,
      "lear": 421,
      "ship": 422,
      "story": 423,
      "bo": 424,
      "reas": 425,
      "CAPS3": 426,
      "pati": 427,
      "ous": 428,
      "too": 429,
      "ue": 430,
      "If": 431,
      "use": 432,
      "led": 433,
      "got": 434,
      "erson": 435,
      "ight": 436,
      "tr": 437,
      "ess": 438,
      "art": 439,
      "dif": 440,
      "ach": 441,
      "We": 442,
      "ving": 443,
      "ial": 444,
      "cy": 445,
      "mood": 446,
      "look": 447,
      "back": 448,
      "learn": 449,
      "pre": 450,
      "An": 451,
      "reason": 452,
      "ame": 453,
      "ort": 454,
      "des": 455,
      "find": 456,
      "person": 457,
      "something": 458,
      "most": 459,
      "said": 460,
      "red": 461,
      "much": 462,
      "library": 463,
      "work": 464,
      "ye": 465,
      "ang": 466,
      "obst": 467,
      "ill": 468,
      "show": 469,
      "cycl": 470,
      "ool": 471,
      "ity": 472,
      "try": 473,
      "ef": 474,
      "fect": 475,
      ".\"": 476,
      "kid": 477,
      "So": 478,
      "ig": 479,
      "come": 480,
      "ass": 481,
      "why": 482,
      "NUM1": 483,
      "les": 484,
      "feel": 485,
      "cyclist": 486,
      "ment": 487,
      "ature": 488,
      "LO": 489,
      "St": 490,
      "obstac": 491,
      "ence": 492,
      "than": 493,
      "LOCA": 494,
      "ade": 495,
      "ep": 496,
      "great": 497,
      "AN": 498,
      "pr": 499,
      "cis": 500,
      "OR": 501,
      "gain": 502,
      "irst": 503,
      "where": 504,
      "ite": 505,
      "usic": 506,
      "talk": 507,
      "dirigibles": 508,
      "PERSON1": 509,
      "down": 510,
      "GAN": 511,
      "IZ": 512,
      "ORGAN": 513,
      "IZA": 514,
      "ORGANIZA": 515,
      "children": 516,
      "plac": 517,
      "set": 518,
      "qu": 519,
      "wr": 520,
      "When": 521,
      "being": 522,
      "eng": 523,
      "always": 524,
      "around": 525,
      "wa": 526,
      "mpire": 527,
      "Al": 528,
      "really": 529,
      "rough": 530,
      "They": 531,
      "patient": 532,
      "into": 533,
      "music": 534,
      "old": 535,
      "right": 536,
      "CAPS4": 537,
      "grap": 538,
      "age": 539,
      "world": 540,
      "air": 541,
      "graph": 542,
      "ore": 543,
      "ree": 544,
      "inter": 545,
      "again": 546,
      "cer": 547,
      "self": 548,
      "these": 549,
      "beli": 550,
      "chool": 551,
      "TH": 552,
      "tain": 553,
      "rent": 554,
      "only": 555,
      "MON": 556,
      "side": 557,
      "school": 558,
      "There": 559,
      "ag": 560,
      "He": 561,
      "bad": 562,
      "ever": 563,
      "which": 564,
      "wait": 565,
      "agraph": 566,
      "kids": 567,
      "away": 568,
      "der": 569,
      "Empire": 570,
      "made": 571,
      "start": 572,
      "allow": 573,
      "ice": 574,
      "ON2": 575,
      "stu": 576,
      "its": 577,
      "paragraph": 578,
      "ain": 579,
      "State": 580,
      "bet": 581,
      "oring": 582,
      "su": 583,
      "been": 584,
      "diffe": 585,
      "mes": 586,
      "play": 587,
      "kes": 588,
      "imp": 589,
      "TH1": 590,
      "MONTH1": 591,
      "someone": 592,
      "low": 593,
      "aterial": 594,
      "ose": 595,
      "ated": 596,
      "dr": 597,
      "line": 598,
      "lot": 599,
      "fun": 600,
      "form": 601,
      "material": 602,
      "through": 603,
      "movies": 604,
      "water": 605,
      "never": 606,
      "top": 607,
      "itt": 608,
      "blem": 609,
      "belie": 610,
      "went": 611,
      "str": 612,
      "jo": 613,
      "co": 614,
      "different": 615,
      "problem": 616,
      "ample": 617,
      "That": 618,
      "example": 619,
      "libraries": 620,
      "iz": 621,
      "test": 622,
      "gaz": 623,
      "..": 624,
      "does": 625,
      "cus": 626,
      "mom": 627,
      "My": 628,
      "Bu": 629,
      "ans": 630,
      "ORGANIZATION1": 631,
      "Build": 632,
      "didn": 633,
      "concl": 634,
      "ouse": 635,
      "per": 636,
      "fore": 637,
      "lves": 638,
      "less": 639,
      "hard": 640,
      "believe": 641,
      "real": 642,
      "Building": 643,
      "magaz": 644,
      "la": 645,
      "memo": 646,
      "love": 647,
      "memoir": 648,
      "LOCATION1": 649,
      "Com": 650,
      "But": 651,
      "You": 652,
      "happy": 653,
      "mast": 654,
      "setting": 655,
      "um": 656,
      "ines": 657,
      "Sa": 658,
      "Also": 659,
      "soc": 660,
      "came": 661,
      "long": 662,
      "ought": 663,
      "cal": 664,
      "first": 665,
      "builders": 666,
      "keep": 667,
      "CAPS5": 668,
      "house": 669,
      "act": 670,
      "Comput": 671,
      "everyone": 672,
      "tur": 673,
      "atch": 674,
      "hy": 675,
      "Saeng": 676,
      "tell": 677,
      "che": 678,
      "et": 679,
      "fin": 680,
      "says": 681,
      "still": 682,
      "dri": 683,
      "hand": 684,
      "better": 685,
      "ub": 686,
      "times": 687,
      "let": 688,
      "ensor": 689,
      "Computers": 690,
      "though": 691,
      "such": 692,
      "mem": 693,
      "turn": 694,
      "For": 695,
      "ked": 696,
      "dock": 697,
      "ittle": 698,
      "place": 699,
      "cts": 700,
      "creat": 701,
      "wind": 702,
      "faced": 703,
      "obstacles": 704,
      "ction": 705,
      "dy": 706,
      "little": 707,
      "vi": 708,
      "??": 709,
      "spe": 710,
      "gen": 711,
      "used": 712,
      "ult": 713,
      "int": 714,
      "affect": 715,
      "ved": 716,
      "iscus": 717,
      "inform": 718,
      "One": 719,
      "coun": 720,
      "Some": 721,
      "ear": 722,
      "pt": 723,
      "high": 724,
      "ance": 725,
      "AT": 726,
      "E1": 727,
      "import": 728,
      "spend": 729,
      "cont": 730,
      "sc": 731,
      "found": 732,
      "min": 733,
      "those": 734,
      "ather": 735,
      "eas": 736,
      "arcis": 737,
      "year": 738,
      "arciso": 739,
      "biscus": 740,
      "hour": 741,
      "wo": 742,
      "Narciso": 743,
      "watch": 744,
      "dis": 745,
      "ol": 746,
      "mi": 747,
      "She": 748,
      "joy": 749,
      "comm": 750,
      "might": 751,
      "ste": 752,
      "pic": 753,
      "same": 754,
      "important": 755,
      "DAT": 756,
      "tow": 757,
      "information": 758,
      "another": 759,
      "fl": 760,
      "CAPS6": 761,
      "certain": 762,
      "mooring": 763,
      "reading": 764,
      "Another": 765,
      "magazines": 766,
      "give": 767,
      "And": 768,
      "arch": 769,
      "iety": 770,
      "clo": 771,
      "net": 772,
      "shelves": 773,
      "shows": 774,
      "censor": 775,
      "laughter": 776,
      "ning": 777,
      "happen": 778,
      "getting": 779,
      "car": 780,
      "online": 781,
      "while": 782,
      "NUM2": 783,
      "ave": 784,
      "stay": 785,
      "started": 786,
      "safe": 787,
      "stand": 788,
      "big": 789,
      "add": 790,
      "\"@": 791,
      "ents": 792,
      "pass": 793,
      "last": 794,
      "list": 795,
      "cond": 796,
      "teach": 797,
      "rel": 798,
      "well": 799,
      "hop": 800,
      "each": 801,
      "everything": 802,
      "moved": 803,
      "thought": 804,
      "hed": 805,
      "ates": 806,
      "face": 807,
      "rest": 808,
      "tri": 809,
      "arm": 810,
      "anything": 811,
      "As": 812,
      "ten": 813,
      "wal": 814,
      "two": 815,
      "society": 816,
      "laughing": 817,
      "enjoy": 818,
      "having": 819,
      "ding": 820,
      "ber": 821,
      "Pe": 822,
      "doing": 823,
      "told": 824,
      "inion": 825,
      "fa": 826,
      "tic": 827,
      "hibiscus": 828,
      "kind": 829,
      "Ne": 830,
      "TION2": 831,
      "People": 832,
      ".�": 833,
      "word": 834,
      "after": 835,
      "room": 836,
      "outside": 837,
      "law": 838,
      "body": 839,
      "nature": 840,
      "obstacle": 841,
      "best": 842,
      "ft": 843,
      "under": 844,
      "before": 845,
      "grate": 846,
      "New": 847,
      "nex": 848,
      "wanted": 849,
      "others": 850,
      "ext": 851,
      "shelf": 852,
      "opinion": 853,
      "ames": 854,
      "ken": 855,
      "ng": 856,
      "dro": 857,
      "DATE1": 858,
      "listen": 859,
      "sing": 860,
      "commun": 861,
      "PERSON2": 862,
      "next": 863,
      "movie": 864,
      "internet": 865,
      "conclu": 866,
      "Mo": 867,
      "without": 868,
      "bl": 869,
      "gy": 870,
      "je": 871,
      "press": 872,
      "created": 873,
      "dont": 874,
      "mind": 875,
      "ants": 876,
      "beg": 877,
      "lt": 878,
      "effect": 879,
      "aper": 880,
      "mean": 881,
      "web": 882,
      "cr": 883,
      "ress": 884,
      "young": 885,
      "temp": 886,
      "Ro": 887,
      "gether": 888,
      "grateful": 889,
      "cur": 890,
      "ually": 891,
      "igh": 892,
      "makes": 893,
      "won": 894,
      "together": 895,
      "ci": 896,
      "ating": 897,
      "hope": 898,
      "feature": 899,
      "trying": 900,
      "ff": 901,
      "left": 902,
      "drogen": 903,
      "Then": 904,
      "ces": 905,
      "ban": 906,
      "din": 907,
      "games": 908,
      "lic": 909,
      "realiz": 910,
      "gue": 911,
      "ish": 912,
      "plain": 913,
      "materials": 914,
      "posit": 915,
      "med": 916,
      "move": 917,
      "point": 918,
      "ben": 919,
      "ser": 920,
      "CAPS7": 921,
      "exer": 922,
      "else": 923,
      "land": 924,
      "talking": 925,
      "bro": 926,
      "man": 927,
      "took": 928,
      "town": 929,
      "ring": 930,
      "gu": 931,
      "ited": 932,
      "done": 933,
      "head": 934,
      "idea": 935,
      "censorship": 936,
      "enough": 937,
      "ign": 938,
      "dad": 939,
      "stop": 940,
      "search": 941,
      "taken": 942,
      "nothing": 943,
      "stud": 944,
      "hydrogen": 945,
      "ended": 946,
      "Dear": 947,
      "ask": 948,
      "ense": 949,
      "exercis": 950,
      "ships": 951,
      "ith": 952,
      "doesn": 953,
      "sed": 954,
      "live": 955,
      "wouldn": 956,
      "mat": 957,
      "reasons": 958,
      "cid": 959,
      "attemp": 960,
      "mother": 961,
      "ations": 962,
      "ary": 963,
      "ready": 964,
      "saying": 965,
      "prop": 966,
      "gir": 967,
      "type": 968,
      "features": 969,
      "cess": 970,
      "stead": 971,
      "eye": 972,
      "ange": 973,
      "cri": 974,
      "agree": 975,
      "Every": 976,
      "part": 977,
      "fre": 978,
      "viol": 979,
      "girl": 980,
      "sup": 981,
      "far": 982,
      "removed": 983,
      "using": 984,
      "patience": 985,
      "tor": 986,
      "guez": 987,
      "driguez": 988,
      "country": 989,
      "Rodriguez": 990,
      "hot": 991,
      "yes": 992,
      "ition": 993,
      "Li": 994,
      "making": 995,
      "hours": 996,
      "All": 997,
      "ase": 998,
      "ness": 999
    },
    "merges": [
      "t h",
      "i n",
      "th e",
      "a n",
      "r e",
      "o u",
      "a t",
      "e r",
      "t o",
      "in g",
      "o n",
      "e n",
      "i s",
      "o r",
      "an d",
      "l e",
      "h e",
      "a s",
      "o m",
      "i t",
      "a l",
      "e s",
      "o f",
      "e d",
      "b e",
      "l d",
      "s e",
      "a r",
      "s t",
      "th at",
      "v e",
      "a d",
      "C A",
      "y ou",
      "u t",
      "o w",
      "c h",
      "l i",
      "o o",
      "l y",
      "P S",
      "CA PS",
      "a y",
      "m e",
      "w h",
      "ou ld",
      "w as",
      "a re",
      "w e",
      "a u",
      "o t",
      "o p",
      "r i",
      "a c",
      "w i",
      "g h",
      "c om",
      "v er",
      "h a",
      "f or",
      "k e",
      "T he",
      "m o",
      "p e",
      "ou t",
      "i d",
      "l l",
      "t i",
      "f e",
      "i r",
      "er s",
      "s h",
      "s o",
      "n e",
      "g e",
      "p ut",
      "om e",
      "the y",
      "a b",
      "op le",
      "ha ve",
      "wi th",
      "en t",
      "th ing",
      "oo k",
      "pe ople",
      "the r",
      "a m",
      "al l",
      "on e",
      "d o",
      "i c",
      "u s",
      "n ot",
      "com put",
      "t s",
      "m y",
      "i on",
      "i ld",
      "c an",
      "O N",
      "c au",
      "t er",
      "r o",
      "cau se",
      "i f",
      "en d",
      "w ould",
      "s ome",
      "m a",
      "CAPS 1",
      "ver y",
      "h is",
      "w ay",
      "b ook",
      "u n",
      "be cause",
      "an y",
      "s he",
      "g o",
      "e x",
      "th is",
      "c on",
      "ab out",
      "c e",
      "t a",
      "i m",
      "b u",
      "f r",
      "the re",
      "an t",
      "t e",
      "ge t",
      "oo d",
      "gh t",
      "at e",
      "r y",
      "b le",
      "u p",
      "p l",
      "w or",
      "b ut",
      "u l",
      "in d",
      "l o",
      "o ther",
      "of f",
      "h ad",
      "u st",
      "i ve",
      "g r",
      "ou r",
      "s a",
      "at ion",
      "t ing",
      "li ke",
      "n ow",
      "b r",
      "a p",
      "ou n",
      "ti me",
      "u r",
      "wh en",
      "the ir",
      "wh at",
      "d e",
      "h er",
      "we re",
      "fr om",
      "the m",
      "in k",
      "sh ould",
      "comput er",
      "c ould",
      "re n",
      "al ly",
      "u re",
      "en s",
      "re ad",
      "j ust",
      "ON 1",
      "wi ll",
      "i es",
      "th ink",
      "c l",
      "you r",
      "comput ers",
      "bu ild",
      "g i",
      "g a",
      "s to",
      "d i",
      "as t",
      "n o",
      "T I",
      "c t",
      "f ri",
      "h ow",
      "b y",
      "s s",
      "fri end",
      "book s",
      "ou gh",
      "d ay",
      "br ar",
      "i ly",
      "is t",
      "es t",
      "e very",
      "s ay",
      "U M",
      "N UM",
      "E R",
      "f am",
      "thing s",
      "s p",
      "CAPS 2",
      "P ER",
      "li brar",
      "oun d",
      "v en",
      "mo re",
      "k now",
      "au gh",
      "are n",
      "p ro",
      "id e",
      "m p",
      "mo v",
      "at er",
      "k ing",
      "the n",
      "u ch",
      "t y",
      "w ant",
      "m any",
      "p o",
      "fam ily",
      "I n",
      "e l",
      "o b",
      "re at",
      "gi ble",
      "i e",
      "se e",
      "ri gible",
      "p p",
      "i l",
      "on g",
      "PER S",
      "ac k",
      "p aren",
      "d on",
      "ow n",
      "th or",
      "ch ild",
      "v es",
      "he l",
      "di rigible",
      "ab le",
      "I t",
      "l augh",
      "hel p",
      "au thor",
      "o ver",
      "h i",
      "p ar",
      "f ac",
      "al so",
      "build ing",
      "c k",
      "T h",
      "p le",
      "in e",
      "li fe",
      "ha pp",
      "s it",
      "d id",
      "t al",
      "at i",
      "ar d",
      "paren ts",
      "i p",
      "wh o",
      "h im",
      "TI ON1",
      "ne w",
      "friend s",
      "f ul",
      "ma ke",
      "T his",
      "g ood",
      "ens ive",
      "h as",
      "h ome",
      "ne ed",
      "way s",
      "ti on",
      "e ven",
      "l f",
      "wh i",
      "off ensive",
      "a f",
      "ta ke",
      "W h",
      "go ing",
      "i re",
      "he re",
      "le ar",
      "sh ip",
      "sto ry",
      "b o",
      "re as",
      "CAPS 3",
      "p ati",
      "ou s",
      "to o",
      "u e",
      "I f",
      "u se",
      "le d",
      "g ot",
      "ers on",
      "i ght",
      "t r",
      "es s",
      "ar t",
      "d if",
      "a ch",
      "W e",
      "v ing",
      "i al",
      "c y",
      "m ood",
      "l ook",
      "b ack",
      "lear n",
      "p re",
      "A n",
      "reas on",
      "a me",
      "or t",
      "d es",
      "f ind",
      "p erson",
      "some thing",
      "mo st",
      "sa id",
      "re d",
      "m uch",
      "librar y",
      "wor k",
      "y e",
      "an g",
      "ob st",
      "i ll",
      "sh ow",
      "cy cl",
      "oo l",
      "it y",
      "t ry",
      "e f",
      "fe ct",
      ". \"",
      "k id",
      "S o",
      "i g",
      "com e",
      "as s",
      "wh y",
      "NUM 1",
      "le s",
      "fe el",
      "cycl ist",
      "m ent",
      "at ure",
      "L O",
      "S t",
      "obst ac",
      "en ce",
      "th an",
      "LO CA",
      "ad e",
      "e p",
      "g reat",
      "A N",
      "p r",
      "c is",
      "O R",
      "ga in",
      "ir st",
      "w here",
      "it e",
      "us ic",
      "tal k",
      "dirigible s",
      "PERS ON1",
      "d own",
      "G AN",
      "I Z",
      "OR GAN",
      "IZ A",
      "ORGAN IZA",
      "child ren",
      "pl ac",
      "se t",
      "q u",
      "w r",
      "Wh en",
      "be ing",
      "en g",
      "al ways",
      "ar ound",
      "w a",
      "mp ire",
      "A l",
      "re ally",
      "r ough",
      "The y",
      "pati ent",
      "in to",
      "m usic",
      "o ld",
      "ri ght",
      "CAPS 4",
      "gr ap",
      "a ge",
      "wor ld",
      "a ir",
      "grap h",
      "o re",
      "re e",
      "in ter",
      "a gain",
      "c er",
      "se lf",
      "the se",
      "be li",
      "ch ool",
      "T H",
      "ta in",
      "ren t",
      "on ly",
      "M ON",
      "s ide",
      "s chool",
      "The re",
      "a g",
      "H e",
      "b ad",
      "e ver",
      "whi ch",
      "wa it",
      "a graph",
      "kid s",
      "a way",
      "d er",
      "E mpire",
      "m ade",
      "st art",
      "all ow",
      "ic e",
      "ON 2",
      "st u",
      "it s",
      "par agraph",
      "a in",
      "St ate",
      "be t",
      "or ing",
      "s u",
      "be en",
      "dif fe",
      "m es",
      "pl ay",
      "k es",
      "im p",
      "TH 1",
      "MON TH1",
      "some one",
      "l ow",
      "ater ial",
      "o se",
      "at ed",
      "d r",
      "l ine",
      "l ot",
      "f un",
      "for m",
      "m aterial",
      "th rough",
      "mov ies",
      "w ater",
      "ne ver",
      "to p",
      "it t",
      "ble m",
      "beli e",
      "w ent",
      "st r",
      "j o",
      "c o",
      "diffe rent",
      "pro blem",
      "am ple",
      "Th at",
      "ex ample",
      "librar ies",
      "i z",
      "t est",
      "ga z",
      ". .",
      "do es",
      "c us",
      "m om",
      "M y",
      "B u",
      "an s",
      "ORGANIZA TION1",
      "Bu ild",
      "did n",
      "con cl",
      "ou se",
      "p er",
      "f ore",
      "l ves",
      "le ss",
      "h ard",
      "belie ve",
      "re al",
      "Build ing",
      "ma gaz",
      "l a",
      "me mo",
      "lo ve",
      "memo ir",
      "LOCA TION1",
      "C om",
      "B ut",
      "Y ou",
      "happ y",
      "m ast",
      "set ting",
      "u m",
      "in es",
      "S a",
      "Al so",
      "so c",
      "c ame",
      "l ong",
      "ou ght",
      "c al",
      "f irst",
      "build ers",
      "ke ep",
      "CAPS 5",
      "h ouse",
      "ac t",
      "Com put",
      "every one",
      "t ur",
      "at ch",
      "h y",
      "Sa eng",
      "te ll",
      "c he",
      "e t",
      "f in",
      "say s",
      "st ill",
      "d ri",
      "h and",
      "bet ter",
      "u b",
      "ti mes",
      "le t",
      "ens or",
      "Comput ers",
      "th ough",
      "s uch",
      "me m",
      "tur n",
      "F or",
      "k ed",
      "do ck",
      "itt le",
      "plac e",
      "c ts",
      "c reat",
      "w ind",
      "fac ed",
      "obstac les",
      "c tion",
      "d y",
      "l ittle",
      "v i",
      "? ?",
      "s pe",
      "g en",
      "us ed",
      "ul t",
      "in t",
      "af fect",
      "v ed",
      "is cus",
      "in form",
      "O ne",
      "c oun",
      "S ome",
      "e ar",
      "p t",
      "hi gh",
      "an ce",
      "A T",
      "E 1",
      "imp ort",
      "sp end",
      "con t",
      "s c",
      "f ound",
      "m in",
      "th ose",
      "a ther",
      "e as",
      "ar cis",
      "ye ar",
      "arcis o",
      "b iscus",
      "h our",
      "w o",
      "N arciso",
      "w atch",
      "d is",
      "o l",
      "m i",
      "S he",
      "jo y",
      "com m",
      "m ight",
      "st e",
      "p ic",
      "sa me",
      "import ant",
      "D AT",
      "to w",
      "inform ation",
      "an other",
      "f l",
      "CAPS 6",
      "cer tain",
      "mo oring",
      "read ing",
      "An other",
      "magaz ines",
      "g ive",
      "An d",
      "ar ch",
      "ie ty",
      "c lo",
      "ne t",
      "she lves",
      "show s",
      "c ensor",
      "laugh ter",
      "n ing",
      "happ en",
      "get ting",
      "c ar",
      "on line",
      "whi le",
      "NUM 2",
      "a ve",
      "st ay",
      "start ed",
      "sa fe",
      "st and",
      "b ig",
      "ad d",
      "\" @",
      "ent s",
      "p ass",
      "l ast",
      "l ist",
      "con d",
      "te ach",
      "re l",
      "we ll",
      "h op",
      "e ach",
      "every thing",
      "mov ed",
      "th ought",
      "he d",
      "at es",
      "fac e",
      "re st",
      "t ri",
      "ar m",
      "any thing",
      "A s",
      "t en",
      "w al",
      "t wo",
      "soc iety",
      "laugh ing",
      "en joy",
      "ha ving",
      "d ing",
      "b er",
      "P e",
      "do ing",
      "to ld",
      "in ion",
      "f a",
      "ti c",
      "hi biscus",
      "k ind",
      "N e",
      "TI ON2",
      "Pe ople",
      ". �",
      "wor d",
      "af ter",
      "ro om",
      "out side",
      "la w",
      "bo dy",
      "n ature",
      "obstac le",
      "b est",
      "f t",
      "un der",
      "be fore",
      "gr ate",
      "Ne w",
      "ne x",
      "want ed",
      "other s",
      "ex t",
      "she lf",
      "op inion",
      "am es",
      "k en",
      "n g",
      "d ro",
      "DAT E1",
      "list en",
      "s ing",
      "comm un",
      "PERS ON2",
      "nex t",
      "mov ie",
      "inter net",
      "concl u",
      "M o",
      "with out",
      "b l",
      "g y",
      "j e",
      "pre ss",
      "creat ed",
      "don t",
      "m ind",
      "an ts",
      "be g",
      "l t",
      "ef fect",
      "ap er",
      "me an",
      "we b",
      "c r",
      "re ss",
      "you ng",
      "te mp",
      "R o",
      "ge ther",
      "grate ful",
      "c ur",
      "u ally",
      "i gh",
      "ma kes",
      "w on",
      "to gether",
      "c i",
      "at ing",
      "hop e",
      "fe ature",
      "try ing",
      "f f",
      "le ft",
      "dro gen",
      "Th en",
      "c es",
      "b an",
      "d in",
      "g ames",
      "li c",
      "real iz",
      "g ue",
      "is h",
      "pl ain",
      "material s",
      "po sit",
      "m ed",
      "mo ve",
      "po int",
      "b en",
      "s er",
      "CAPS 7",
      "ex er",
      "el se",
      "l and",
      "tal king",
      "b ro",
      "m an",
      "too k",
      "tow n",
      "r ing",
      "g u",
      "it ed",
      "d one",
      "he ad",
      "ide a",
      "censor ship",
      "en ough",
      "ig n",
      "d ad",
      "sto p",
      "se arch",
      "ta ken",
      "no thing",
      "stu d",
      "hy drogen",
      "end ed",
      "D ear",
      "as k",
      "en se",
      "exer cis",
      "ship s",
      "i th",
      "does n",
      "s ed",
      "li ve",
      "would n",
      "m at",
      "reason s",
      "c id",
      "at temp",
      "mo ther",
      "ation s",
      "ar y",
      "read y",
      "say ing",
      "pr op",
      "g ir",
      "ty pe",
      "feature s",
      "c ess",
      "ste ad",
      "e ye",
      "an ge",
      "c ri",
      "ag ree",
      "E very",
      "par t",
      "f re",
      "vi ol",
      "gir l",
      "s up",
      "f ar",
      "re moved",
      "us ing",
      "pati ence",
      "to r",
      "gue z",
      "dri guez",
      "coun try",
      "Ro driguez",
      "h ot",
      "y es",
      "it ion",
      "L i",
      "ma king",
      "hour s",
      "A ll",
      "as e",
      "n ess"
    ]
  }
}