{
  "version": "1.0",
  "truncation": null,
  "padding": null,
  "added_tokens": [
    {
      "id": 0,
      "content": "<PAD>",
      "single_word": false,
      "lstrip": false,
      "rstrip": false,
      "normalized": false,
      "special": true
    },
    {
      "id": 1,
      "content": "@CAPS",
      "single_word": false,
      "lstrip": false,
      "rstrip": false,
      "normalized": false,
      "special": true
    },
    {
      "id": 2,
      "content": "@CITY",
      "single_word": false,
      "lstrip": false,
      "rstrip": false,
      "normalized": false,
      "special": true
    },
    {
      "id": 3,
      "content": "@DATE",
      "single_word": false,
      "lstrip": false,
      "rstrip": false,
      "normalized": false,
      "special": true
    },
    {
      "id": 4,
      "content": "@DR",
      "single_word": false,
      "lstrip": false,
      "rstrip": false,
      "normalized": false,
      "special": true
    },
    {
      "id": 5,
      "content": "@EMAIL",
      "single_word": false,
      "lstrip": false,
      "rstrip": false,
      "normalized": false,
      "special": true
    },
    {
      "id": 6,
      "content": "@LOCATION",
      "single_word": false,
      "lstrip": false,
      "rstrip": false,
      "normalized": false,
      "special": true
    },
    {
      "id": 7,
      "content": "@MONEY",
      "single_word": false,
      "lstrip": false,
      "rstrip": false,
      "normalized": false,
      "special": true
    },
    {
      "id": 8,
      "content": "@MONTH",
      "single_word": false,
      "lstrip": false,
      "rstrip": false,
      "normalized": false,
      "special": true
    },
    {
      "id": 9,
      "content": "@NUM",
      "single_word": false,
      "lstrip": false,
      "rstrip": false,
      "normalized": false,
      "special": true
    },
    {
      "id": 10,
      "content": "@ORGANIZATION",
      "single_word": false,
      "lstrip": false,
      "rstrip": false,
      "normalized": false,
      "special": true
    },
    {
      "id": 11,
      "content": "@PERCENT",
      "single_word": false,
      "lstrip": false,
      "rstrip": false,
      "normalized": false,
      "special": true
    },
    {
      "id": 12,
      "content": "@PERSON",
      "single_word": false,
      "lstrip": false,
      "rstrip": false,
      "normalized": false,
      "special": true
    },
    {
      "id": 13,
      "content": "@STATE",
      "single_word": false,
      "lstrip": false,
      "rstrip": false,
      "normalized": false,
      "special": true
    },
    {
      "id": 14,
      "content": "@TIME",
      "single_word": false,
      "lstrip": false,
      "rstrip": false,
      "normalized": false,
      "special": true
    }
  ],
  "normalizer": {
    "type": "Lowercase"
  },
  "pre_tokenizer": {
    "type": "Whitespace"
  },
  "post_processor": null,
  "decoder": null,
  "model": {
    "type": "BPE",
    "dropout": null,
    "unk_token": null,
    "continuing_subword_prefix": null,
    "end_of_word_suffix": null,
    "fuse_unk": false,
    "vocab": {
      "<PAD>": 0,
      "@CAPS": 1,
      "@CITY": 2,
      "@DATE": 3,
      "@DR": 4,
      "@EMAIL": 5,
      "@LOCATION": 6,
      "@MONEY": 7,
      "@MONTH": 8,
      "@NUM": 9,
      "@ORGANIZATION": 10,
      "@PERCENT": 11,
      "@PERSON": 12,
      "@STATE": 13,
      "@TIME": 14,
      "!": 15,
      "\"": 16,
      "#": 17,
      "$": 18,
      "%": 19,
      "&": 20,
      "'": 21,
      "(": 22,
      ")": 23,
      "*": 24,
      "+": 25,
      ",": 26,
      "-": 27,
      ".": 28,
      "/": 29,
      "0": 30,
      "1": 31,
      "2": 32,
      "3": 33,
      "4": 34,
      "5": 35,
      "6": 36,
      "7": 37,
      "8": 38,
      "9": 39,
      ":": 40,
      ";": 41,
      "<": 42,
      "=": 43,
      ">": 44,
      "?": 45,
      "@": 46,
      "[": 47,
      "\\": 48,
      "]": 49,
      "_": 50,
      "`": 51,
      "a": 52,
      "b": 53,
      "c": 54,
      "d": 55,
      "e": 56,
      "f": 57,
      "g": 58,
      "h": 59,
      "i": 60,
      "j": 61,
      "k": 62,
      "l": 63,
      "m": 64,
      "n": 65,
      "o": 66,
      "p": 67,
      "q": 68,
      "r": 69,
      "s": 70,
      "t": 71,
      "u": 72,
      "v": 73,
      "w": 74,
      "x": 75,
      "y": 76,
      "z": 77,
      "|": 78,
      "~": 79,
      "½": 80,
      "ü": 81,
      "–": 82,
      "‘": 83,
      "’": 84,
      "“": 85,
      "…": 86,
      "�": 87,
      "th": 88,
      "the": 89,
      "in": 90,
      "an": 91,
      "re": 92,
      "at": 93,
      "ou": 94,
      "er": 95,
      "on": 96,
      "to": 97,
      "ing": 98,
      "en": 99,
      "or": 100,
      "is": 101,
      "and": 102,
      "le": 103,
      "as": 104,
      "it": 105,
      "al": 106,
      "om": 107,
      "es": 108,
      "ed": 109,
      "of": 110,
      "be": 111,
      "ca": 112,
      "ld": 113,
      "st": 114,
      "se": 115,
      "ar": 116,
      "that": 117,
      "he": 118,
      "ve": 119,
      "you": 120,
      "ha": 121,
      "ps": 122,
      "ch": 123,
      "li": 124,
      "ut": 125,
      "wh": 126,
      "ow": 127,
      "oo": 128,
      "ly": 129,
      "caps": 130,
      "we": 131,
      "ay": 132,
      "me": 133,
      "ould": 134,
      "was": 135,
      "com": 136,
      "wi": 137,
      "ot": 138,
      "for": 139,
      "ri": 140,
      "op": 141,
      "are": 142,
      "gh": 143,
      "ers": 144,
      "ad": 145,
      "ac": 146,
      "ion": 147,
      "ver": 148,
      "mo": 149,
      "pe": 150,
      "ke": 151,
      "so": 152,
      "out": 153,
      "id": 154,
      "they": 155,
      "fe": 156,
      "ir": 157,
      "ll": 158,
      "sh": 159,
      "ge": 160,
      "ent": 161,
      "put": 162,
      "ne": 163,
      "ome": 164,
      "with": 165,
      "ab": 166,
      "one": 167,
      "peop": 168,
      "people": 169,
      "have": 170,
      "ic": 171,
      "if": 172,
      "use": 173,
      "comput": 174,
      "my": 175,
      "all": 176,
      "thing": 177,
      "ook": 178,
      "do": 179,
      "not": 180,
      "ther": 181,
      "us": 182,
      "am": 183,
      "ation": 184,
      "ro": 185,
      "this": 186,
      "ild": 187,
      "ti": 188,
      "ts": 189,
      "some": 190,
      "can": 191,
      "ter": 192,
      "cause": 193,
      "end": 194,
      "would": 195,
      "lo": 196,
      "she": 197,
      "there": 198,
      "un": 199,
      "book": 200,
      "ma": 201,
      "bu": 202,
      "because": 203,
      "au": 204,
      "caps1": 205,
      "very": 206,
      "way": 207,
      "any": 208,
      "but": 209,
      "go": 210,
      "ate": 211,
      "when": 212,
      "ex": 213,
      "sa": 214,
      "ta": 215,
      "con": 216,
      "fr": 217,
      "about": 218,
      "te": 219,
      "ant": 220,
      "ce": 221,
      "get": 222,
      "ble": 223,
      "im": 224,
      "ood": 225,
      "ry": 226,
      "ght": 227,
      "up": 228,
      "wor": 229,
      "now": 230,
      "pl": 231,
      "de": 232,
      "um": 233,
      "other": 234,
      "ul": 235,
      "build": 236,
      "ind": 237,
      "off": 238,
      "pers": 239,
      "had": 240,
      "ust": 241,
      "our": 242,
      "like": 243,
      "gr": 244,
      "computers": 245,
      "ive": 246,
      "what": 247,
      "time": 248,
      "ct": 249,
      "person": 250,
      "ting": 251,
      "br": 252,
      "their": 253,
      "oun": 254,
      "her": 255,
      "from": 256,
      "were": 257,
      "should": 258,
      "his": 259,
      "ap": 260,
      "them": 261,
      "ink": 262,
      "just": 263,
      "ur": 264,
      "computer": 265,
      "could": 266,
      "ren": 267,
      "ally": 268,
      "ens": 269,
      "ure": 270,
      "read": 271,
      "think": 272,
      "no": 273,
      "will": 274,
      "your": 275,
      "ies": 276,
      "cl": 277,
      "how": 278,
      "every": 279,
      "di": 280,
      "gi": 281,
      "ast": 282,
      "ga": 283,
      "by": 284,
      "books": 285,
      "building": 286,
      "est": 287,
      "sto": 288,
      "also": 289,
      "then": 290,
      "fri": 291,
      "num": 292,
      "friend": 293,
      "ss": 294,
      "ough": 295,
      "ist": 296,
      "libr": 297,
      "day": 298,
      "librar": 299,
      "say": 300,
      "ily": 301,
      "augh": 302,
      "fam": 303,
      "sp": 304,
      "things": 305,
      "laugh": 306,
      "many": 307,
      "caps2": 308,
      "more": 309,
      "ound": 310,
      "ev": 311,
      "know": 312,
      "mov": 313,
      "pro": 314,
      "aren": 315,
      "ide": 316,
      "ater": 317,
      "em": 318,
      "po": 319,
      "new": 320,
      "king": 321,
      "art": 322,
      "uch": 323,
      "family": 324,
      "want": 325,
      "ob": 326,
      "iz": 327,
      "paren": 328,
      "gible": 329,
      "ty": 330,
      "reat": 331,
      "diri": 332,
      "don": 333,
      "el": 334,
      "child": 335,
      "ie": 336,
      "ong": 337,
      "pp": 338,
      "dirigible": 339,
      "il": 340,
      "own": 341,
      "over": 342,
      "thor": 343,
      "ack": 344,
      "af": 345,
      "author": 346,
      "hel": 347,
      "ves": 348,
      "even": 349,
      "fac": 350,
      "ck": 351,
      "ple": 352,
      "able": 353,
      "hi": 354,
      "whi": 355,
      "parents": 356,
      "did": 357,
      "life": 358,
      "pat": 359,
      "happ": 360,
      "tal": 361,
      "ine": 362,
      "who": 363,
      "sit": 364,
      "home": 365,
      "him": 366,
      "friends": 367,
      "make": 368,
      "ation1": 369,
      "ire": 370,
      "good": 371,
      "ful": 372,
      "see": 373,
      "ensive": 374,
      "ard": 375,
      "has": 376,
      "pati": 377,
      "here": 378,
      "need": 379,
      "help": 380,
      "ways": 381,
      "offensive": 382,
      "most": 383,
      "take": 384,
      "lf": 385,
      "ach": 386,
      "going": 387,
      "bo": 388,
      "lear": 389,
      "shi": 390,
      "red": 391,
      "story": 392,
      "reas": 393,
      "too": 394,
      "caps3": 395,
      "ous": 396,
      "loc": 397,
      "ial": 398,
      "ue": 399,
      "led": 400,
      "got": 401,
      "tr": 402,
      "ess": 403,
      "dif": 404,
      "these": 405,
      "look": 406,
      "gan": 407,
      "back": 408,
      "cy": 409,
      "ight": 410,
      "mood": 411,
      "learn": 412,
      "ving": 413,
      "reason": 414,
      "des": 415,
      "ort": 416,
      "find": 417,
      "something": 418,
      "pre": 419,
      "par": 420,
      "kid": 421,
      "ye": 422,
      "said": 423,
      "state": 424,
      "why": 425,
      "library": 426,
      "much": 427,
      "fect": 428,
      "work": 429,
      "obst": 430,
      "show": 431,
      "cycl": 432,
      "ill": 433,
      "try": 434,
      "ity": 435,
      "than": 436,
      "mon": 437,
      "ool": 438,
      "ang": 439,
      ".\"": 440,
      "come": 441,
      "being": 442,
      "ass": 443,
      "dirigibles": 444,
      "children": 445,
      "ig": 446,
      "num1": 447,
      "les": 448,
      "feel": 449,
      "cyclist": 450,
      "ef": 451,
      "obstac": 452,
      "organ": 453,
      "ature": 454,
      "where": 455,
      "organiz": 456,
      "per": 457,
      "ence": 458,
      "rough": 459,
      "another": 460,
      "great": 461,
      "pr": 462,
      "mus": 463,
      "emp": 464,
      "cis": 465,
      "gain": 466,
      "irst": 467,
      "music": 468,
      "talk": 469,
      "ade": 470,
      "down": 471,
      "wr": 472,
      "qu": 473,
      "set": 474,
      "person1": 475,
      "act": 476,
      "plac": 477,
      "ment": 478,
      "fo": 479,
      "patient": 480,
      "ship": 481,
      "wa": 482,
      "always": 483,
      "eng": 484,
      "around": 485,
      "right": 486,
      "really": 487,
      "empire": 488,
      "cer": 489,
      "into": 490,
      "its": 491,
      "sch": 492,
      "grap": 493,
      "old": 494,
      "age": 495,
      "caps4": 496,
      "inter": 497,
      "again": 498,
      "world": 499,
      "graph": 500,
      "month": 501,
      "self": 502,
      "which": 503,
      "ep": 504,
      "beli": 505,
      "kids": 506,
      "first": 507,
      "only": 508,
      "ree": 509,
      "school": 510,
      "tain": 511,
      "rent": 512,
      "air": 513,
      "ice": 514,
      "side": 515,
      "bad": 516,
      "fin": 517,
      "ag": 518,
      "ever": 519,
      "libraries": 520,
      "para": 521,
      "wait": 522,
      "allow": 523,
      "der": 524,
      "stu": 525,
      "away": 526,
      "through": 527,
      "made": 528,
      "start": 529,
      "paragraph": 530,
      "ite": 531,
      "movies": 532,
      "bet": 533,
      "someone": 534,
      "diffe": 535,
      "mast": 536,
      "ain": 537,
      "fl": 538,
      "oring": 539,
      "play": 540,
      "been": 541,
      "jo": 542,
      "port": 543,
      "dr": 544,
      "everyone": 545,
      "mes": 546,
      "kes": 547,
      "mater": 548,
      "ub": 549,
      "co": 550,
      "month1": 551,
      "never": 552,
      "material": 553,
      "lot": 554,
      "ose": 555,
      "ated": 556,
      "line": 557,
      "water": 558,
      "fun": 559,
      "form": 560,
      "itt": 561,
      "str": 562,
      "went": 563,
      "proble": 564,
      "different": 565,
      "top": 566,
      "problem": 567,
      "does": 568,
      "ample": 569,
      "fore": 570,
      "example": 571,
      "test": 572,
      "la": 573,
      "gaz": 574,
      "mom": 575,
      "..": 576,
      "eve": 577,
      "cus": 578,
      "atch": 579,
      "saeng": 580,
      "after": 581,
      "magaz": 582,
      "ans": 583,
      "organization1": 584,
      "concl": 585,
      "didn": 586,
      "love": 587,
      "lves": 588,
      "ouse": 589,
      "cens": 590,
      "believe": 591,
      "less": 592,
      "hard": 593,
      "real": 594,
      "pt": 595,
      "setting": 596,
      "memo": 597,
      "memoir": 598,
      "happy": 599,
      "location1": 600,
      "soc": 601,
      "ions": 602,
      "hy": 603,
      "last": 604,
      "builders": 605,
      "laughter": 606,
      "used": 607,
      "came": 608,
      "long": 609,
      "let": 610,
      "ought": 611,
      "ines": 612,
      "well": 613,
      "caps5": 614,
      "tur": 615,
      "house": 616,
      "dri": 617,
      "tell": 618,
      "spe": 619,
      "hand": 620,
      "such": 621,
      "still": 622,
      "though": 623,
      "those": 624,
      "mooring": 625,
      "says": 626,
      "better": 627,
      "times": 628,
      "wind": 629,
      "turn": 630,
      "keep": 631,
      "mem": 632,
      "censor": 633,
      "ked": 634,
      "ittle": 635,
      "dock": 636,
      "watch": 637,
      "creat": 638,
      "little": 639,
      "place": 640,
      "affect": 641,
      "date": 642,
      "obstacles": 643,
      "nar": 644,
      "cts": 645,
      "faced": 646,
      "vi": 647,
      "dy": 648,
      "??": 649,
      "min": 650,
      "gen": 651,
      "ult": 652,
      "high": 653,
      "int": 654,
      "while": 655,
      "inform": 656,
      "coun": 657,
      "iscus": 658,
      "hib": 659,
      "spend": 660,
      "ance": 661,
      "low": 662,
      "cont": 663,
      "import": 664,
      "found": 665,
      "wo": 666,
      "fa": 667,
      "et": 668,
      "car": 669,
      "arch": 670,
      "year": 671,
      "narcis": 672,
      "inst": 673,
      "certain": 674,
      "narciso": 675,
      "hour": 676,
      "su": 677,
      "magazines": 678,
      "sm": 679,
      "eas": 680,
      "dis": 681,
      "hibiscus": 682,
      "reading": 683,
      "pic": 684,
      "same": 685,
      "joy": 686,
      "might": 687,
      "lim": 688,
      "tow": 689,
      "ved": 690,
      "teach": 691,
      "information": 692,
      "important": 693,
      "ol": 694,
      "ish": 695,
      "caps6": 696,
      "give": 697,
      "ents": 698,
      "without": 699,
      "clo": 700,
      "pass": 701,
      "iety": 702,
      "having": 703,
      "nex": 704,
      "everything": 705,
      "laughing": 706,
      "getting": 707,
      "net": 708,
      "shelves": 709,
      "online": 710,
      "shows": 711,
      "safe": 712,
      "next": 713,
      "add": 714,
      "happen": 715,
      "cal": 716,
      "hop": 717,
      "censorship": 718,
      "cent": 719,
      "comm": 720,
      "stay": 721,
      "big": 722,
      "two": 723,
      "each": 724,
      "num2": 725,
      "stand": 726,
      "started": 727,
      "ci": 728,
      "\"@": 729,
      "list": 730,
      "rel": 731,
      "ning": 732,
      "cond": 733,
      "face": 734,
      "before": 735,
      "anything": 736,
      "nature": 737,
      "moved": 738,
      "thought": 739,
      "ates": 740,
      "tri": 741,
      "wal": 742,
      "rest": 743,
      "society": 744,
      "arm": 745,
      "part": 746,
      "enjoy": 747,
      "doing": 748,
      "body": 749,
      "ame": 750,
      "ber": 751,
      "ding": 752,
      "ather": 753,
      "told": 754,
      "finally": 755,
      "vel": 756,
      "others": 757,
      "kind": 758,
      "sim": 759,
      "opin": 760,
      "outside": 761,
      "ation2": 762,
      "word": 763,
      ".�": 764,
      "bl": 765,
      "room": 766,
      "under": 767,
      "obstacle": 768,
      "che": 769,
      "ft": 770,
      "best": 771,
      "mp": 772,
      "grate": 773,
      "commun": 774,
      "dro": 775,
      "wanted": 776,
      "shelf": 777,
      "cr": 778,
      "law": 779,
      "ken": 780,
      "ng": 781,
      "date1": 782,
      "listen": 783,
      "ames": 784,
      "internet": 785,
      "conclu": 786,
      "effect": 787,
      "movie": 788,
      "dont": 789,
      "person2": 790,
      "mean": 791,
      "ually": 792,
      "young": 793,
      "web": 794,
      "press": 795,
      "gy": 796,
      "created": 797,
      "je": 798,
      "mind": 799,
      "using": 800,
      "igh": 801,
      "ants": 802,
      "patience": 803,
      "lt": 804,
      "aper": 805,
      "cur": 806,
      "yes": 807,
      "hope": 808,
      "ress": 809,
      "grateful": 810,
      "ction": 811,
      "gether": 812,
      "makes": 813,
      "won": 814,
      "together": 815,
      "feature": 816,
      "trying": 817,
      "ban": 818,
      "left": 819,
      "materials": 820,
      "hydro": 821,
      "ating": 822,
      "hydrogen": 823,
      "stud": 824,
      "ces": 825,
      "games": 826,
      "road": 827,
      "din": 828,
      "realiz": 829,
      "exer": 830,
      "second": 831,
      "posit": 832,
      "talking": 833,
      "search": 834,
      "plain": 835,
      "cre": 836,
      "ten": 837,
      "ser": 838,
      "lic": 839,
      "move": 840,
      "ben": 841,
      "point": 842,
      "nothing": 843,
      "land": 844,
      "caps7": 845,
      "man": 846,
      "else": 847,
      "ff": 848,
      "gue": 849,
      "head": 850,
      "took": 851,
      "town": 852,
      "ring": 853,
      "ped": 854,
      "idea": 855,
      "done": 856,
      "ited": 857,
      "dear": 858,
      "res": 859,
      "enough": 860,
      "exercis": 861,
      "dad": 862,
      "ange": 863,
      "bro": 864,
      "ign": 865,
      "ext": 866,
      "atte": 867,
      "taken": 868,
      "wouldn": 869,
      "ask": 870,
      "lives": 871,
      "ships": 872,
      "ended": 873,
      "once": 874,
      "today": 875,
      "ense": 876,
      "iss": 877,
      "doesn": 878,
      "mother": 879,
      "fre": 880,
      "taking": 881,
      "features": 882,
      "live": 883,
      "reasons": 884,
      "saying": 885,
      "cri": 886,
      "cid": 887,
      "making": 888,
      "viol": 889,
      "mat": 890,
      "ations": 891,
      "ready": 892,
      "prop": 893,
      "seem": 894,
      "gir": 895,
      "sup": 896,
      "type": 897,
      "ead": 898,
      "cess": 899,
      "almost": 900,
      "eye": 901,
      "gu": 902,
      "girl": 903,
      "states": 904,
      "removed": 905,
      "tor": 906,
      "hot": 907,
      "far": 908,
      "country": 909,
      "guez": 910,
      "rodri": 911,
      "rodriguez": 912,
      "ick": 913,
      "lea": 914,
      "vie": 915,
      "hours": 916,
      "oney": 917,
      "stop": 918,
      "ph": 919,
      "ness": 920,
      "dang": 921,
      "ese": 922,
      "writ": 923,
      "agree": 924,
      "vide": 925,
      "instead": 926,
      "opinion": 927,
      "ase": 928,
      "wrong": 929,
      "ier": 930,
      "area": 931,
      "fly": 932,
      "money": 933,
      "tech": 934,
      "few": 935,
      "positive": 936,
      "whole": 937,
      "cen": 938,
      "open": 939,
      "cub": 940,
      "winds": 941,
      "usion": 942,
      "ride": 943,
      "problems": 944,
      "looking": 945,
      "ary": 946,
      "understand": 947,
      "sure": 948,
      "sur": 949,
      "ven": 950,
      "unti": 951,
      "ince": 952,
      "ative": 953,
      "places": 954,
      "stuff": 955,
      "couldn": 956,
      "job": 957,
      "both": 958,
      "due": 959,
      "may": 960,
      "spring": 961,
      "pub": 962,
      "frame": 963,
      "sing": 964,
      "communic": 965,
      "exper": 966,
      "conclusion": 967,
      "waiting": 968,
      "ote": 969,
      "ny": 970,
      "deser": 971,
      "stru": 972,
      "comes": 973,
      "become": 974,
      "gin": 975,
      "websit": 976,
      "class": 977,
      "adv": 978,
      "percent": 979,
      "sk": 980,
      "riate": 981,
      "hill": 982,
      "grow": 983,
      "concludes": 984,
      "wasn": 985,
      "feeling": 986,
      "sometimes": 987,
      "thank": 988,
      "since": 989,
      "stress": 990,
      "fects": 991,
      "cor": 992,
      "benef": 993,
      "until": 994,
      "techno": 995,
      "ull": 996,
      "fic": 997,
      "shouldn": 998,
      "bab": 999,
      "coming": 1000,
      "strong": 1001,
      "approp": 1002,
      "bor": 1003,
      "ix": 1004,
      "minut": 1005,
      "run": 1006,
      "technolo": 1007,
      "ures": 1008,
      "uc": 1009,
      "ical": 1010,
      "pop": 1011,
      "ted": 1012,
      "hur": 1013,
      "poss": 1014,
      "heal": 1015,
      "remem": 1016,
      "hood": 1017,
      "days": 1018,
      "smi": 1019,
      "brother": 1020,
      "ia": 1021,
      "care": 1022,
      "view": 1023,
      "hear": 1024,
      "words": 1025,
      "chang": 1026,
      "cour": 1027,
      "plant": 1028,
      "ject": 1029,
      "ace": 1030,
      "attemp": 1031,
      "iness": 1032,
      "game": 1033,
      "years": 1034,
      "ones": 1035,
      "ak": 1036,
      "ults": 1037,
      "caps8": 1038,
      "thats": 1039,
      "doc": 1040,
      "knew": 1041,
      "check": 1042,
      "maybe": 1043,
      "main": 1044,
      "health": 1045,
      "geese": 1046,
      "fact": 1047,
      "ition": 1048,
      "sha": 1049,
      "dination": 1050,
      "sent": 1051,
      "plan": 1052,
      "close": 1053,
      "na": 1054,
      "technology": 1055,
      "tra": 1056,
      "matter": 1057,
      "flam": 1058,
      "change": 1059,
      "public": 1060,
      "ons": 1061,
      "chat": 1062,
      "video": 1063,
      "bas": 1064,
      "star": 1065,
      "alot": 1066,
      "door": 1067,
      "hind": 1068,
      "ower": 1069,
      "funny": 1070,
      "attempting": 1071,
      "asked": 1072,
      "bring": 1073,
      "affected": 1074,
      "ply": 1075,
      "illed": 1076,
      "possi": 1077,
      "med": 1078,
      "felt": 1079,
      "yor": 1080,
      "leg": 1081,
      "num3": 1082,
      "newsp": 1083,
      "�@": 1084,
      "cho": 1085,
      "gg": 1086,
      "areas": 1087,
      "needed": 1088,
      "gre": 1089,
      "coor": 1090,
      "students": 1091,
      "york": 1092,
      "teen": 1093,
      "begin": 1094,
      "mail": 1095,
      "against": 1096,
      "remember": 1097,
      "const": 1098,
      "antly": 1099,
      "ball": 1100,
      "inte": 1101,
      "adults": 1102,
      "anyone": 1103,
      "violent": 1104,
      "three": 1105,
      "pict": 1106,
      "warm": 1107,
      "fort": 1108,
      "winter": 1109,
      "minutes": 1110,
      "\".": 1111,
      ").": 1112,
      "research": 1113,
      "playing": 1114,
      "lead": 1115,
      "ju": 1116,
      "exercise": 1117,
      "danger": 1118,
      "???": 1119,
      "sis": 1120,
      "call": 1121,
      "saw": 1122,
      "cult": 1123,
      "appropriate": 1124,
      "ual": 1125,
      "helps": 1126,
      "means": 1127,
      "bi": 1128,
      "safety": 1129,
      "mi": 1130,
      "explain": 1131,
      "descri": 1132,
      "memor": 1133,
      "called": 1134,
      "ious": 1135,
      "coordination": 1136,
      "newspaper": 1137,
      "ili": 1138,
      "however": 1139,
      "ner": 1140,
      "ath": 1141,
      "hum": 1142,
      "bud": 1143,
      "sted": 1144,
      "ross": 1145,
      "relation": 1146,
      "organization2": 1147,
      "rather": 1148,
      "looked": 1149,
      "location2": 1150,
      "vers": 1151,
      "situ": 1152,
      "popul": 1153,
      "etc": 1154,
      "seen": 1155,
      "forget": 1156,
      "ek": 1157,
      "urban": 1158,
      "grand": 1159,
      "censo": 1160,
      "limit": 1161,
      "bus": 1162,
      "ru": 1163,
      "highly": 1164,
      "experi": 1165,
      "learning": 1166,
      "bur": 1167,
      "aw": 1168,
      "simple": 1169,
      "kept": 1170,
      "sister": 1171,
      "exp": 1172,
      "dist": 1173,
      "...": 1174,
      "past": 1175,
      "ility": 1176,
      "ont": 1177,
      "eyes": 1178,
      "snow": 1179,
      "wants": 1180,
      "vis": 1181,
      "thous": 1182,
      "educ": 1183,
      "buy": 1184,
      "phone": 1185,
      "heat": 1186,
      "flamm": 1187,
      "rents": 1188,
      "censored": 1189,
      "thousand": 1190,
      "cuban": 1191,
      "hills": 1192,
      "oud": 1193,
      "exce": 1194,
      "selves": 1195,
      "tory": 1196,
      "turned": 1197,
      "flying": 1198,
      "parent": 1199,
      "short": 1200,
      "flammable": 1201,
      "ither": 1202,
      "ise": 1203,
      "ouch": 1204,
      "ars": 1205,
      "typ": 1206,
      "topic": 1207,
      "airships": 1208,
      "decid": 1209,
      "lastly": 1210,
      "famili": 1211,
      "interest": 1212,
      "remove": 1213,
      "later": 1214,
      "front": 1215,
      "full": 1216,
      "neg": 1217,
      "isn": 1218,
      "ctions": 1219,
      "bed": 1220,
      "happened": 1221,
      "bre": 1222,
      "comple": 1223,
      "lling": 1224,
      "easy": 1225,
      "walk": 1226,
      "learned": 1227,
      "currents": 1228,
      "reader": 1229,
      "sad": 1230,
      "ned": 1231,
      "myself": 1232,
      "boy": 1233,
      "realized": 1234,
      "write": 1235,
      "uring": 1236,
      "websites": 1237,
      "hun": 1238,
      "az": 1239,
      "blim": 1240,
      "gives": 1241,
      "drop": 1242,
      "pos": 1243,
      "caps9": 1244,
      "enter": 1245,
      "gave": 1246,
      "writing": 1247,
      "ced": 1248,
      "quest": 1249,
      "reli": 1250,
      "week": 1251,
      "pick": 1252,
      "cons": 1253,
      "lang": 1254,
      "homework": 1255,
      "neigh": 1256,
      "exc": 1257,
      "takes": 1258,
      "miss": 1259,
      "section": 1260,
      "local": 1261,
      "sat": 1262,
      "everyday": 1263,
      "spending": 1264,
      "comp": 1265,
      "speed": 1266,
      "constantly": 1267,
      "probab": 1268,
      "excer": 1269,
      "hydr": 1270,
      "hold": 1271,
      "song": 1272,
      "ends": 1273,
      "city": 1274,
      "hu": 1275,
      "probably": 1276,
      "'@": 1277,
      "food": 1278,
      "magazine": 1279,
      "whe": 1280,
      "neighbor": 1281,
      "langu": 1282,
      "sac": 1283,
      "inv": 1284,
      "pract": 1285,
      "express": 1286,
      "social": 1287,
      "dire": 1288,
      "ird": 1289,
      "iled": 1290,
      "att": 1291,
      "soon": 1292,
      "ok": 1293,
      "leave": 1294,
      "shif": 1295,
      "scre": 1296,
      "sitting": 1297,
      "waited": 1298,
      "grou": 1299,
      "pret": 1300,
      "conf": 1301,
      "ills": 1302,
      "fast": 1303,
      "ove": 1304,
      "return": 1305,
      "goes": 1306,
      "cle": 1307,
      "fut": 1308,
      "mar": 1309,
      "true": 1310,
      "least": 1311,
      "fire": 1312,
      "av": 1313,
      "desert": 1314,
      "ear": 1315,
      "language": 1316,
      "rain": 1317,
      "sub": 1318,
      "dehydr": 1319,
      "nor": 1320,
      "nice": 1321,
      "itch": 1322,
      "loved": 1323,
      "decided": 1324,
      "ded": 1325,
      "ima": 1326,
      "item": 1327,
      "actually": 1328,
      "above": 1329,
      "during": 1330,
      "freed": 1331,
      "night": 1332,
      "along": 1333,
      "pur": 1334,
      "paper": 1335,
      "negative": 1336,
      "freedom": 1337,
      "ude": 1338,
      "often": 1339,
      "stren": 1340,
      "oot": 1341,
      "por": 1342,
      "easier": 1343,
      "ele": 1344,
      "must": 1345,
      "vir": 1346,
      "future": 1347,
      "knowled": 1348,
      "filled": 1349,
      "ically": 1350,
      "buildings": 1351,
      "dest": 1352,
      "lack": 1353,
      "weight": 1354,
      "adult": 1355,
      "ability": 1356,
      "store": 1357,
      "effects": 1358,
      "col": 1359,
      "hurt": 1360,
      "dangerous": 1361,
      "extre": 1362,
      "percent1": 1363,
      "excerpt": 1364,
      "budding": 1365,
      "although": 1366,
      "ste": 1367,
      "caps11": 1368,
      "archite": 1369,
      "gets": 1370,
      "needs": 1371,
      "inside": 1372,
      "ities": 1373,
      "already": 1374,
      "aster": 1375,
      "education": 1376,
      "sense": 1377,
      ",\"": 1378,
      "uses": 1379,
      "memories": 1380,
      "deter": 1381,
      "possible": 1382,
      "sacri": 1383,
      "streng": 1384,
      "conne": 1385,
      "heard": 1386,
      "ho": 1387,
      "cook": 1388,
      "ween": 1389,
      "person3": 1390,
      "hal": 1391,
      "sex": 1392,
      "modif": 1393,
      "touch": 1394,
      "quick": 1395,
      "situation": 1396,
      "between": 1397,
      "herself": 1398,
      "sol": 1399,
      "offended": 1400,
      "watching": 1401,
      "yet": 1402,
      "happiness": 1403,
      "contro": 1404,
      "lost": 1405,
      "working": 1406,
      "simply": 1407,
      "lium": 1408,
      "knowledge": 1409,
      "diffic": 1410,
      "tive": 1411,
      "light": 1412,
      "sun": 1413,
      "ug": 1414,
      "moving": 1415,
      "suc": 1416,
      "swi": 1417,
      "across": 1418,
      "sy": 1419,
      "pa": 1420,
      "helium": 1421,
      "ards": 1422,
      "flower": 1423,
      "relationship": 1424,
      "allowed": 1425,
      "united": 1426,
      "oose": 1427,
      "ending": 1428,
      "shifting": 1429,
      "rac": 1430,
      "ling": 1431,
      "tru": 1432,
      "mad": 1433,
      "hor": 1434,
      "pped": 1435,
      "benefit": 1436,
      ",�": 1437,
      "bes": 1438,
      "ouble": 1439,
      "thinking": 1440,
      "talks": 1441,
      "gener": 1442,
      "half": 1443,
      "six": 1444,
      "caps10": 1445,
      "comfort": 1446,
      "seeing": 1447,
      "order": 1448,
      "pretty": 1449,
      "facebook": 1450,
      "loving": 1451,
      "ger": 1452,
      "legal": 1453,
      "entertain": 1454,
      "mor": 1455,
      "ran": 1456,
      "rid": 1457,
      "messa": 1458,
      "small": 1459,
      "lar": 1460,
      "complete": 1461,
      "itself": 1462,
      "deal": 1463,
      "helpful": 1464,
      "laughed": 1465,
      "growing": 1466,
      "huge": 1467,
      "blo": 1468,
      "free": 1469,
      "teacher": 1470,
      "vor": 1471,
      "ins": 1472,
      "project": 1473,
      "behind": 1474,
      "weather": 1475,
      "older": 1476,
      "location": 1477,
      "communicate": 1478,
      "reach": 1479,
      "pose": 1480,
      "extreme": 1481,
      "pay": 1482,
      "name": 1483,
      "hang": 1484,
      "cted": 1485,
      "spec": 1486,
      "trip": 1487,
      "near": 1488,
      "quote": 1489,
      "(@": 1490,
      "gl": 1491,
      "contin": 1492,
      "architects": 1493,
      "cool": 1494,
      "artic": 1495,
      "failed": 1496,
      "culture": 1497,
      "choice": 1498,
      "determin": 1499,
      "sil": 1500,
      "either": 1501,
      "foot": 1502,
      "cou": 1503,
      "lit": 1504,
      "tried": 1505,
      "whether": 1506,
      "cut": 1507,
      "sign": 1508,
      "men": 1509,
      "trouble": 1510,
      "time1": 1511,
      "throughout": 1512,
      "wonder": 1513,
      "history": 1514,
      "feet": 1515,
      "guy": 1516,
      "content": 1517,
      "pictures": 1518,
      "cous": 1519,
      "incl": 1520,
      "vid": 1521,
      "als": 1522,
      "essay": 1523,
      "ights": 1524,
      "walked": 1525,
      "themselves": 1526,
      "passed": 1527,
      "cially": 1528,
      "populated": 1529,
      "began": 1530,
      "addic": 1531,
      "posed": 1532,
      "bit": 1533,
      "feels": 1534,
      "travel": 1535,
      "greatest": 1536,
      "experience": 1537,
      "jor": 1538,
      "healthy": 1539,
      "worse": 1540,
      "personal": 1541,
      "od": 1542,
      "ished": 1543,
      "advan": 1544,
      "major": 1545,
      "sever": 1546,
      "illegal": 1547,
      "skills": 1548,
      "smile": 1549,
      "fice": 1550,
      "bea": 1551,
      "heart": 1552,
      "group": 1553,
      "amoun": 1554,
      "therefore": 1555,
      "four": 1556,
      "row": 1557,
      "complain": 1558,
      "ently": 1559,
      "defin": 1560,
      "chance": 1561,
      "ground": 1562,
      "clear": 1563,
      "ied": 1564,
      "favor": 1565,
      "question": 1566,
      "sacrifice": 1567,
      "living": 1568,
      "neighborhood": 1569,
      "key": 1570,
      "bike": 1571,
      "fall": 1572,
      "slow": 1573,
      "ond": 1574,
      "everybody": 1575,
      "flat": 1576,
      "drink": 1577,
      "families": 1578,
      "drug": 1579,
      "exceed": 1580,
      "gone": 1581,
      "posted": 1582,
      "eat": 1583,
      "email": 1584,
      "leep": 1585,
      "ages": 1586,
      "tion": 1587,
      "ash": 1588,
      "constru": 1589,
      "remind": 1590,
      "char": 1591,
      "contain": 1592,
      "jobs": 1593,
      "mid": 1594,
      "news": 1595,
      "helped": 1596,
      "hit": 1597,
      "nam": 1598,
      "unch": 1599,
      "event": 1600,
      "concer": 1601,
      "final": 1602,
      "tells": 1603,
      "load": 1604,
      "beaut": 1605,
      "ahead": 1606,
      "oc": 1607,
      "became": 1608,
      "couple": 1609,
      "swe": 1610,
      "sound": 1611,
      "terrain": 1612,
      "grade": 1613,
      "telling": 1614,
      "running": 1615,
      "whate": 1616,
      "owed": 1617,
      "pie": 1618,
      "bar": 1619,
      "meet": 1620,
      "creates": 1621,
      "difficult": 1622,
      "choose": 1623,
      "worth": 1624,
      "ris": 1625,
      "ideas": 1626,
      "interact": 1627,
      "fail": 1628,
      "large": 1629,
      "stree": 1630,
      "ries": 1631,
      "thankful": 1632,
      "orts": 1633,
      "tired": 1634,
      "knowing": 1635,
      "walking": 1636,
      "whatever": 1637,
      "envir": 1638,
      "lets": 1639,
      "types": 1640,
      "ention": 1641,
      "num4": 1642,
      "issue": 1643,
      "team": 1644,
      "community": 1645,
      "beginning": 1646,
      "sca": 1647,
      "usually": 1648,
      "easily": 1649,
      "inappropriate": 1650,
      "isting": 1651,
      "cident": 1652,
      "den": 1653,
      "text": 1654,
      "answ": 1655,
      "docking": 1656,
      "communication": 1657,
      "ider": 1658,
      "jects": 1659,
      "espe": 1660,
      "park": 1661,
      "landing": 1662,
      "tors": 1663,
      "bers": 1664,
      "dle": 1665,
      "affects": 1666,
      "exercising": 1667,
      "realize": 1668,
      "courage": 1669,
      "friendship": 1670,
      "vent": 1671,
      "meant": 1672,
      "lose": 1673,
      "ize": 1674,
      "brought": 1675,
      "itude": 1676,
      "yourself": 1677,
      "ush": 1678,
      "ments": 1679,
      "val": 1680,
      "!\"": 1681,
      "forn": 1682,
      "seemed": 1683,
      "cry": 1684,
      "cali": 1685,
      "changed": 1686,
      "media": 1687,
      "third": 1688,
      "die": 1689,
      "extremely": 1690,
      "favorite": 1691,
      "fine": 1692,
      "amaz": 1693,
      "shop": 1694,
      "fornia": 1695,
      "california": 1696,
      "ints": 1697,
      "ared": 1698,
      "driving": 1699,
      "kitch": 1700,
      "wel": 1701,
      "teenag": 1702,
      "especially": 1703,
      "rop": 1704,
      "amount": 1705,
      "mis": 1706,
      "june": 1707,
      "cooking": 1708,
      "ref": 1709,
      "cant": 1710,
      "appro": 1711,
      "hair": 1712,
      "blood": 1713,
      "single": 1714,
      "kitchen": 1715,
      "childhood": 1716,
      "riding": 1717,
      "talked": 1718,
      "bir": 1719,
      "fight": 1720,
      "knows": 1721,
      "consider": 1722,
      "five": 1723,
      "played": 1724,
      "dehydrated": 1725,
      "pri": 1726,
      "father": 1727,
      "opinions": 1728,
      "vo": 1729,
      "younger": 1730,
      "birth": 1731,
      "existing": 1732,
      "faster": 1733,
      "uck": 1734,
      "break": 1735,
      "items": 1736,
      "upon": 1737,
      "upset": 1738,
      "inclu": 1739,
      "ings": 1740,
      "ket": 1741,
      "ific": 1742,
      "harm": 1743,
      "doll": 1744,
      "article": 1745,
      "ener": 1746,
      "iful": 1747,
      "cept": 1748,
      "....": 1749,
      "accident": 1750,
      "student": 1751,
      "showed": 1752,
      "round": 1753,
      "sna": 1754,
      "dec": 1755,
      "grad": 1756,
      "present": 1757,
      "sidered": 1758,
      "middle": 1759,
      "considered": 1760,
      "space": 1761,
      "imag": 1762,
      "practical": 1763,
      "rated": 1764,
      "ney": 1765,
      "perfect": 1766,
      "harder": 1767,
      "fair": 1768,
      "support": 1769,
      "success": 1770,
      "drugs": 1771,
      "several": 1772,
      "giving": 1773,
      "fresh": 1774,
      "leaving": 1775,
      "answer": 1776,
      "?\"": 1777,
      "jour": 1778,
      "estri": 1779,
      "course": 1780,
      "okay": 1781,
      "environ": 1782,
      "ward": 1783,
      "pedestri": 1784,
      "cuba": 1785,
      "confid": 1786,
      "fish": 1787,
      "melt": 1788,
      "tiv": 1789,
      "foll": 1790,
      "enjoying": 1791,
      "pressure": 1792,
      "thirst": 1793,
      "amazing": 1794,
      "teens": 1795,
      "cas": 1796,
      "tie": 1797,
      "directions": 1798,
      "control": 1799,
      "authors": 1800,
      "hands": 1801,
      "tries": 1802,
      "migr": 1803,
      "describes": 1804,
      "acting": 1805,
      "towards": 1806,
      "pedestrians": 1807,
      "ump": 1808,
      "likely": 1809,
      "ously": 1810,
      "finds": 1811,
      "listening": 1812,
      "swivel": 1813,
      "fit": 1814,
      "spent": 1815,
      "seems": 1816,
      "arri": 1817,
      "environment": 1818,
      "liter": 1819,
      "beautiful": 1820,
      "ences": 1821,
      "fell": 1822,
      "roy": 1823,
      "allows": 1824,
      "longer": 1825,
      "hund": 1826,
      "study": 1827,
      "ago": 1828,
      "held": 1829,
      "exact": 1830,
      "ular": 1831,
      "catch": 1832,
      "ator": 1833,
      "notic": 1834,
      "girls": 1835,
      "hundred": 1836,
      "cold": 1837,
      "nt": 1838,
      "caused": 1839,
      "lots": 1840,
      "blimp": 1841,
      "completely": 1842,
      "ech": 1843,
      "readers": 1844,
      "based": 1845,
      "burg": 1846,
      "rolling": 1847,
      "immigr": 1848,
      "picture": 1849,
      ".'": 1850,
      "flo": 1851,
      "dep": 1852,
      "given": 1853,
      "blue": 1854,
      "blimps": 1855,
      "journey": 1856,
      "table": 1857,
      "meaning": 1858,
      "website": 1859,
      "entire": 1860,
      "worry": 1861,
      "activ": 1862,
      "cannot": 1863,
      "screen": 1864,
      "caps12": 1865,
      "speech": 1866,
      "create": 1867,
      "caps13": 1868,
      "moment": 1869,
      "entertainment": 1870,
      "bot": 1871,
      "weights": 1872,
      "dar": 1873,
      "ately": 1874,
      "offend": 1875,
      "miles": 1876,
      "norm": 1877,
      "eventually": 1878,
      "pres": 1879,
      "serious": 1880,
      "stated": 1881,
      "sho": 1882,
      "greatful": 1883,
      "count": 1884,
      "bly": 1885,
      "pain": 1886,
      "banned": 1887,
      "case": 1888,
      "ra": 1889,
      "hinden": 1890,
      "excited": 1891,
      "subject": 1892,
      "power": 1893,
      "lived": 1894,
      "rible": 1895,
      "decis": 1896,
      "thinks": 1897,
      "destroy": 1898,
      "hindenburg": 1899,
      "gotten": 1900,
      "smith": 1901,
      "starts": 1902,
      "fer": 1903,
      "adap": 1904,
      "access": 1905,
      "flow": 1906,
      "starting": 1907,
      "energy": 1908,
      "da": 1909,
      "sour": 1910,
      "risk": 1911,
      "mask": 1912,
      "sports": 1913,
      "quite": 1914,
      "interesting": 1915,
      "hon": 1916,
      "ian": 1917,
      "resp": 1918,
      "anymore": 1919,
      "chall": 1920,
      "mpt": 1921,
      "sleep": 1922,
      "cam": 1923,
      "aught": 1924,
      "itten": 1925,
      "purpose": 1926,
      "dollars": 1927,
      "alone": 1928,
      "loves": 1929,
      "cele": 1930,
      "mostly": 1931,
      "explains": 1932,
      "pli": 1933,
      "known": 1934,
      "overcome": 1935,
      "schools": 1936,
      "�.": 1937,
      "ics": 1938,
      "cost": 1939,
      "strengthen": 1940,
      "quickly": 1941,
      "message": 1942,
      "dense": 1943,
      "gest": 1944,
      "mil": 1945,
      "tom": 1946,
      "prevent": 1947,
      "personally": 1948,
      "recent": 1949,
      "gram": 1950,
      "sites": 1951,
      "proud": 1952,
      "allowing": 1953,
      "please": 1954,
      "human": 1955,
      "celebr": 1956,
      "war": 1957,
      "apart": 1958,
      "foundation": 1959,
      "dinner": 1960,
      "cousin": 1961,
      "\",": 1962,
      "fully": 1963,
      "drive": 1964,
      "calm": 1965,
      "overall": 1966,
      "flu": 1967,
      "censoring": 1968,
      "mature": 1969,
      "reg": 1970,
      "met": 1971,
      "stopped": 1972,
      "send": 1973,
      "inc": 1974,
      "likes": 1975,
      "written": 1976,
      "cultures": 1977,
      "clean": 1978,
      "steel": 1979,
      "piece": 1980,
      "accept": 1981,
      "save": 1982,
      "rela": 1983,
      "accom": 1984,
      "stories": 1985,
      "greatly": 1986,
      "kinds": 1987,
      "sentence": 1988,
      "solut": 1989,
      "moo": 1990,
      "ried": 1991,
      "members": 1992,
      "closer": 1993,
      "baby": 1994,
      "densely": 1995,
      "emot": 1996,
      "cked": 1997,
      "suit": 1998,
      "comfortable": 1999,
      "street": 2000,
      "cul": 2001,
      "gas": 2002,
      "phy": 2003,
      "cture": 2004,
      "preci": 2005,
      "showing": 2006,
      "useful": 2007,
      "unity": 2008,
      "violence": 2009,
      "noticed": 2010,
      "cli": 2011,
      "var": 2012,
      "board": 2013,
      "speak": 2014,
      "typing": 2015,
      "relax": 2016,
      "camp": 2017,
      "business": 2018,
      "phys": 2019,
      "respe": 2020,
      "works": 2021,
      "seas": 2022,
      "caps14": 2023,
      "jokes": 2024,
      "sum": 2025,
      "prove": 2026,
      "design": 2027,
      "fix": 2028,
      "aprop": 2029,
      "number": 2030,
      "wont": 2031,
      "location3": 2032,
      "person4": 2033,
      "changes": 2034,
      "colle": 2035,
      ".,": 2036,
      "cau": 2037,
      "connect": 2038,
      "teenagers": 2039,
      "helping": 2040,
      "letter": 2041,
      "attention": 2042,
      "finding": 2043,
      "selfless": 2044,
      "forever": 2045,
      "money1": 2046,
      "adm": 2047,
      "happens": 2048,
      "placed": 2049,
      "caring": 2050,
      "moored": 2051,
      "peoples": 2052,
      "dog": 2053,
      "caps15": 2054,
      "ping": 2055,
      "vowed": 2056,
      "becoming": 2057,
      "gover": 2058,
      "ulti": 2059,
      "strugg": 2060,
      "months": 2061,
      "vision": 2062,
      "attempt": 2063,
      "benefits": 2064,
      "nation": 2065,
      "outh": 2066,
      "brings": 2067,
      "fur": 2068,
      "mess": 2069,
      "mite": 2070,
      "sight": 2071,
      "iet": 2072,
      "trans": 2073,
      "decide": 2074,
      "ives": 2075,
      "late": 2076,
      "onto": 2077,
      "bored": 2078,
      "charac": 2079,
      "birthday": 2080,
      "rap": 2081,
      "cable": 2082,
      "dev": 2083,
      "cu": 2084,
      "kur": 2085,
      "ined": 2086,
      "issu": 2087,
      "below": 2088,
      "till": 2089,
      "teachers": 2090,
      "guess": 2091,
      "immigrants": 2092,
      "19": 2093,
      "pot": 2094,
      "thier": 2095,
      "within": 2096,
      "program": 2097,
      "ield": 2098,
      "date2": 2099,
      "countries": 2100,
      "caught": 2101,
      "character": 2102,
      "zy": 2103,
      "action": 2104,
      "surround": 2105,
      "views": 2106,
      "maskie": 2107,
      "ists": 2108,
      "passion": 2109,
      "strength": 2110,
      "kurmaskie": 2111,
      "kill": 2112,
      "putting": 2113,
      "grab": 2114,
      "joke": 2115,
      "distance": 2116,
      "relig": 2117,
      "morning": 2118,
      "issues": 2119,
      "cover": 2120,
      "fig": 2121,
      "expe": 2122,
      "belief": 2123,
      "sud": 2124,
      "faraway": 2125,
      "dry": 2126,
      "race": 2127,
      "influ": 2128,
      "thoughts": 2129,
      "feelings": 2130,
      "explo": 2131,
      "tw": 2132,
      "stair": 2133,
      "bul": 2134,
      "quiet": 2135,
      "songs": 2136,
      "approach": 2137,
      "snake": 2138,
      "jer": 2139,
      "ices": 2140,
      "visit": 2141,
      "silently": 2142,
      "imagine": 2143,
      "du": 2144,
      "sees": 2145,
      "thered": 2146,
      "luck": 2147,
      "push": 2148,
      "mach": 2149,
      "snows": 2150,
      "early": 2151,
      "roof": 2152,
      "exactly": 2153,
      "doctor": 2154,
      "sixty": 2155,
      "ghts": 2156,
      "spir": 2157,
      "modific": 2158,
      "passeng": 2159,
      "grew": 2160,
      "har": 2161,
      "pas": 2162,
      "vac": 2163,
      "yose": 2164,
      "arms": 2165,
      "changing": 2166,
      "respect": 2167,
      "appreci": 2168,
      "nobody": 2169,
      "disagree": 2170,
      "videos": 2171,
      "yosemite": 2172,
      "sport": 2173,
      "continu": 2174,
      "reality": 2175,
      "secondly": 2176,
      "familiar": 2177,
      "ges": 2178,
      "taught": 2179,
      "sey": 2180,
      "amid": 2181,
      "scream": 2182,
      "determined": 2183,
      "ds": 2184,
      "thes": 2185,
      "itions": 2186,
      "imp": 2187,
      "interacting": 2188,
      "sudden": 2189,
      "impossible": 2190,
      "whats": 2191,
      "moods": 2192,
      "believ": 2193,
      "contact": 2194,
      "flowers": 2195,
      "honest": 2196,
      "ler": 2197,
      "haven": 2198,
      "cia": 2199,
      "bing": 2200,
      "ream": 2201,
      "common": 2202,
      "ides": 2203,
      "cks": 2204,
      "workers": 2205,
      "clearly": 2206,
      "marcia": 2207,
      "wom": 2208,
      "grat": 2209,
      "appe": 2210,
      "stores": 2211,
      "craz": 2212,
      "jersey": 2213,
      "myspace": 2214,
      "brain": 2215,
      "biggest": 2216,
      "doors": 2217,
      "sym": 2218,
      "addicted": 2219,
      "level": 2220,
      "tele": 2221,
      "determination": 2222,
      "sor": 2223,
      "somewhere": 2224,
      "tether": 2225,
      "ilar": 2226,
      "prom": 2227,
      "literature": 2228,
      "passengers": 2229,
      "cing": 2230,
      "ism": 2231,
      "trad": 2232,
      "didnt": 2233,
      "addition": 2234,
      "share": 2235,
      "modifications": 2236,
      "amidon": 2237,
      "ised": 2238,
      "daily": 2239,
      "indi": 2240,
      "organization": 2241,
      "mention": 2242,
      "symbo": 2243,
      "lunch": 2244,
      "lif": 2245,
      "boring": 2246,
      "field": 2247,
      "weren": 2248,
      "follow": 2249,
      "sw": 2250,
      "ital": 2251,
      "stro": 2252,
      "kee": 2253,
      "aband": 2254,
      "quire": 2255,
      "party": 2256,
      "waste": 2257,
      "projects": 2258,
      "himself": 2259,
      "special": 2260,
      "wonderful": 2261,
      "floor": 2262,
      "!�": 2263,
      "ail": 2264,
      "convers": 2265,
      "obvi": 2266,
      "removing": 2267,
      "mel": 2268,
      "wide": 2269,
      "prints": 2270,
      "velop": 2271,
      "continue": 2272,
      "som": 2273,
      "ton": 2274,
      "erson": 2275,
      "provide": 2276,
      "looks": 2277,
      "rush": 2278,
      "eating": 2279,
      "pul": 2280,
      "ances": 2281,
      "deserts": 2282,
      "increas": 2283,
      "suitable": 2284,
      "none": 2285,
      "sli": 2286,
      "rees": 2287,
      "weeks": 2288,
      "educational": 2289,
      "successful": 2290,
      "stairs": 2291,
      "crazy": 2292,
      "kather": 2293,
      "wish": 2294,
      "facts": 2295,
      "downtown": 2296,
      "percent2": 2297,
      "!!": 2298,
      "io": 2299,
      "lap": 2300,
      "anim": 2301,
      "rence": 2302,
      "katherine": 2303,
      "nment": 2304,
      "scen": 2305,
      "lest": 2306,
      "shown": 2307,
      "wrote": 2308,
      "bal": 2309,
      "somebody": 2310,
      "thanks": 2311,
      "further": 2312,
      "individ": 2313,
      "mouth": 2314,
      "repe": 2315,
      "oned": 2316,
      "paterson": 2317,
      "concern": 2318,
      "season": 2319,
      "aun": 2320,
      "ip": 2321,
      "sci": 2322,
      "liz": 2323,
      "moder": 2324,
      "itted": 2325,
      "aking": 2326,
      "bought": 2327,
      "pull": 2328,
      "necess": 2329,
      "letting": 2330,
      "milli": 2331,
      "report": 2332,
      "beat": 2333,
      "office": 2334,
      "num5": 2335,
      "concluded": 2336,
      "keeps": 2337,
      "endless": 2338,
      "plants": 2339,
      "cting": 2340,
      "serv": 2341,
      "gar": 2342,
      "ster": 2343,
      "spot": 2344,
      "finish": 2345,
      "structure": 2346,
      "relationships": 2347,
      "invol": 2348,
      "college": 2349,
      "bath": 2350,
      "cit": 2351,
      "ging": 2352,
      "ters": 2353,
      "liked": 2354,
      "happening": 2355,
      "elect": 2356,
      "source": 2357,
      "gratitude": 2358,
      "step": 2359,
      "seat": 2360,
      "laws": 2361,
      "bott": 2362,
      "destroyed": 2363,
      "individual": 2364,
      "gon": 2365,
      "sort": 2366,
      "tall": 2367,
      "prof": 2368,
      "watched": 2369,
      "benif": 2370,
      "surv": 2371,
      "hung": 2372,
      "nearly": 2373,
      "voice": 2374,
      "figure": 2375,
      "pulled": 2376,
      "ank": 2377,
      "tern": 2378,
      "humor": 2379,
      "crying": 2380,
      "non": 2381,
      "throw": 2382,
      "desp": 2383,
      "black": 2384,
      "shared": 2385,
      "topics": 2386,
      "thirsty": 2387,
      "��": 2388,
      "rew": 2389,
      "aring": 2390,
      "statement": 2391,
      "impact": 2392,
      "fill": 2393,
      "shot": 2394,
      "presents": 2395,
      "ses": 2396,
      "everywhere": 2397,
      "handle": 2398,
      "understanding": 2399,
      "guys": 2400,
      "iv": 2401,
      "iate": 2402,
      "tic": 2403,
      "owners": 2404,
      "instant": 2405,
      "staying": 2406,
      "born": 2407,
      "except": 2408,
      "mine": 2409,
      "tone": 2410,
      "ley": 2411,
      "anywhere": 2412,
      "relative": 2413,
      "arrived": 2414,
      "atives": 2415,
      "iting": 2416,
      "stem": 2417,
      "umble": 2418,
      "scared": 2419,
      "plied": 2420,
      "lay": 2421,
      "mer": 2422,
      "inno": 2423,
      "require": 2424,
      "novel": 2425,
      "patients": 2426,
      "belive": 2427,
      "restri": 2428,
      "framework": 2429,
      "active": 2430,
      "amer": 2431,
      "plus": 2432,
      "events": 2433,
      "factory": 2434,
      "tool": 2435,
      "minds": 2436,
      "roads": 2437,
      "blueprints": 2438,
      "decision": 2439,
      "survive": 2440,
      "ric": 2441,
      "dangling": 2442,
      "cross": 2443,
      "ost": 2444,
      "neither": 2445,
      "worked": 2446,
      "system": 2447,
      "definition": 2448,
      "grades": 2449,
      "stroke": 2450,
      "aim": 2451,
      "tail": 2452,
      "ilt": 2453,
      "assign": 2454,
      "finished": 2455,
      "possibly": 2456,
      "glass": 2457,
      "sections": 2458,
      "develop": 2459,
      "custom": 2460,
      "added": 2461,
      "strongly": 2462,
      "challeng": 2463,
      "exposed": 2464,
      "trust": 2465,
      "sexual": 2466,
      "occur": 2467,
      "abandoned": 2468,
      "'.": 2469,
      "ible": 2470,
      "homeland": 2471,
      "keeping": 2472,
      "stayed": 2473,
      "beliefs": 2474,
      "dream": 2475,
      "tnam": 2476,
      "ud": 2477,
      "lazy": 2478,
      "partic": 2479,
      "vietnam": 2480,
      "juice": 2481,
      "bloom": 2482,
      "pack": 2483,
      "treat": 2484,
      "post": 2485,
      "advice": 2486,
      "modified": 2487,
      "dam": 2488,
      "gard": 2489,
      "stup": 2490,
      "ghost": 2491,
      "depress": 2492,
      "angry": 2493,
      "picked": 2494,
      "german": 2495,
      "ect": 2496,
      "rad": 2497,
      "cell": 2498,
      "towns": 2499,
      "writes": 2500,
      "grandma": 2501,
      "construction": 2502,
      "activities": 2503,
      "citiz": 2504,
      "dou": 2505,
      "fing": 2506,
      "horrible": 2507,
      "click": 2508,
      "government": 2509,
      "passa": 2510,
      "bathroom": 2511,
      "sick": 2512,
      "supposed": 2513,
      "greg": 2514,
      "confidence": 2515,
      "religion": 2516,
      "fat": 2517,
      "prote": 2518,
      "hanging": 2519,
      "specific": 2520,
      "unsafe": 2521,
      "named": 2522,
      "gonna": 2523,
      "ying": 2524,
      "mee": 2525,
      "ential": 2526,
      "whenever": 2527,
      "spire": 2528,
      "shelfs": 2529,
      "supply": 2530,
      "busy": 2531,
      "passionate": 2532,
      "doub": 2533,
      "peace": 2534,
      "icial": 2535,
      "stuck": 2536,
      "adapt": 2537,
      "transm": 2538,
      "stupid": 2539,
      "hom": 2540,
      "si": 2541,
      "theres": 2542,
      "sity": 2543,
      "woke": 2544,
      "standing": 2545,
      "basically": 2546,
      "apropriate": 2547,
      "blow": 2548,
      "uel": 2549,
      "win": 2550,
      "chose": 2551,
      "worried": 2552,
      "deep": 2553,
      "izing": 2554,
      "aged": 2555,
      "normal": 2556,
      "strengthened": 2557,
      "ctive": 2558,
      "built": 2559,
      "focus": 2560,
      "instance": 2561,
      "slowly": 2562,
      "vacation": 2563,
      "gregation": 2564,
      "rich": 2565,
      "thousands": 2566,
      "traveling": 2567,
      "asking": 2568,
      "height": 2569,
      "anybody": 2570,
      "result": 2571,
      "truly": 2572,
      "passage": 2573,
      "eds": 2574,
      "causing": 2575,
      "vey": 2576,
      "obes": 2577,
      "stra": 2578,
      "popular": 2579,
      "equ": 2580,
      "hate": 2581,
      "worst": 2582,
      "cars": 2583,
      "teaches": 2584,
      "modern": 2585,
      "ba": 2586,
      "bat": 2587,
      "lad": 2588,
      "sn": 2589,
      "sed": 2590,
      "tu": 2591,
      "task": 2592,
      "causes": 2593,
      "tethered": 2594,
      "tran": 2595,
      "clothes": 2596,
      "experts": 2597,
      "tradition": 2598,
      "tough": 2599,
      "relatives": 2600,
      "plane": 2601,
      "respons": 2602,
      "improve": 2603,
      "parts": 2604,
      "obstic": 2605,
      "situations": 2606,
      "emotion": 2607,
      "path": 2608,
      "que": 2609,
      "ze": 2610,
      "inn": 2611,
      "force": 2612,
      "unless": 2613,
      "peri": 2614,
      "truth": 2615,
      "sof": 2616,
      "ened": 2617,
      "ution": 2618,
      "opport": 2619,
      "pleas": 2620,
      "dark": 2621,
      "garden": 2622,
      "tim": 2623,
      "caps16": 2624,
      "conditions": 2625,
      "grandmother": 2626,
      "television": 2627,
      "cop": 2628,
      "loud": 2629,
      "oid": 2630,
      "sets": 2631,
      "appoint": 2632,
      "died": 2633,
      "provid": 2634,
      "box": 2635,
      "diff": 2636,
      "opened": 2637,
      "cousins": 2638,
      "sweat": 2639,
      "gum": 2640,
      "thr": 2641,
      "irt": 2642,
      "iest": 2643,
      "narr": 2644,
      "cheer": 2645,
      "resour": 2646,
      "uni": 2647,
      "exers": 2648,
      "seconds": 2649,
      "transmitted": 2650,
      "chair": 2651,
      "shel": 2652,
      "offer": 2653,
      "lake": 2654,
      "reached": 2655,
      "harsh": 2656,
      "period": 2657,
      "band": 2658,
      "ders": 2659,
      "nat": 2660,
      "white": 2661,
      "engine": 2662,
      "described": 2663,
      "experiences": 2664,
      "questions": 2665,
      "practice": 2666,
      "advances": 2667,
      "valu": 2668,
      "conversation": 2669,
      "\"...": 2670,
      "base": 2671,
      "cking": 2672,
      "clim": 2673,
      "son": 2674,
      "replied": 2675,
      "stri": 2676,
      "igno": 2677,
      "excers": 2678,
      "failing": 2679,
      "recently": 2680,
      "bright": 2681,
      "yle": 2682,
      "�,": 2683,
      "...\"": 2684,
      "craf": 2685,
      "racism": 2686,
      "obesity": 2687,
      "cat": 2688,
      "rate": 2689,
      "ural": 2690,
      "embar": 2691,
      "actions": 2692,
      "related": 2693,
      "company": 2694,
      "meeting": 2695,
      "threw": 2696,
      "oul": 2697,
      "ors": 2698,
      "comed": 2699,
      "umped": 2700,
      "examples": 2701,
      "drivers": 2702,
      "avoid": 2703,
      "harmful": 2704,
      "soli": 2705,
      "tered": 2706,
      "plans": 2707,
      "produ": 2708,
      "conclude": 2709,
      "corre": 2710,
      "element": 2711,
      "doubt": 2712,
      "ient": 2713,
      "arely": 2714,
      "log": 2715,
      "audi": 2716,
      "ourselves": 2717,
      "anger": 2718,
      "jud": 2719,
      "interested": 2720,
      "straight": 2721,
      "cir": 2722,
      "dehydration": 2723,
      "stick": 2724,
      "icul": 2725,
      "cording": 2726,
      "groups": 2727,
      "193": 2728,
      "aunt": 2729,
      "tears": 2730,
      "gigg": 2731,
      "stood": 2732,
      "formed": 2733,
      "surpr": 2734,
      "avail": 2735,
      "gn": 2736,
      "ming": 2737,
      "sen": 2738,
      "offends": 2739,
      "process": 2740,
      "iling": 2741,
      "beneficial": 2742,
      "?�": 2743,
      "fli": 2744,
      "gle": 2745,
      "lines": 2746,
      "window": 2747,
      "burst": 2748,
      "swim": 2749,
      "........": 2750,
      "celebrations": 2751,
      "programs": 2752,
      "aid": 2753,
      "gor": 2754,
      "mix": 2755,
      "wise": 2756,
      "obese": 2757,
      "wouldnt": 2758,
      "including": 2759,
      "transport": 2760,
      "replaced": 2761,
      "goal": 2762,
      "laughs": 2763,
      "joe": 2764,
      "multi": 2765,
      "oh": 2766,
      "comfor": 2767,
      "rights": 2768,
      "draw": 2769,
      "broke": 2770,
      "missed": 2771,
      "reminds": 2772,
      "animals": 2773,
      "millions": 2774,
      "goo": 2775,
      "ising": 2776,
      "ado": 2777,
      "advent": 2778,
      "hearing": 2779,
      "apartment": 2780,
      "fif": 2781,
      "fau": 2782,
      "hide": 2783,
      "twent": 2784,
      "becomes": 2785,
      "according": 2786,
      "dered": 2787,
      "strange": 2788,
      "chatting": 2789,
      "pump": 2790,
      "rating": 2791,
      "enced": 2792,
      "absolut": 2793,
      "checked": 2794,
      "grandparents": 2795,
      "fighting": 2796,
      "organization3": 2797,
      "ah": 2798,
      "pun": 2799,
      "wan": 2800,
      "station": 2801,
      "seven": 2802,
      "ched": 2803,
      "notice": 2804,
      "wanting": 2805,
      "enjoyed": 2806,
      "minute": 2807,
      "selflessly": 2808,
      "citizens": 2809,
      "argum": 2810,
      "fear": 2811,
      "phones": 2812,
      "shouldnt": 2813,
      "memory": 2814,
      "nerv": 2815,
      "advanta": 2816,
      "national": 2817,
      "particular": 2818,
      "correct": 2819,
      "cure": 2820,
      "hes": 2821,
      "lish": 2822,
      "sl": 2823,
      "moor": 2824,
      "roll": 2825,
      "losing": 2826,
      "death": 2827,
      "istic": 2828,
      "webcam": 2829,
      "classes": 2830,
      "complaining": 2831,
      "page": 2832,
      "vol": 2833,
      "extra": 2834,
      "tem": 2835,
      "offense": 2836,
      "confident": 2837,
      "physical": 2838,
      "necessary": 2839,
      "twenty": 2840,
      "aver": 2841,
      "rass": 2842,
      "cap": 2843,
      "math": 2844,
      "detail": 2845,
      "earth": 2846,
      "hid": 2847,
      "yel": 2848,
      "vered": 2849,
      "ident": 2850,
      "ized": 2851,
      "doesnt": 2852,
      "sounds": 2853,
      "radio": 2854,
      "bunch": 2855,
      "trees": 2856,
      "ination": 2857,
      "map": 2858,
      "ceed": 2859,
      "papers": 2860,
      "melts": 2861,
      "itive": 2862,
      "giz": 2863,
      "site": 2864,
      "rooms": 2865,
      "crash": 2866,
      "current": 2867,
      "fortun": 2868,
      "traditional": 2869,
      "bag": 2870,
      "daugh": 2871,
      "ks": 2872,
      "mot": 2873,
      "docked": 2874,
      "leaves": 2875,
      "stronger": 2876,
      "daughter": 2877,
      "jump": 2878,
      "weigh": 2879,
      "ays": 2880,
      "forgot": 2881,
      "willing": 2882,
      "sky": 2883,
      "boys": 2884,
      "solve": 2885,
      "regular": 2886,
      "available": 2887,
      "sla": 2888,
      "wall": 2889,
      "tied": 2890,
      "loss": 2891,
      "prep": 2892,
      "toward": 2893,
      "serve": 2894,
      "doctors": 2895,
      "accommo": 2896,
      "despite": 2897,
      "ms": 2898,
      "mass": 2899,
      "sist": 2900,
      "aspe": 2901,
      "shut": 2902,
      "uncle": 2903,
      "factor": 2904,
      "calling": 2905,
      "fishing": 2906,
      "bility": 2907,
      "cence": 2908,
      "rust": 2909,
      "vul": 2910,
      "orig": 2911,
      "rides": 2912,
      "role": 2913,
      "unhealthy": 2914,
      "gra": 2915,
      "tallest": 2916,
      "track": 2917,
      "moments": 2918,
      "sugg": 2919,
      "humans": 2920,
      "cases": 2921,
      "google": 2922,
      "origin": 2923,
      "gun": 2924,
      "thus": 2925,
      "acking": 2926,
      "kets": 2927,
      "persons": 2928,
      "itely": 2929,
      "lesson": 2930,
      "fiction": 2931,
      "influence": 2932,
      "obviously": 2933,
      "bird": 2934,
      "duc": 2935,
      "wit": 2936,
      "inary": 2937,
      "reads": 2938,
      "childrens": 2939,
      "driver": 2940,
      "basket": 2941,
      "distr": 2942,
      "involved": 2943,
      "nervous": 2944,
      "yelled": 2945,
      "dress": 2946,
      "fong": 2947,
      "ially": 2948,
      "itor": 2949,
      "adjust": 2950,
      "anyway": 2951,
      "faces": 2952,
      "carry": 2953,
      "teaching": 2954,
      "proper": 2955,
      "green": 2956,
      "kward": 2957,
      "pping": 2958,
      "settings": 2959,
      "smart": 2960,
      "advance": 2961,
      "awkward": 2962,
      "expand": 2963,
      "truck": 2964,
      "ridicul": 2965,
      "glad": 2966,
      "variety": 2967,
      "diffrent": 2968,
      "accommodate": 2969,
      "dance": 2970,
      "ered": 2971,
      "gs": 2972,
      "ica": 2973,
      "tv": 2974,
      "tly": 2975,
      "tend": 2976,
      "tumble": 2977,
      "heav": 2978,
      "ruin": 2979,
      "explic": 2980,
      "connection": 2981,
      "accompl": 2982,
      "culinary": 2983,
      "benifit": 2984,
      "lady": 2985,
      "stat": 2986,
      "grac": 2987,
      "famous": 2988,
      "similar": 2989,
      "super": 2990,
      "missing": 2991,
      "transportation": 2992,
      "average": 2993,
      "ely": 2994,
      "lying": 2995,
      "hadn": 2996,
      "friendly": 2997,
      "football": 2998,
      "streets": 2999,
      "mentioned": 3000,
      "embarrass": 3001,
      "-@": 3002,
      "asleep": 3003,
      "lib": 3004,
      "grown": 3005,
      "graphic": 3006,
      "drove": 3007,
      "generation": 3008,
      "concerned": 3009,
      "explicit": 3010,
      "ron": 3011,
      "forward": 3012,
      "opp": 3013,
      "tery": 3014,
      "buis": 3015,
      "librarian": 3016,
      "minfong": 3017,
      "tree": 3018,
      "thir": 3019,
      "ches": 3020,
      "congregation": 3021,
      "astic": 3022,
      "patiently": 3023,
      "shape": 3024,
      "subjects": 3025,
      "drinking": 3026,
      "shoes": 3027,
      "continued": 3028,
      "laptop": 3029,
      "bla": 3030,
      "sele": 3031,
      "weeds": 3032,
      "foreign": 3033,
      "creating": 3034,
      "warmth": 3035,
      "heatstroke": 3036,
      "boyfriend": 3037,
      "besides": 3038,
      "scary": 3039,
      "sorry": 3040,
      "solidar": 3041,
      "',": 3042,
      "eight": 3043,
      "ged": 3044,
      "kn": 3045,
      "osity": 3046,
      "ane": 3047,
      "bra": 3048,
      "poor": 3049,
      "points": 3050,
      "agre": 3051,
      "clock": 3052,
      "bigger": 3053,
      "studies": 3054,
      "ports": 3055,
      "admir": 3056,
      "innocence": 3057,
      "solidarity": 3058,
      "terrible": 3059,
      "definitely": 3060,
      "narrator": 3061,
      "sisters": 3062,
      "bother": 3063,
      "bond": 3064,
      "etern": 3065,
      "ering": 3066,
      "????": 3067,
      "card": 3068,
      "passing": 3069,
      "explained": 3070,
      "direction": 3071,
      "confli": 3072,
      "physically": 3073,
      "science": 3074,
      "fault": 3075,
      "kno": 3076,
      "tes": 3077,
      "youth": 3078,
      "mell": 3079,
      "stomach": 3080,
      "empty": 3081,
      "turns": 3082,
      "limited": 3083,
      "mainly": 3084,
      "flamable": 3085,
      "suddenly": 3086,
      "honestly": 3087,
      "women": 3088,
      "symboliz": 3089,
      "opportunity": 3090,
      "anno": 3091,
      "arom": 3092,
      "boat": 3093,
      "skill": 3094,
      "brothers": 3095,
      "careers": 3096,
      "ballo": 3097,
      "imagin": 3098,
      "articles": 3099,
      "summer": 3100,
      "hungry": 3101,
      "battery": 3102,
      "soft": 3103,
      "ignore": 3104,
      "cha": 3105,
      "jumped": 3106,
      "rand": 3107,
      "atta": 3108,
      "forced": 3109,
      "ties": 3110,
      "frust": 3111,
      "qual": 3112,
      "disappoint": 3113,
      "activity": 3114,
      "expect": 3115,
      "fi": 3116,
      "arily": 3117,
      "train": 3118,
      "coach": 3119,
      "vior": 3120,
      "eachother": 3121,
      "gratefulness": 3122,
      "neighbors": 3123,
      "majority": 3124,
      "reminded": 3125,
      "killed": 3126,
      "moun": 3127,
      "rom": 3128,
      "ased": 3129,
      "aling": 3130,
      "caps17": 3131,
      "caps18": 3132,
      "yelling": 3133,
      "covered": 3134,
      "higher": 3135,
      "checking": 3136,
      "dropped": 3137,
      "attitude": 3138,
      "shopping": 3139,
      "balance": 3140,
      "buisness": 3141,
      "ls": 3142,
      "sand": 3143,
      "rely": 3144,
      "bele": 3145,
      "enty": 3146,
      "aware": 3147,
      "buying": 3148,
      "refle": 3149,
      "bri": 3150,
      "acid": 3151,
      "auther": 3152,
      "plays": 3153,
      "member": 3154,
      "crack": 3155,
      "solution": 3156,
      "homes": 3157,
      "basketball": 3158,
      "libary": 3159,
      "barely": 3160,
      "nic": 3161,
      "encoun": 3162,
      "rode": 3163,
      "plenty": 3164,
      "difference": 3165,
      "instilled": 3166,
      "headed": 3167,
      "fields": 3168,
      "natural": 3169,
      "admiration": 3170,
      "bill": 3171,
      "ker": 3172,
      "impress": 3173,
      "backdrop": 3174,
      "mental": 3175,
      "intro": 3176,
      "gym": 3177,
      "general": 3178,
      "surroundings": 3179,
      "cles": 3180,
      "tons": 3181,
      "thri": 3182,
      "aloud": 3183,
      "umps": 3184,
      "ement": 3185,
      "listened": 3186,
      "sacrific": 3187,
      "challenges": 3188,
      "damage": 3189,
      "craft": 3190,
      "vow": 3191,
      "conv": 3192,
      "dead": 3193,
      "proved": 3194,
      "turning": 3195,
      "broken": 3196,
      "begins": 3197,
      "grandpa": 3198,
      "destination": 3199,
      "emotions": 3200,
      "bottles": 3201,
      "multiple": 3202,
      "lab": 3203,
      "nine": 3204,
      "wood": 3205,
      "threat": 3206,
      "retake": 3207,
      "erous": 3208,
      "puts": 3209,
      "unk": 3210,
      "aur": 3211,
      "saf": 3212,
      "num6": 3213,
      "ieve": 3214,
      "medi": 3215,
      "mistakes": 3216,
      "killing": 3217,
      "absolutely": 3218,
      "temper": 3219,
      "discus": 3220,
      "pred": 3221,
      "ror": 3222,
      "rece": 3223,
      "remain": 3224,
      "enge": 3225,
      "wear": 3226,
      "account": 3227,
      "impatient": 3228,
      "suppose": 3229,
      "hotel": 3230,
      "calls": 3231,
      "breath": 3232,
      "contained": 3233,
      "teenager": 3234,
      "depends": 3235,
      "believes": 3236,
      "woman": 3237,
      "following": 3238,
      "couch": 3239,
      "atly": 3240,
      "beach": 3241,
      "sell": 3242,
      "argue": 3243,
      "haz": 3244,
      "rock": 3245,
      "def": 3246,
      "proves": 3247,
      "yell": 3248,
      "hundreds": 3249,
      "swing": 3250,
      "hall": 3251,
      "enc": 3252,
      "note": 3253,
      "condition": 3254,
      "extended": 3255,
      "hurting": 3256,
      "explaining": 3257,
      "invent": 3258,
      "color": 3259,
      "depend": 3260,
      "''": 3261,
      "bills": 3262,
      "pages": 3263,
      "tit": 3264,
      "info": 3265,
      "ribut": 3266,
      "claim": 3267,
      "perate": 3268,
      "funn": 3269,
      "civi": 3270,
      "relate": 3271,
      "smiled": 3272,
      "included": 3273,
      "followed": 3274,
      "furthermore": 3275,
      "tube": 3276,
      "baseball": 3277,
      "judge": 3278,
      "dies": 3279,
      "ior": 3280,
      "mir": 3281,
      "represents": 3282,
      "tot": 3283,
      "toler": 3284,
      "itter": 3285,
      "print": 3286,
      "limits": 3287,
      "crow": 3288,
      "writer": 3289,
      "cordination": 3290,
      "satis": 3291,
      "advanced": 3292,
      "challenge": 3293,
      "prevented": 3294,
      "spirit": 3295,
      "screaming": 3296,
      "birds": 3297,
      "eternally": 3298,
      "dic": 3299,
      "eth": 3300,
      "gree": 3301,
      "sle": 3302,
      "aste": 3303,
      "unfortun": 3304,
      "spo": 3305,
      "dram": 3306,
      "legs": 3307,
      "population": 3308,
      "rude": 3309,
      "poses": 3310,
      "connected": 3311,
      "messaging": 3312,
      "mistake": 3313,
      "normally": 3314,
      "gracious": 3315,
      "pac": 3316,
      "pet": 3317,
      "anyways": 3318,
      "searching": 3319,
      "includes": 3320,
      "struggle": 3321,
      "rusty": 3322,
      "vulgar": 3323,
      "suggest": 3324,
      "random": 3325,
      "bil": 3326,
      "dan": 3327,
      "mouse": 3328,
      "pool": 3329,
      "represent": 3330,
      "lier": 3331,
      "vert": 3332,
      "shirt": 3333,
      "someones": 3334,
      "caps21": 3335,
      "describe": 3336,
      "explore": 3337,
      "twitter": 3338,
      "lucky": 3339,
      "protect": 3340,
      "bait": 3341,
      "wanna": 3342,
      "lled": 3343,
      "os": 3344,
      "smell": 3345,
      "encom": 3346,
      "exist": 3347,
      "saved": 3348,
      "app": 3349,
      "enjoyable": 3350,
      "holding": 3351,
      "courageous": 3352,
      "somthing": 3353,
      "increase": 3354,
      "glo": 3355,
      "becu": 3356,
      "ark": 3357,
      "weird": 3358,
      "sold": 3359,
      "shar": 3360,
      "bump": 3361,
      "deb": 3362,
      "aff": 3363,
      "expression": 3364,
      "fil": 3365,
      "lli": 3366,
      "shed": 3367,
      "aming": 3368,
      "sometime": 3369,
      "numerous": 3370,
      "staring": 3371,
      "hosp": 3372,
      "generosity": 3373,
      "location4": 3374,
      "pieces": 3375,
      "decisions": 3376,
      "gent": 3377,
      "loose": 3378,
      "river": 3379,
      "acts": 3380,
      "umb": 3381,
      "librarys": 3382,
      "thanked": 3383,
      "acted": 3384,
      "wake": 3385,
      "importantly": 3386,
      "realizes": 3387,
      "choices": 3388,
      "expensive": 3389,
      "messages": 3390,
      "include": 3391,
      "acceptable": 3392,
      "america": 3393,
      "boo": 3394,
      "dess": 3395,
      "hilar": 3396,
      "tar": 3397,
      "alright": 3398,
      "offe": 3399,
      "tower": 3400,
      "todays": 3401,
      "medic": 3402,
      "block": 3403,
      "countless": 3404,
      "respon": 3405,
      "electron": 3406,
      "audience": 3407,
      "--": 3408,
      "cial": 3409,
      "rout": 3410,
      "iny": 3411,
      "rem": 3412,
      "span": 3413,
      "smiling": 3414,
      "discover": 3415,
      "gged": 3416,
      "generations": 3417,
      "americ": 3418,
      "obsticles": 3419,
      "argument": 3420,
      "aromas": 3421,
      "temperature": 3422,
      "totally": 3423,
      "rele": 3424,
      "ali": 3425,
      "offending": 3426,
      "differ": 3427,
      "appropiate": 3428,
      "shortest": 3429,
      "hole": 3430,
      "packed": 3431,
      "heavy": 3432,
      "blame": 3433,
      "becuase": 3434,
      "hous": 3435,
      "theme": 3436,
      "usual": 3437,
      "los": 3438,
      "exha": 3439,
      "rences": 3440,
      "desk": 3441,
      "deserted": 3442,
      "hurst": 3443,
      "earlier": 3444,
      "purch": 3445,
      "eleven": 3446,
      "crossed": 3447,
      "grape": 3448,
      "dut": 3449,
      "ians": 3450,
      "lyric": 3451,
      "magiz": 3452,
      "fulfill": 3453,
      "coll": 3454,
      "hardships": 3455,
      "networking": 3456,
      "survi": 3457,
      "planned": 3458,
      "compu": 3459,
      "falling": 3460,
      "snakes": 3461,
      "curi": 3462,
      "responsi": 3463,
      "lakehurst": 3464,
      "cand": 3465,
      "mall": 3466,
      "pound": 3467,
      "ys": 3468,
      "stating": 3469,
      "wich": 3470,
      "ares": 3471,
      "unders": 3472,
      "fraid": 3473,
      "demon": 3474,
      "apparent": 3475,
      "lessons": 3476,
      "effected": 3477,
      "matters": 3478,
      "weighted": 3479,
      "encompassed": 3480,
      "desser": 3481,
      "pan": 3482,
      "beha": 3483,
      "beating": 3484,
      "argu": 3485,
      "immedi": 3486,
      "ease": 3487,
      "curse": 3488,
      "hopefully": 3489,
      "corner": 3490,
      "docum": 3491,
      "breaking": 3492,
      "compan": 3493,
      "portr": 3494,
      "quicker": 3495,
      "silly": 3496,
      "hitting": 3497,
      "sweet": 3498,
      "attempted": 3499,
      "valuable": 3500,
      "hilarious": 3501,
      "fle": 3502,
      "tour": 3503,
      "tast": 3504,
      "yard": 3505,
      "aly": 3506,
      "weak": 3507,
      "wild": 3508,
      "unic": 3509,
      "button": 3510,
      "effort": 3511,
      "blind": 3512,
      "survey": 3513,
      "skin": 3514,
      "obvious": 3515,
      "profan": 3516,
      "adventure": 3517,
      "accomplish": 3518,
      "knit": 3519,
      "bound": 3520,
      "gress": 3521,
      "zed": 3522,
      "whom": 3523,
      "gious": 3524,
      "eved": 3525,
      "prohib": 3526,
      "angers": 3527,
      "disaster": 3528,
      "succeed": 3529,
      "addicting": 3530,
      "severance": 3531,
      "raised": 3532,
      "motiv": 3533,
      "),": 3534,
      "afraid": 3535,
      "atop": 3536,
      "ern": 3537,
      "ery": 3538,
      "cared": 3539,
      "forth": 3540,
      "usage": 3541,
      "caps19": 3542,
      "observ": 3543,
      "hardly": 3544,
      "closed": 3545,
      "kinda": 3546,
      "writers": 3547,
      "trave": 3548,
      "invention": 3549,
      "images": 3550,
      "circ": 3551,
      "exhaust": 3552,
      "lyrics": 3553,
      "twi": 3554,
      "taste": 3555,
      "era": 3556,
      "alive": 3557,
      "omy": 3558,
      "everytime": 3559,
      "artist": 3560,
      "overweight": 3561,
      "effe": 3562,
      "discri": 3563,
      "picking": 3564,
      "adding": 3565,
      "potential": 3566,
      "continues": 3567,
      "depressed": 3568,
      "1937": 3569,
      "conflict": 3570,
      "pumps": 3571,
      "ram": 3572,
      "sides": 3573,
      "itage": 3574,
      "shes": 3575,
      "lock": 3576,
      "cycling": 3577,
      "perseverance": 3578,
      "communicating": 3579,
      "leads": 3580,
      "consum": 3581,
      "modify": 3582,
      "solved": 3583,
      "controvers": 3584,
      "relaxed": 3585,
      "fixed": 3586,
      "lifest": 3587,
      "scient": 3588,
      "comforting": 3589,
      "sharp": 3590,
      "demonstr": 3591,
      "dir": 3592,
      "wat": 3593,
      "nowhere": 3594,
      "importance": 3595,
      "suff": 3596,
      "freind": 3597,
      "percent3": 3598,
      "various": 3599,
      "scene": 3600,
      "slavery": 3601,
      "econ": 3602,
      "fant": 3603,
      "reci": 3604,
      "separ": 3605,
      "arter": 3606,
      "comunic": 3607,
      "offened": 3608,
      "person5": 3609,
      "background": 3610,
      "certainly": 3611,
      "interests": 3612,
      "direct": 3613,
      "wondering": 3614,
      "grabbed": 3615,
      "bullying": 3616,
      "repeated": 3617,
      "mixing": 3618,
      "spanish": 3619,
      "nap": 3620,
      "stable": 3621,
      "haps": 3622,
      "mag": 3623,
      "heritage": 3624,
      "izz": 3625,
      "quit": 3626,
      "cruel": 3627,
      "position": 3628,
      "dangers": 3629,
      "careful": 3630,
      "distur": 3631,
      "paid": 3632,
      "sources": 3633,
      "customs": 3634,
      "fingers": 3635,
      "resource": 3636,
      "advantage": 3637,
      "names": 3638,
      "ann": 3639,
      "moves": 3640,
      "contribut": 3641,
      "instantly": 3642,
      "realization": 3643,
      "planning": 3644,
      "researching": 3645,
      "device": 3646,
      "novels": 3647,
      "unique": 3648,
      "engineers": 3649,
      "duced": 3650,
      "bow": 3651,
      "gif": 3652,
      "ile": 3653,
      "esome": 3654,
      "style": 3655,
      "opt": 3656,
      "outdoors": 3657,
      "shout": 3658,
      "entially": 3659,
      "apo": 3660,
      "stor": 3661,
      "cyber": 3662,
      "trail": 3663,
      "brea": 3664,
      "virt": 3665,
      "designed": 3666,
      "tickets": 3667,
      "details": 3668,
      "tumbleweeds": 3669,
      ",@": 3670,
      "fu": 3671,
      "lished": 3672,
      "sway": 3673,
      "ups": 3674,
      "tho": 3675,
      "rec": 3676,
      "editor": 3677,
      "forgotten": 3678,
      "among": 3679,
      "bles": 3680,
      "upd": 3681,
      "persu": 3682,
      "mentally": 3683,
      "airship": 3684,
      "safely": 3685,
      "elsewhere": 3686,
      "girlfriend": 3687,
      "couldnt": 3688,
      "runs": 3689,
      "gging": 3690,
      "warming": 3691,
      "misses": 3692,
      "morrow": 3693,
      "addiction": 3694,
      "seriously": 3695,
      "service": 3696,
      "bottle": 3697,
      "required": 3698,
      "peaceful": 3699,
      "prepared": 3700,
      "houses": 3701,
      "mur": 3702,
      "inapropriate": 3703,
      "reports": 3704,
      "comments": 3705,
      "advert": 3706,
      "wered": 3707,
      "ured": 3708,
      "spread": 3709,
      "proven": 3710,
      "happier": 3711,
      "previ": 3712,
      "pho": 3713,
      "wasnt": 3714,
      "bringing": 3715,
      "describing": 3716,
      "controll": 3717,
      "constructing": 3718,
      "consideration": 3719,
      "innapropriate": 3720,
      "beleive": 3721,
      "hospital": 3722,
      "profanity": 3723,
      "hol": 3724,
      "mic": 3725,
      "range": 3726,
      "size": 3727,
      "ule": 3728,
      "anch": 3729,
      "sequ": 3730,
      "hell": 3731,
      "opposit": 3732,
      "mode": 3733,
      "uncensored": 3734,
      "degre": 3735,
      "arent": 3736,
      "ires": 3737,
      "perhaps": 3738,
      "player": 3739,
      "differently": 3740,
      "answered": 3741,
      "hoping": 3742,
      "corr": 3743,
      "racist": 3744,
      "powerful": 3745,
      "rushing": 3746,
      "medicine": 3747,
      "immediately": 3748,
      "degrees": 3749,
      "hook": 3750,
      "ith": 3751,
      "lat": 3752,
      "pants": 3753,
      "tex": 3754,
      "recor": 3755,
      "belong": 3756,
      "youtube": 3757,
      "tian": 3758,
      "deem": 3759,
      "grass": 3760,
      "illy": 3761,
      "tood": 3762,
      "mentions": 3763,
      "join": 3764,
      "soccer": 3765,
      "series": 3766,
      "burn": 3767,
      "sadness": 3768,
      "image": 3769,
      "contains": 3770,
      "frustrated": 3771,
      "encountered": 3772,
      "civiliz": 3773,
      "understood": 3774,
      "abhor": 3775,
      "somethings": 3776,
      "cyclists": 3777,
      "effic": 3778,
      "ager": 3779,
      "letters": 3780,
      "nav": 3781,
      "basis": 3782,
      "basic": 3783,
      "paying": 3784,
      "symbol": 3785,
      "agreed": 3786,
      "funniest": 3787,
      "photo": 3788,
      "fal": 3789,
      "hat": 3790,
      "tant": 3791,
      "inspir": 3792,
      "tomorrow": 3793,
      "ory": 3794,
      "beac": 3795,
      "wasting": 3796,
      "otes": 3797,
      "ford": 3798,
      "convey": 3799,
      "poe": 3800,
      "rease": 3801,
      "date3": 3802,
      "adds": 3803,
      "bling": 3804,
      "cream": 3805,
      "results": 3806,
      "purposes": 3807,
      "keys": 3808,
      "constructed": 3809,
      "welcome": 3810,
      "plies": 3811,
      "warning": 3812,
      "taller": 3813,
      "treated": 3814,
      "provides": 3815,
      "................": 3816,
      "aspect": 3817,
      "duties": 3818,
      "lifestyle": 3819,
      "opposite": 3820,
      "cup": 3821,
      "gro": 3822,
      "pup": 3823,
      "sending": 3824,
      "incre": 3825,
      "reco": 3826,
      "encourage": 3827,
      "cake": 3828,
      "lie": 3829,
      "unfair": 3830,
      "rys": 3831,
      "caps20": 3832,
      "yeah": 3833,
      "igning": 3834,
      "drank": 3835,
      "smoo": 3836,
      "angeles": 3837,
      "porch": 3838,
      "welcoming": 3839,
      "sips": 3840,
      "quality": 3841,
      "flight": 3842,
      "sc": 3843,
      "spl": 3844,
      "slight": 3845,
      "ises": 3846,
      "bel": 3847,
      "oosing": 3848,
      "option": 3849,
      "ably": 3850,
      "users": 3851,
      "uncomfortable": 3852,
      "progress": 3853,
      "childern": 3854,
      "aircraft": 3855,
      "hopeless": 3856,
      "exciting": 3857,
      "subst": 3858,
      "beauty": 3859,
      "depending": 3860,
      "surrounding": 3861,
      "pulling": 3862,
      "assignment": 3863,
      "original": 3864,
      "cd": 3865,
      "dating": 3866,
      "mud": 3867,
      "scent": 3868,
      "van": 3869,
      "tori": 3870,
      "alco": 3871,
      "essays": 3872,
      "stared": 3873,
      "wash": 3874,
      "comb": 3875,
      "deer": 3876,
      "gibles": 3877,
      "actual": 3878,
      "lower": 3879,
      "crit": 3880,
      "publish": 3881,
      "constant": 3882,
      "experienced": 3883,
      "expresses": 3884,
      "destined": 3885,
      "blocked": 3886,
      "interaction": 3887,
      "pushed": 3888,
      "scenes": 3889,
      "customers": 3890,
      "resources": 3891,
      "attached": 3892,
      "cast": 3893,
      "fan": 3894,
      "fro": 3895,
      "pair": 3896,
      "sorts": 3897,
      "witch": 3898,
      "bered": 3899,
      "stain": 3900,
      "chr": 3901,
      "bum": 3902,
      "brown": 3903,
      "drag": 3904,
      "disappe": 3905,
      "restaur": 3906,
      "heads": 3907,
      "distant": 3908,
      "hunting": 3909,
      "cute": 3910,
      "perfectly": 3911,
      "appreciation": 3912,
      "believed": 3913,
      "annoying": 3914,
      "hazard": 3915,
      "companies": 3916,
      "flew": 3917,
      "repeatedly": 3918,
      "incredi": 3919,
      "fied": 3920,
      "rang": 3921,
      "squ": 3922,
      "scr": 3923,
      "esca": 3924,
      "cares": 3925,
      "hab": 3926,
      "chrys": 3927,
      "libar": 3928,
      "lights": 3929,
      "wether": 3930,
      "ension": 3931,
      "friendships": 3932,
      "essential": 3933,
      "cycle": 3934,
      "agrees": 3935,
      "forms": 3936,
      "constit": 3937,
      "???.": 3938,
      "awesome": 3939,
      "decides": 3940,
      "walks": 3941,
      "expressed": 3942,
      "races": 3943,
      "struggled": 3944,
      "witting": 3945,
      "smooth": 3946,
      "chrysler": 3947,
      "lone": 3948,
      "mas": 3949,
      "inspire": 3950,
      "bey": 3951,
      "unable": 3952,
      "affecting": 3953,
      "smarter": 3954,
      "hopes": 3955,
      "pedal": 3956,
      "cried": 3957,
      "classroom": 3958,
      "viewed": 3959,
      "mission": 3960,
      "paint": 3961,
      "lifes": 3962,
      "necessarily": 3963,
      "obsticle": 3964,
      "swimming": 3965,
      "roller": 3966,
      "ridiculously": 3967,
      "unfortunately": 3968,
      "effective": 3969,
      "25": 3970,
      "dent": 3971,
      "nast": 3972,
      "pal": 3973,
      "atleast": 3974,
      "total": 3975,
      "ories": 3976,
      "adays": 3977,
      "sharing": 3978,
      "amed": 3979,
      "unities": 3980,
      "unwitting": 3981,
      "perspe": 3982,
      "happend": 3983,
      ".\"@": 3984,
      "organized": 3985,
      "strangers": 3986,
      "guar": 3987,
      "rules": 3988,
      "steps": 3989,
      "breakfast": 3990,
      "studying": 3991,
      "adapting": 3992,
      "finger": 3993,
      "timers": 3994,
      "mountain": 3995,
      "predic": 3996,
      "250": 3997,
      "bree": 3998,
      "fash": 3999,
      "ners": 4000,
      "sence": 4001,
      "ison": 4002,
      "iron": 4003,
      "shy": 4004,
      "pole": 4005,
      "boss": 4006,
      "shower": 4007,
      "intended": 4008,
      "faith": 4009,
      "passes": 4010,
      "planting": 4011,
      "planes": 4012,
      "biker": 4013,
      "educate": 4014,
      "signific": 4015,
      "keyboard": 4016,
      "refuel": 4017,
      "sleeping": 4018,
      "responsible": 4019,
      "adore": 4020,
      "beacuse": 4021,
      "poeple": 4022,
      "eigh": 4023,
      "mly": 4024,
      "zing": 4025,
      "reve": 4026,
      "ching": 4027,
      "chances": 4028,
      "rider": 4029,
      "cep": 4030,
      "builder": 4031,
      "ired": 4032,
      "sett": 4033,
      "finan": 4034,
      "matur": 4035,
      "remembered": 4036,
      "isnt": 4037,
      "confused": 4038,
      "entertaining": 4039,
      "welcomed": 4040,
      "price": 4041,
      "bottom": 4042,
      "figured": 4043,
      "provided": 4044,
      "regularly": 4045,
      "candy": 4046,
      "twice": 4047,
      "unwittingly": 4048,
      "apers": 4049,
      "pu": 4050,
      "pizz": 4051,
      "tops": 4052,
      "chuck": 4053,
      "lift": 4054,
      "unlike": 4055,
      "god": 4056,
      "bye": 4057,
      "polit": 4058,
      "afford": 4059,
      "prefer": 4060,
      "airport": 4061,
      "banning": 4062,
      "1930": 4063,
      "gorge": 4064,
      "ratings": 4065,
      "symbolizes": 4066,
      "responsibility": 4067,
      "portray": 4068,
      "recogn": 4069,
      "alcohol": 4070,
      "ites": 4071,
      "bell": 4072,
      "chur": 4073,
      "somehow": 4074,
      "consequ": 4075,
      "object": 4076,
      "factors": 4077,
      "download": 4078,
      "aging": 4079,
      "paragraphs": 4080,
      "hardest": 4081,
      "dislike": 4082,
      "technolog": 4083,
      "greater": 4084,
      "relief": 4085,
      "architect": 4086,
      "occas": 4087,
      "failure": 4088,
      "italian": 4089,
      "repeat": 4090,
      "individuals": 4091,
      "restrictions": 4092,
      "?'": 4093,
      "cket": 4094,
      "foul": 4095,
      "ras": 4096,
      "sco": 4097,
      "soul": 4098,
      "stre": 4099,
      "somewhat": 4100,
      "num7": 4101,
      "istics": 4102,
      "familys": 4103,
      "informed": 4104,
      "gratefull": 4105,
      "concluding": 4106,
      "managed": 4107,
      "viewing": 4108,
      "shortcut": 4109,
      "wheel": 4110,
      "priv": 4111,
      "ulties": 4112,
      "potentially": 4113,
      "screamed": 4114,
      "occurred": 4115,
      "thrown": 4116,
      "dessert": 4117,
      "pizza": 4118,
      "dumb": 4119,
      "match": 4120,
      "mates": 4121,
      "sens": 4122,
      "xes": 4123,
      "infront": 4124,
      "alt": 4125,
      "cher": 4126,
      "feast": 4127,
      "nec": 4128,
      "auto": 4129,
      "antic": 4130,
      "deple": 4131,
      "offens": 4132,
      "noon": 4133,
      "caps22": 4134,
      "izes": 4135,
      "childs": 4136,
      "facing": 4137,
      "address": 4138,
      "untill": 4139,
      "shack": 4140,
      "educated": 4141,
      "sunny": 4142,
      "moral": 4143,
      "finaly": 4144,
      "considering": 4145,
      "ators": 4146,
      "cultur": 4147,
      "camping": 4148,
      "appreciate": 4149,
      "tools": 4150,
      "shelve": 4151,
      "climate": 4152,
      "surprised": 4153,
      "oppin": 4154,
      "romance": 4155,
      "anchor": 4156,
      "civilization": 4157,
      "navy": 4158,
      ".@": 4159,
      "py": 4160,
      "xious": 4161,
      "lied": 4162,
      "ows": 4163,
      "locked": 4164,
      "shell": 4165,
      "pling": 4166,
      "deli": 4167,
      "designing": 4168,
      "sched": 4169,
      "hyster": 4170,
      "counter": 4171,
      "chocol": 4172,
      "teenage": 4173,
      "complic": 4174,
      "socialize": 4175,
      "difficulties": 4176,
      "silent": 4177,
      "signs": 4178,
      "selflessness": 4179,
      "expected": 4180,
      "influenced": 4181,
      "million": 4182,
      "laying": 4183,
      "glasses": 4184,
      "dreams": 4185,
      "disappointed": 4186,
      "impressed": 4187,
      "fashion": 4188,
      ",'": 4189,
      "ake": 4190,
      "blast": 4191,
      "fights": 4192,
      "gri": 4193,
      "wed": 4194,
      "oment": 4195,
      "tips": 4196,
      "ulty": 4197,
      "pod": 4198,
      "located": 4199,
      "emphas": 4200,
      "firstly": 4201,
      "realy": 4202,
      "spends": 4203,
      "published": 4204,
      "newspapers": 4205,
      "leading": 4206,
      "mile": 4207,
      "holds": 4208,
      "troubles": 4209,
      "luckily": 4210,
      "rushed": 4211,
      "spires": 4212,
      "equip": 4213,
      "giggle": 4214,
      "exhausted": 4215,
      "disturbing": 4216,
      "announ": 4217,
      "restaurant": 4218,
      "constitution": 4219,
      "gorgeous": 4220,
      "eli": 4221,
      "fir": 4222,
      "raf": 4223,
      "sess": 4224,
      "tick": 4225,
      "vary": 4226,
      "inting": 4227,
      "alizing": 4228,
      "bec": 4229,
      "aded": 4230,
      "notes": 4231,
      "define": 4232,
      "otherwise": 4233,
      "giant": 4234,
      "poli": 4235,
      "hip": 4236,
      "graphy": 4237,
      "cuss": 4238,
      "speaking": 4239,
      "intrest": 4240,
      "extent": 4241,
      "smiles": 4242,
      "planet": 4243,
      "descript": 4244,
      "racial": 4245,
      "amounts": 4246,
      "welch": 4247,
      "regard": 4248,
      "respectful": 4249,
      "slide": 4250,
      "seats": 4251,
      "innocent": 4252,
      "fifteen": 4253,
      "advantages": 4254,
      "walls": 4255,
      "dressed": 4256,
      "balloon": 4257,
      "invented": 4258,
      "drama": 4259,
      "response": 4260,
      "behavior": 4261,
      "travelling": 4262,
      "freinds": 4263,
      "maturity": 4264,
      "church": 4265,
      "chocolate": 4266,
      "cities": 4267,
      "dat": 4268,
      "eld": 4269,
      "mand": 4270,
      "pen": 4271,
      "pes": 4272,
      "pride": 4273,
      "zep": 4274,
      "seperate": 4275,
      "vement": 4276,
      "chi": 4277,
      "wet": 4278,
      "oper": 4279,
      "nowadays": 4280,
      "poll": 4281,
      "affic": 4282,
      "seek": 4283,
      "trash": 4284,
      "prev": 4285,
      "prot": 4286,
      "discovered": 4287,
      "religious": 4288,
      "relieved": 4289,
      "emails": 4290,
      "charge": 4291,
      "approve": 4292,
      "camera": 4293,
      "!!!": 4294,
      "aspects": 4295,
      "ridiculous": 4296,
      "thirty": 4297,
      "selection": 4298,
      "dancing": 4299,
      "bumpy": 4300,
      "differnt": 4301,
      "equipment": 4302,
      "pitch": 4303,
      "ordered": 4304,
      "bear": 4305,
      "seve": 4306,
      "pel": 4307,
      "terri": 4308,
      "temp": 4309,
      "stops": 4310,
      "dirig": 4311,
      "coaster": 4312,
      "handy": 4313,
      "genre": 4314,
      "rings": 4315,
      "biking": 4316,
      "completed": 4317,
      "horror": 4318,
      "struggles": 4319,
      "rapid": 4320,
      "animal": 4321,
      "forceful": 4322,
      "balloons": 4323,
      "sacrificed": 4324,
      "tolerant": 4325,
      "latest": 4326,
      "cultural": 4327,
      "kick": 4328,
      "une": 4329,
      "inaprop": 4330,
      "becas": 4331,
      "stage": 4332,
      "lies": 4333,
      "wearing": 4334,
      "accur": 4335,
      "shoot": 4336,
      "ung": 4337,
      "gather": 4338,
      "gaining": 4339,
      "intense": 4340,
      "mph": 4341,
      "cursing": 4342,
      "landed": 4343,
      "stressed": 4344,
      "hurry": 4345,
      "humble": 4346,
      "weekend": 4347,
      "enviroment": 4348,
      "answers": 4349,
      "entirely": 4350,
      "ticket": 4351,
      "tasks": 4352,
      "imagination": 4353,
      "introduced": 4354,
      "title": 4355,
      "dirty": 4356,
      "economy": 4357,
      "gift": 4358,
      "false": 4359,
      "pines": 4360,
      "ppling": 4361,
      "sion": 4362,
      "ening": 4363,
      "secre": 4364,
      "vei": 4365,
      "chan": 4366,
      "ghter": 4367,
      "gear": 4368,
      "abuse": 4369,
      "deca": 4370,
      "spr": 4371,
      "artists": 4372,
      "traffic": 4373,
      "frequ": 4374,
      "personality": 4375,
      "drinks": 4376,
      "construct": 4377,
      "approached": 4378,
      "lifting": 4379,
      "throwing": 4380,
      "assigned": 4381,
      "blowing": 4382,
      "strict": 4383,
      "surprise": 4384,
      "massive": 4385,
      "embarrassed": 4386,
      "tests": 4387,
      "spoke": 4388,
      "escape": 4389,
      "lonely": 4390,
      "nasty": 4391,
      ".)": 4392,
      "awhile": 4393,
      "bs": 4394,
      "ived": 4395,
      "ky": 4396,
      "mous": 4397,
      "nud": 4398,
      "pour": 4399,
      "pure": 4400,
      "ued": 4401,
      "yed": 4402,
      "zz": 4403,
      "�?": 4404,
      "reply": 4405,
      "refresh": 4406,
      "attr": 4407,
      "hey": 4408,
      "verse": 4409,
      "amond": 4410,
      "saves": 4411,
      "obtain": 4412,
      "gained": 4413,
      "selfs": 4414,
      "displayed": 4415,
      "enjoyment": 4416,
      "cracking": 4417,
      "wondered": 4418,
      "realizing": 4419,
      "compared": 4420,
      "pavement": 4421,
      "nearby": 4422,
      "sounded": 4423,
      "quietly": 4424,
      "pushing": 4425,
      "aunts": 4426,
      "focused": 4427,
      "emotional": 4428,
      "values": 4429,
      "comedy": 4430,
      "product": 4431,
      "products": 4432,
      "american": 4433,
      "purchase": 4434,
      "curious": 4435,
      "observation": 4436,
      "tantalizing": 4437,
      "perspective": 4438,
      "fond": 4439,
      "gate": 4440,
      "kiss": 4441,
      "ni": 4442,
      "pin": 4443,
      "smo": 4444,
      "tension": 4445,
      "vic": 4446,
      "secur": 4447,
      "secure": 4448,
      "rivers": 4449,
      "soda": 4450,
      "grant": 4451,
      "dian": 4452,
      "evening": 4453,
      "function": 4454,
      "spell": 4455,
      "pointed": 4456,
      "crippling": 4457,
      "raise": 4458,
      "speaker": 4459,
      "religions": 4460,
      "restricted": 4461,
      "shelter": 4462,
      "elementary": 4463,
      "woods": 4464,
      "diction": 4465,
      "debate": 4466,
      "ramshack": 4467,
      "options": 4468,
      "elimin": 4469,
      "link": 4470,
      "ration": 4471,
      "twel": 4472,
      "altern": 4473,
      "segregation": 4474,
      "comment": 4475,
      "ional": 4476,
      "ified": 4477,
      "anytime": 4478,
      "butt": 4479,
      "teeth": 4480,
      "histori": 4481,
      "diamond": 4482,
      "isted": 4483,
      "spin": 4484,
      "certian": 4485,
      "worlds": 4486,
      "asks": 4487,
      "singing": 4488,
      "hurts": 4489,
      "difficulty": 4490,
      "celebrate": 4491,
      "electri": 4492,
      "assignments": 4493,
      "challenging": 4494,
      "convin": 4495,
      "safty": 4496,
      "directly": 4497,
      "inspiration": 4498,
      "substance": 4499,
      "becasue": 4500,
      "cate": 4501,
      "obe": 4502,
      "sus": 4503,
      "sink": 4504,
      "yo": 4505,
      "regre": 4506,
      "asing": 4507,
      "alway": 4508,
      "selling": 4509,
      "compet": 4510,
      "pee": 4511,
      "term": 4512,
      "bust": 4513,
      "yours": 4514,
      "typed": 4515,
      "hasn": 4516,
      "hardworking": 4517,
      "pointless": 4518,
      "heading": 4519,
      "expert": 4520,
      "couraged": 4521,
      "remembering": 4522,
      "intelli": 4523,
      "hug": 4524,
      "invited": 4525,
      "attack": 4526,
      "charact": 4527,
      "blooming": 4528,
      "exersize": 4529,
      "files": 4530,
      "twelve": 4531,
      "(�": 4532,
      "dirt": 4533,
      "ec": 4534,
      "lor": 4535,
      "rise": 4536,
      "uct": 4537,
      "vital": 4538,
      "beca": 4539,
      "aries": 4540,
      "icy": 4541,
      "useing": 4542,
      "imm": 4543,
      "librarians": 4544,
      "ements": 4545,
      "lifetime": 4546,
      "achieve": 4547,
      "aint": 4548,
      "realistic": 4549,
      "via": 4550,
      "carter": 4551,
      "reson": 4552,
      "bikes": 4553,
      "burning": 4554,
      "stepped": 4555,
      "silence": 4556,
      "president": 4557,
      "summ": 4558,
      "machine": 4559,
      "blooms": 4560,
      "crowded": 4561,
      "alike": 4562,
      "fantastic": 4563,
      "texting": 4564,
      "stainless": 4565,
      "veiw": 4566,
      "characters": 4567,
      "kne": 4568,
      "whel": 4569,
      "wars": 4570,
      "ining": 4571,
      "atic": 4572,
      "enor": 4573,
      "sem": 4574,
      "wil": 4575,
      "accep": 4576,
      "ference": 4577,
      "neat": 4578,
      "tear": 4579,
      "owner": 4580,
      "wrap": 4581,
      "joined": 4582,
      "dying": 4583,
      "suic": 4584,
      "joyful": 4585,
      "center": 4586,
      "served": 4587,
      "crime": 4588,
      "opening": 4589,
      "corn": 4590,
      "attempts": 4591,
      "distrac": 4592,
      "practic": 4593,
      "horri": 4594,
      "fourth": 4595,
      "fails": 4596,
      "devast": 4597,
      "devices": 4598,
      "machines": 4599,
      "promise": 4600,
      "involve": 4601,
      "despair": 4602,
      "expanded": 4603,
      "brave": 4604,
      "offered": 4605,
      "documents": 4606,
      "breeze": 4607,
      "zeppel": 4608,
      "nudity": 4609,
      "aked": 4610,
      "bon": 4611,
      "dull": 4612,
      "kic": 4613,
      "sigh": 4614,
      "wow": 4615,
      "ercial": 4616,
      "toy": 4617,
      "itled": 4618,
      "stal": 4619,
      "stead": 4620,
      "peers": 4621,
      "dose": 4622,
      "saving": 4623,
      "tey": 4624,
      "librarie": 4625,
      "proving": 4626,
      "players": 4627,
      "strain": 4628,
      "household": 4629,
      "stands": 4630,
      "blings": 4631,
      "ignor": 4632,
      "surely": 4633,
      "planted": 4634,
      "bloss": 4635,
      "complained": 4636,
      "admit": 4637,
      "ultim": 4638,
      "concerns": 4639,
      "shots": 4640,
      "comunicate": 4641,
      "hello": 4642,
      "security": 4643,
      "historical": 4644,
      "bid": 4645,
      "hilly": 4646,
      "ipod": 4647,
      "native": 4648,
      "rs": 4649,
      "tin": 4650,
      "vast": 4651,
      "anced": 4652,
      "reward": 4653,
      "lik": 4654,
      "ooting": 4655,
      "abil": 4656,
      "stoped": 4657,
      "newark": 4658,
      "prin": 4659,
      "moms": 4660,
      "dried": 4661,
      "genres": 4662,
      "dissa": 4663,
      "skate": 4664,
      "stars": 4665,
      "sacraf": 4666,
      "expressing": 4667,
      "negatively": 4668,
      "morals": 4669,
      "blocks": 4670,
      "freely": 4671,
      "presented": 4672,
      "shock": 4673,
      "milk": 4674,
      "seasons": 4675,
      "surrounded": 4676,
      "floors": 4677,
      "conversations": 4678,
      "equal": 4679,
      "pleasure": 4680,
      "copy": 4681,
      "puncture": 4682,
      "arguments": 4683,
      "hiding": 4684,
      "prepare": 4685,
      "deemed": 4686,
      "beyond": 4687,
      "ramshackle": 4688,
      "blossom": 4689,
      "gust": 4690,
      "hic": 4691,
      "pm": 4692,
      "soo": 4693,
      "ume": 4694,
      "ats": 4695,
      "envior": 4696,
      "forty": 4697,
      "shiny": 4698,
      "gees": 4699,
      "tire": 4700,
      "logy": 4701,
      "grants": 4702,
      "clue": 4703,
      "objects": 4704,
      "permission": 4705,
      "flaw": 4706,
      "cards": 4707,
      "blond": 4708,
      "hopeful": 4709,
      "shade": 4710,
      "bedroom": 4711,
      "reliable": 4712,
      "excercis": 4713,
      "mark": 4714,
      "dealing": 4715,
      "reaches": 4716,
      "dogs": 4717,
      "explode": 4718,
      "siblings": 4719,
      "weighed": 4720,
      "originally": 4721,
      "statistics": 4722,
      "thirteen": 4723,
      "applic": 4724,
      "controversial": 4725,
      "separate": 4726,
      "breathe": 4727,
      "gary": 4728,
      "hated": 4729,
      "lam": 4730,
      "nes": 4731,
      "ole": 4732,
      "sar": 4733,
      "shad": 4734,
      "inde": 4735,
      "react": 4736,
      "stare": 4737,
      "stumble": 4738,
      "arn": 4739,
      "uts": 4740,
      "meals": 4741,
      "ache": 4742,
      "myster": 4743,
      "endure": 4744,
      "upstairs": 4745,
      "degree": 4746,
      "noise": 4747,
      "caps24": 4748,
      "ables": 4749,
      "engines": 4750,
      "badly": 4751,
      "afternoon": 4752,
      "fake": 4753,
      "display": 4754,
      "bank": 4755,
      "manner": 4756,
      "literally": 4757,
      "risks": 4758,
      "cleaning": 4759,
      "messing": 4760,
      "spirits": 4761,
      "increased": 4762,
      "snack": 4763,
      "embarrassing": 4764,
      "gentle": 4765,
      "magizines": 4766,
      "computors": 4767,
      "updated": 4768,
      "police": 4769,
      "agi": 4770,
      "dom": 4771,
      "fence": 4772,
      "mit": 4773,
      "sne": 4774,
      "eness": 4775,
      "ordin": 4776,
      "itar": 4777,
      "cab": 4778,
      "caut": 4779,
      "wasted": 4780,
      "wife": 4781,
      "rocks": 4782,
      "tight": 4783,
      "uncontroll": 4784,
      "improved": 4785,
      "appor": 4786,
      "everyones": 4787,
      "overwhel": 4788,
      "gang": 4789,
      "differences": 4790,
      "minor": 4791,
      "highest": 4792,
      "creation": 4793,
      "healthier": 4794,
      "possibility": 4795,
      "avor": 4796,
      "hurtful": 4797,
      "occup": 4798,
      "catching": 4799,
      "appreciative": 4800,
      "increasing": 4801,
      "excersise": 4802,
      "earthqu": 4803,
      "prohibited": 4804,
      "chrome": 4805,
      "significant": 4806,
      "refueling": 4807,
      "enormous": 4808,
      "**": 4809,
      "ctors": 4810,
      "double": 4811,
      "eren": 4812,
      "junk": 4813,
      "ns": 4814,
      "ww": 4815,
      "thro": 4816,
      "incident": 4817,
      "inappropiate": 4818,
      "reaction": 4819,
      "revol": 4820,
      "toll": 4821,
      "encing": 4822,
      "meth": 4823,
      "peb": 4824,
      "llent": 4825,
      "nel": 4826,
      "terms": 4827,
      "contr": 4828,
      "spark": 4829,
      "bodies": 4830,
      "commercial": 4831,
      "trick": 4832,
      "enjoys": 4833,
      "crush": 4834,
      "yester": 4835,
      "deserve": 4836,
      "maintain": 4837,
      "buds": 4838,
      "market": 4839,
      "elev": 4840,
      "concert": 4841,
      "thankfulness": 4842,
      "refu": 4843,
      "benifits": 4844,
      "ivity": 4845,
      "depressing": 4846,
      "crafts": 4847,
      "distracted": 4848,
      "properly": 4849,
      "encive": 4850,
      "bilities": 4851,
      "electronics": 4852,
      "pounds": 4853,
      "tasted": 4854,
      "suffer": 4855,
      "grocer": 4856,
      "data": 4857,
      "aled": 4858,
      "bun": 4859,
      "cred": 4860,
      "farm": 4861,
      "ore": 4862,
      "thay": 4863,
      "inj": 4864,
      "ene": 4865,
      "lean": 4866,
      "chating": 4867,
      "meal": 4868,
      "compe": 4869,
      "idence": 4870,
      "shooting": 4871,
      "entered": 4872,
      "unpredic": 4873,
      "geting": 4874,
      "iment": 4875,
      "caps23": 4876,
      "childeren": 4877,
      "parties": 4878,
      "flash": 4879,
      "joking": 4880,
      "cious": 4881,
      "mane": 4882,
      "dads": 4883,
      "bio": 4884,
      "attend": 4885,
      "freedoms": 4886,
      "porches": 4887,
      "babysit": 4888,
      "laptops": 4889,
      "electric": 4890,
      "humorous": 4891,
      "opportunities": 4892,
      "excersize": 4893,
      "adventures": 4894,
      "skype": 4895,
      "film": 4896,
      "circled": 4897,
      "murder": 4898,
      "advertis": 4899,
      "eighteen": 4900,
      "description": 4901,
      "accurate": 4902,
      "categor": 4903,
      "10": 4904,
      "coo": 4905,
      "coffe": 4906,
      "hob": 4907,
      "lun": 4908,
      "pit": 4909,
      "rup": 4910,
      "trem": 4911,
      "wards": 4912,
      "returned": 4913,
      "edge": 4914,
      "metal": 4915,
      "compar": 4916,
      "accid": 4917,
      "produc": 4918,
      "monitor": 4919,
      "wave": 4920,
      "airplanes": 4921,
      "labe": 4922,
      "memior": 4923,
      "networks": 4924,
      "cheek": 4925,
      "career": 4926,
      "sooner": 4927,
      "rainy": 4928,
      "sixth": 4929,
      "reaching": 4930,
      "containing": 4931,
      "teams": 4932,
      "value": 4933,
      "somed": 4934,
      "depression": 4935,
      "appointment": 4936,
      "jumping": 4937,
      "disappointment": 4938,
      "sacrifices": 4939,
      "receive": 4940,
      "globe": 4941,
      "electronic": 4942,
      "panic": 4943,
      "demonstration": 4944,
      "dentist": 4945,
      "stret": 4946,
      "dictionary": 4947,
      "yesterday": 4948,
      "ale": 4949,
      "rase": 4950,
      "ture": 4951,
      "tition": 4952,
      "“@": 4953,
      "anxious": 4954,
      "replace": 4955,
      "asting": 4956,
      "kel": 4957,
      "ify": 4958,
      "ender": 4959,
      "expl": 4960,
      "convi": 4961,
      "imma": 4962,
      "depri": 4963,
      "umst": 4964,
      "offencive": 4965,
      "theirs": 4966,
      "libra": 4967,
      "flor": 4968,
      "cussing": 4969,
      "handed": 4970,
      "windy": 4971,
      "highway": 4972,
      "relates": 4973,
      "tenn": 4974,
      "cencor": 4975,
      "completly": 4976,
      "invo": 4977,
      "itement": 4978,
      "generally": 4979,
      "atory": 4980,
      "destroying": 4981,
      "cleaned": 4982,
      "gases": 4983,
      "relaxing": 4984,
      "bullied": 4985,
      "developed": 4986,
      "throught": 4987,
      "exersise": 4988,
      "fifth": 4989,
      "introdu": 4990,
      "crowd": 4991,
      "motivation": 4992,
      "apolo": 4993,
      "decades": 4994,
      "ears": 4995,
      "nur": 4996,
      "pond": 4997,
      "tha": 4998,
      "thin": 4999
    },
    "merges": [
      "t h",
      "th e",
      "i n",
      "a n",
      "r e",
      "a t",
      "o u",
      "e r",
      "o n",
      "t o",
      "in g",
      "e n",
      "o r",
      "i s",
      "an d",
      "l e",
      "a s",
      "i t",
      "a l",
      "o m",
      "e s",
      "e d",
      "o f",
      "b e",
      "c a",
      "l d",
      "s t",
      "s e",
      "a r",
      "th at",
      "h e",
      "v e",
      "y ou",
      "h a",
      "p s",
      "c h",
      "l i",
      "u t",
      "w h",
      "o w",
      "o o",
      "l y",
      "ca ps",
      "w e",
      "a y",
      "m e",
      "ou ld",
      "w as",
      "c om",
      "w i",
      "o t",
      "f or",
      "r i",
      "o p",
      "a re",
      "g h",
      "er s",
      "a d",
      "a c",
      "i on",
      "v er",
      "m o",
      "p e",
      "k e",
      "s o",
      "ou t",
      "i d",
      "the y",
      "f e",
      "i r",
      "l l",
      "s h",
      "g e",
      "en t",
      "p ut",
      "n e",
      "om e",
      "wi th",
      "a b",
      "on e",
      "pe op",
      "peop le",
      "ha ve",
      "i c",
      "i f",
      "u se",
      "com put",
      "m y",
      "al l",
      "th ing",
      "oo k",
      "d o",
      "n ot",
      "the r",
      "u s",
      "a m",
      "at ion",
      "r o",
      "th is",
      "i ld",
      "t i",
      "t s",
      "s ome",
      "c an",
      "t er",
      "ca use",
      "en d",
      "w ould",
      "l o",
      "s he",
      "the re",
      "u n",
      "b ook",
      "m a",
      "b u",
      "be cause",
      "a u",
      "caps 1",
      "ver y",
      "w ay",
      "an y",
      "b ut",
      "g o",
      "at e",
      "wh en",
      "e x",
      "s a",
      "t a",
      "c on",
      "f r",
      "ab out",
      "t e",
      "an t",
      "c e",
      "ge t",
      "b le",
      "i m",
      "oo d",
      "r y",
      "gh t",
      "u p",
      "w or",
      "n ow",
      "p l",
      "d e",
      "u m",
      "o ther",
      "u l",
      "bu ild",
      "in d",
      "of f",
      "p ers",
      "ha d",
      "u st",
      "ou r",
      "li ke",
      "g r",
      "comput ers",
      "i ve",
      "wh at",
      "ti me",
      "c t",
      "pers on",
      "t ing",
      "b r",
      "the ir",
      "ou n",
      "h er",
      "fr om",
      "we re",
      "sh ould",
      "h is",
      "a p",
      "the m",
      "in k",
      "j ust",
      "u r",
      "comput er",
      "c ould",
      "re n",
      "al ly",
      "en s",
      "u re",
      "re ad",
      "th ink",
      "n o",
      "wi ll",
      "you r",
      "i es",
      "c l",
      "h ow",
      "e very",
      "d i",
      "g i",
      "as t",
      "g a",
      "b y",
      "book s",
      "build ing",
      "es t",
      "s to",
      "al so",
      "the n",
      "f ri",
      "n um",
      "fri end",
      "s s",
      "ou gh",
      "is t",
      "li br",
      "d ay",
      "libr ar",
      "s ay",
      "i ly",
      "au gh",
      "f am",
      "s p",
      "thing s",
      "l augh",
      "m any",
      "caps 2",
      "mo re",
      "oun d",
      "e v",
      "k now",
      "mo v",
      "p ro",
      "are n",
      "id e",
      "at er",
      "e m",
      "p o",
      "ne w",
      "k ing",
      "ar t",
      "u ch",
      "fam ily",
      "w ant",
      "o b",
      "i z",
      "p aren",
      "gi ble",
      "t y",
      "re at",
      "di ri",
      "d on",
      "e l",
      "ch ild",
      "i e",
      "on g",
      "p p",
      "diri gible",
      "i l",
      "ow n",
      "o ver",
      "th or",
      "ac k",
      "a f",
      "au thor",
      "he l",
      "v es",
      "ev en",
      "f ac",
      "c k",
      "p le",
      "ab le",
      "h i",
      "wh i",
      "paren ts",
      "d id",
      "li fe",
      "p at",
      "ha pp",
      "t al",
      "in e",
      "wh o",
      "s it",
      "h ome",
      "h im",
      "friend s",
      "ma ke",
      "ation 1",
      "i re",
      "g ood",
      "f ul",
      "se e",
      "ens ive",
      "ar d",
      "h as",
      "pat i",
      "he re",
      "ne ed",
      "hel p",
      "way s",
      "off ensive",
      "mo st",
      "ta ke",
      "l f",
      "a ch",
      "go ing",
      "b o",
      "le ar",
      "sh i",
      "re d",
      "sto ry",
      "re as",
      "to o",
      "caps 3",
      "ou s",
      "lo c",
      "i al",
      "u e",
      "le d",
      "g ot",
      "t r",
      "es s",
      "d if",
      "the se",
      "l ook",
      "g an",
      "b ack",
      "c y",
      "i ght",
      "m ood",
      "lear n",
      "v ing",
      "reas on",
      "d es",
      "or t",
      "f ind",
      "some thing",
      "p re",
      "p ar",
      "k id",
      "y e",
      "sa id",
      "st ate",
      "wh y",
      "librar y",
      "m uch",
      "fe ct",
      "wor k",
      "ob st",
      "sh ow",
      "cy cl",
      "i ll",
      "t ry",
      "it y",
      "th an",
      "m on",
      "oo l",
      "an g",
      ". \"",
      "com e",
      "be ing",
      "as s",
      "dirigible s",
      "child ren",
      "i g",
      "num 1",
      "le s",
      "fe el",
      "cycl ist",
      "e f",
      "obst ac",
      "or gan",
      "at ure",
      "w here",
      "organ iz",
      "p er",
      "en ce",
      "r ough",
      "an other",
      "g reat",
      "p r",
      "m us",
      "em p",
      "c is",
      "ga in",
      "ir st",
      "mus ic",
      "tal k",
      "ad e",
      "d own",
      "w r",
      "q u",
      "se t",
      "person 1",
      "ac t",
      "pl ac",
      "m ent",
      "f o",
      "pati ent",
      "shi p",
      "w a",
      "al ways",
      "en g",
      "ar ound",
      "ri ght",
      "re ally",
      "emp ire",
      "c er",
      "in to",
      "it s",
      "s ch",
      "gr ap",
      "o ld",
      "a ge",
      "caps 4",
      "in ter",
      "a gain",
      "wor ld",
      "grap h",
      "mon th",
      "se lf",
      "whi ch",
      "e p",
      "be li",
      "kid s",
      "f irst",
      "on ly",
      "re e",
      "sch ool",
      "ta in",
      "ren t",
      "a ir",
      "ic e",
      "s ide",
      "b ad",
      "f in",
      "a g",
      "e ver",
      "librar ies",
      "par a",
      "wa it",
      "all ow",
      "d er",
      "st u",
      "a way",
      "th rough",
      "m ade",
      "st art",
      "para graph",
      "it e",
      "mov ies",
      "be t",
      "some one",
      "dif fe",
      "m ast",
      "a in",
      "f l",
      "or ing",
      "pl ay",
      "be en",
      "j o",
      "p ort",
      "d r",
      "every one",
      "m es",
      "k es",
      "m ater",
      "u b",
      "c o",
      "month 1",
      "ne ver",
      "mater ial",
      "l ot",
      "o se",
      "at ed",
      "l ine",
      "w ater",
      "f un",
      "for m",
      "it t",
      "st r",
      "w ent",
      "pro ble",
      "diffe rent",
      "to p",
      "proble m",
      "do es",
      "am ple",
      "fo re",
      "ex ample",
      "t est",
      "l a",
      "ga z",
      "m om",
      ". .",
      "e ve",
      "c us",
      "at ch",
      "sa eng",
      "af ter",
      "ma gaz",
      "an s",
      "organiz ation1",
      "con cl",
      "did n",
      "lo ve",
      "l ves",
      "ou se",
      "c ens",
      "beli eve",
      "le ss",
      "h ard",
      "re al",
      "p t",
      "set ting",
      "me mo",
      "memo ir",
      "happ y",
      "loc ation1",
      "so c",
      "ion s",
      "h y",
      "l ast",
      "build ers",
      "laugh ter",
      "us ed",
      "ca me",
      "l ong",
      "le t",
      "ou ght",
      "in es",
      "we ll",
      "caps 5",
      "t ur",
      "h ouse",
      "d ri",
      "te ll",
      "s pe",
      "h and",
      "s uch",
      "st ill",
      "th ough",
      "th ose",
      "mo oring",
      "say s",
      "bet ter",
      "ti mes",
      "w ind",
      "tur n",
      "ke ep",
      "me m",
      "cens or",
      "k ed",
      "itt le",
      "do ck",
      "w atch",
      "c reat",
      "l ittle",
      "plac e",
      "af fect",
      "d ate",
      "obstac les",
      "n ar",
      "c ts",
      "fac ed",
      "v i",
      "d y",
      "? ?",
      "m in",
      "g en",
      "ul t",
      "hi gh",
      "in t",
      "whi le",
      "in form",
      "c oun",
      "is cus",
      "hi b",
      "sp end",
      "an ce",
      "l ow",
      "con t",
      "im port",
      "f ound",
      "w o",
      "f a",
      "e t",
      "ca r",
      "ar ch",
      "ye ar",
      "nar cis",
      "in st",
      "cer tain",
      "narcis o",
      "h our",
      "s u",
      "magaz ines",
      "s m",
      "e as",
      "d is",
      "hib iscus",
      "read ing",
      "p ic",
      "sa me",
      "jo y",
      "m ight",
      "li m",
      "to w",
      "v ed",
      "te ach",
      "inform ation",
      "import ant",
      "o l",
      "is h",
      "caps 6",
      "g ive",
      "ent s",
      "with out",
      "c lo",
      "p ass",
      "ie ty",
      "ha ving",
      "ne x",
      "every thing",
      "laugh ing",
      "get ting",
      "ne t",
      "she lves",
      "on line",
      "show s",
      "sa fe",
      "nex t",
      "ad d",
      "happ en",
      "c al",
      "h op",
      "censor ship",
      "c ent",
      "com m",
      "st ay",
      "b ig",
      "t wo",
      "e ach",
      "num 2",
      "st and",
      "start ed",
      "c i",
      "\" @",
      "l ist",
      "re l",
      "n ing",
      "con d",
      "fac e",
      "be fore",
      "any thing",
      "n ature",
      "mov ed",
      "th ought",
      "at es",
      "t ri",
      "w al",
      "re st",
      "soc iety",
      "ar m",
      "p art",
      "en joy",
      "do ing",
      "bo dy",
      "a me",
      "b er",
      "d ing",
      "a ther",
      "to ld",
      "fin ally",
      "ve l",
      "other s",
      "k ind",
      "s im",
      "op in",
      "out side",
      "ation 2",
      "wor d",
      ". �",
      "b l",
      "ro om",
      "un der",
      "obstac le",
      "c he",
      "f t",
      "b est",
      "m p",
      "gr ate",
      "comm un",
      "d ro",
      "want ed",
      "she lf",
      "c r",
      "la w",
      "k en",
      "n g",
      "date 1",
      "list en",
      "am es",
      "inter net",
      "concl u",
      "ef fect",
      "mov ie",
      "don t",
      "person 2",
      "me an",
      "u ally",
      "you ng",
      "we b",
      "pre ss",
      "g y",
      "creat ed",
      "j e",
      "m ind",
      "us ing",
      "i gh",
      "an ts",
      "pati ence",
      "l t",
      "ap er",
      "c ur",
      "y es",
      "hop e",
      "re ss",
      "grate ful",
      "ct ion",
      "ge ther",
      "ma kes",
      "w on",
      "to gether",
      "fe ature",
      "try ing",
      "b an",
      "le ft",
      "material s",
      "hy dro",
      "at ing",
      "hydro gen",
      "stu d",
      "c es",
      "g ames",
      "ro ad",
      "d in",
      "real iz",
      "ex er",
      "se cond",
      "po sit",
      "tal king",
      "se arch",
      "pl ain",
      "c re",
      "t en",
      "s er",
      "li c",
      "mo ve",
      "b en",
      "po int",
      "no thing",
      "l and",
      "caps 7",
      "m an",
      "el se",
      "f f",
      "g ue",
      "he ad",
      "too k",
      "tow n",
      "r ing",
      "p ed",
      "ide a",
      "d one",
      "it ed",
      "de ar",
      "re s",
      "en ough",
      "exer cis",
      "d ad",
      "an ge",
      "b ro",
      "ig n",
      "ex t",
      "at te",
      "ta ken",
      "would n",
      "as k",
      "li ves",
      "shi ps",
      "end ed",
      "on ce",
      "to day",
      "en se",
      "is s",
      "does n",
      "mo ther",
      "f re",
      "ta king",
      "feature s",
      "li ve",
      "reason s",
      "say ing",
      "c ri",
      "c id",
      "ma king",
      "vi ol",
      "m at",
      "ation s",
      "read y",
      "pr op",
      "se em",
      "g ir",
      "s up",
      "ty pe",
      "e ad",
      "c ess",
      "al most",
      "e ye",
      "g u",
      "gir l",
      "st ates",
      "re moved",
      "to r",
      "h ot",
      "f ar",
      "coun try",
      "gue z",
      "ro dri",
      "rodri guez",
      "ic k",
      "le a",
      "v ie",
      "hour s",
      "one y",
      "sto p",
      "p h",
      "n ess",
      "d ang",
      "es e",
      "wr it",
      "ag ree",
      "v ide",
      "inst ead",
      "opin ion",
      "as e",
      "wr ong",
      "i er",
      "are a",
      "f ly",
      "m oney",
      "te ch",
      "fe w",
      "posit ive",
      "who le",
      "c en",
      "op en",
      "c ub",
      "wind s",
      "us ion",
      "ri de",
      "problem s",
      "look ing",
      "ar y",
      "under stand",
      "s ure",
      "s ur",
      "v en",
      "un ti",
      "in ce",
      "at ive",
      "plac es",
      "stu ff",
      "could n",
      "j ob",
      "bo th",
      "d ue",
      "m ay",
      "sp ring",
      "p ub",
      "fr ame",
      "s ing",
      "commun ic",
      "ex per",
      "concl usion",
      "wait ing",
      "ot e",
      "n y",
      "des er",
      "str u",
      "com es",
      "be come",
      "g in",
      "web sit",
      "cl ass",
      "ad v",
      "per cent",
      "s k",
      "ri ate",
      "hi ll",
      "gr ow",
      "conclu des",
      "was n",
      "feel ing",
      "some times",
      "than k",
      "s ince",
      "st ress",
      "fe cts",
      "c or",
      "ben ef",
      "unti l",
      "tech no",
      "u ll",
      "f ic",
      "should n",
      "b ab",
      "com ing",
      "str ong",
      "ap prop",
      "b or",
      "i x",
      "min ut",
      "r un",
      "techno lo",
      "ure s",
      "u c",
      "ic al",
      "p op",
      "t ed",
      "h ur",
      "po ss",
      "he al",
      "re mem",
      "h ood",
      "day s",
      "sm i",
      "bro ther",
      "i a",
      "ca re",
      "vie w",
      "he ar",
      "word s",
      "ch ang",
      "c our",
      "pl ant",
      "je ct",
      "ac e",
      "atte mp",
      "in ess",
      "ga me",
      "year s",
      "on es",
      "a k",
      "ul ts",
      "caps 8",
      "that s",
      "do c",
      "k new",
      "che ck",
      "may be",
      "ma in",
      "heal th",
      "ge ese",
      "fac t",
      "it ion",
      "s ha",
      "din ation",
      "s ent",
      "pl an",
      "clo se",
      "n a",
      "technolo gy",
      "tr a",
      "mat ter",
      "fl am",
      "ch ange",
      "pub lic",
      "on s",
      "ch at",
      "vide o",
      "b as",
      "st ar",
      "al ot",
      "do or",
      "h ind",
      "ow er",
      "fun ny",
      "attemp ting",
      "as ked",
      "br ing",
      "affect ed",
      "p ly",
      "il led",
      "poss i",
      "m ed",
      "fe lt",
      "y or",
      "le g",
      "num 3",
      "new sp",
      "� @",
      "ch o",
      "g g",
      "are as",
      "need ed",
      "g re",
      "co or",
      "stud ents",
      "yor k",
      "te en",
      "be gin",
      "ma il",
      "again st",
      "remem ber",
      "con st",
      "ant ly",
      "b all",
      "in te",
      "ad ults",
      "any one",
      "viol ent",
      "th ree",
      "pic t",
      "w arm",
      "for t",
      "w inter",
      "minut es",
      "\" .",
      ") .",
      "re search",
      "play ing",
      "le ad",
      "j u",
      "exercis e",
      "dang er",
      "?? ?",
      "s is",
      "c all",
      "sa w",
      "c ult",
      "approp riate",
      "u al",
      "hel ps",
      "me ans",
      "b i",
      "safe ty",
      "m i",
      "ex plain",
      "des cri",
      "mem or",
      "cal led",
      "i ous",
      "coor dination",
      "newsp aper",
      "i li",
      "how ever",
      "n er",
      "a th",
      "h um",
      "bu d",
      "st ed",
      "ro ss",
      "rel ation",
      "organiz ation2",
      "r ather",
      "look ed",
      "loc ation2",
      "v ers",
      "sit u",
      "pop ul",
      "et c",
      "se en",
      "for get",
      "e k",
      "ur ban",
      "gr and",
      "cen so",
      "lim it",
      "b us",
      "r u",
      "high ly",
      "exper i",
      "learn ing",
      "bu r",
      "a w",
      "sim ple",
      "ke pt",
      "sis ter",
      "ex p",
      "d ist",
      ".. .",
      "p ast",
      "il ity",
      "on t",
      "e yes",
      "s now",
      "w ants",
      "v is",
      "th ous",
      "ed uc",
      "bu y",
      "ph one",
      "he at",
      "flam m",
      "ren ts",
      "censo red",
      "thous and",
      "cub an",
      "hill s",
      "ou d",
      "ex ce",
      "se lves",
      "to ry",
      "turn ed",
      "fly ing",
      "paren t",
      "sh ort",
      "flamm able",
      "i ther",
      "is e",
      "ou ch",
      "ar s",
      "ty p",
      "top ic",
      "air ships",
      "de cid",
      "last ly",
      "fam ili",
      "inte rest",
      "re move",
      "l ater",
      "fr ont",
      "f ull",
      "ne g",
      "is n",
      "ct ions",
      "b ed",
      "happen ed",
      "b re",
      "com ple",
      "ll ing",
      "eas y",
      "wal k",
      "learn ed",
      "cur rents",
      "read er",
      "s ad",
      "n ed",
      "my self",
      "bo y",
      "realiz ed",
      "wr ite",
      "ur ing",
      "websit es",
      "h un",
      "a z",
      "b lim",
      "gi ves",
      "dr op",
      "po s",
      "caps 9",
      "ent er",
      "ga ve",
      "writ ing",
      "c ed",
      "qu est",
      "re li",
      "we ek",
      "pic k",
      "con s",
      "l ang",
      "home work",
      "ne igh",
      "ex c",
      "ta kes",
      "m iss",
      "se ction",
      "loc al",
      "s at",
      "every day",
      "spend ing",
      "com p",
      "spe ed",
      "const antly",
      "pro bab",
      "ex cer",
      "hy dr",
      "h old",
      "s ong",
      "end s",
      "c ity",
      "h u",
      "probab ly",
      "' @",
      "f ood",
      "magaz ine",
      "w he",
      "neigh bor",
      "lang u",
      "s ac",
      "in v",
      "pr act",
      "ex press",
      "soc ial",
      "di re",
      "ir d",
      "i led",
      "at t",
      "so on",
      "o k",
      "lea ve",
      "sh if",
      "s cre",
      "sit ting",
      "wait ed",
      "gr ou",
      "pre t",
      "con f",
      "ill s",
      "f ast",
      "o ve",
      "re turn",
      "go es",
      "c le",
      "f ut",
      "m ar",
      "tr ue",
      "le ast",
      "f ire",
      "a v",
      "deser t",
      "e ar",
      "langu age",
      "r ain",
      "s ub",
      "de hydr",
      "n or",
      "n ice",
      "it ch",
      "lo ved",
      "decid ed",
      "d ed",
      "i ma",
      "it em",
      "act ually",
      "ab ove",
      "d uring",
      "fre ed",
      "n ight",
      "al ong",
      "p ur",
      "p aper",
      "neg ative",
      "freed om",
      "u de",
      "of ten",
      "st ren",
      "oo t",
      "p or",
      "eas ier",
      "e le",
      "m ust",
      "v ir",
      "fut ure",
      "know led",
      "f illed",
      "ic ally",
      "building s",
      "d est",
      "l ack",
      "we ight",
      "ad ult",
      "ab ility",
      "sto re",
      "ef fects",
      "co l",
      "hur t",
      "danger ous",
      "ext re",
      "percent 1",
      "excer pt",
      "bud ding",
      "al though",
      "st e",
      "caps1 1",
      "arch ite",
      "ge ts",
      "need s",
      "in side",
      "it ies",
      "al ready",
      "as ter",
      "educ ation",
      "s ense",
      ", \"",
      "us es",
      "memor ies",
      "de ter",
      "possi ble",
      "sac ri",
      "stren g",
      "con ne",
      "he ard",
      "h o",
      "c ook",
      "we en",
      "person 3",
      "h al",
      "se x",
      "mo dif",
      "t ouch",
      "qu ick",
      "situ ation",
      "bet ween",
      "her self",
      "so l",
      "off ended",
      "watch ing",
      "ye t",
      "happ iness",
      "cont ro",
      "lo st",
      "wor king",
      "sim ply",
      "li um",
      "knowled ge",
      "dif fic",
      "ti ve",
      "li ght",
      "s un",
      "u g",
      "mov ing",
      "su c",
      "s wi",
      "ac ross",
      "s y",
      "p a",
      "he lium",
      "ard s",
      "fl ower",
      "relation ship",
      "allow ed",
      "un ited",
      "oo se",
      "end ing",
      "shif ting",
      "r ac",
      "l ing",
      "tr u",
      "m ad",
      "h or",
      "pp ed",
      "benef it",
      ", �",
      "b es",
      "ou ble",
      "think ing",
      "talk s",
      "gen er",
      "hal f",
      "s ix",
      "caps1 0",
      "com fort",
      "see ing",
      "or der",
      "pret ty",
      "face book",
      "lo ving",
      "g er",
      "leg al",
      "enter tain",
      "m or",
      "r an",
      "ri d",
      "mes sa",
      "sm all",
      "l ar",
      "comple te",
      "it self",
      "de al",
      "help ful",
      "laugh ed",
      "grow ing",
      "hu ge",
      "b lo",
      "f ree",
      "teach er",
      "v or",
      "in s",
      "pro ject",
      "be hind",
      "we ather",
      "old er",
      "loc ation",
      "communic ate",
      "re ach",
      "po se",
      "extre me",
      "p ay",
      "n ame",
      "h ang",
      "ct ed",
      "spe c",
      "tri p",
      "ne ar",
      "qu ote",
      "( @",
      "g l",
      "cont in",
      "archite cts",
      "c ool",
      "art ic",
      "fa iled",
      "cult ure",
      "cho ice",
      "deter min",
      "s il",
      "e ither",
      "f oot",
      "c ou",
      "l it",
      "tri ed",
      "whe ther",
      "c ut",
      "s ign",
      "m en",
      "tr ouble",
      "time 1",
      "through out",
      "won der",
      "his tory",
      "fe et",
      "gu y",
      "cont ent",
      "pict ures",
      "c ous",
      "in cl",
      "v id",
      "al s",
      "es say",
      "igh ts",
      "wal ked",
      "them selves",
      "pass ed",
      "ci ally",
      "popul ated",
      "be gan",
      "add ic",
      "pos ed",
      "b it",
      "feel s",
      "tra vel",
      "great est",
      "experi ence",
      "j or",
      "health y",
      "wor se",
      "person al",
      "o d",
      "ish ed",
      "adv an",
      "ma jor",
      "se ver",
      "il legal",
      "sk ills",
      "smi le",
      "f ice",
      "be a",
      "he art",
      "grou p",
      "am oun",
      "there fore",
      "f our",
      "r ow",
      "com plain",
      "ent ly",
      "de fin",
      "ch ance",
      "gr ound",
      "c lear",
      "i ed",
      "fa vor",
      "quest ion",
      "sacri fice",
      "li ving",
      "neighbor hood",
      "ke y",
      "bi ke",
      "f all",
      "s low",
      "on d",
      "every body",
      "fl at",
      "dr ink",
      "famili es",
      "dr ug",
      "exce ed",
      "g one",
      "po sted",
      "e at",
      "e mail",
      "le ep",
      "ag es",
      "t ion",
      "as h",
      "con stru",
      "re mind",
      "ch ar",
      "con tain",
      "job s",
      "m id",
      "new s",
      "help ed",
      "h it",
      "n am",
      "un ch",
      "ev ent",
      "con cer",
      "fin al",
      "tell s",
      "lo ad",
      "bea ut",
      "a head",
      "o c",
      "be came",
      "cou ple",
      "s we",
      "s ound",
      "ter rain",
      "gr ade",
      "tell ing",
      "run ning",
      "wh ate",
      "ow ed",
      "p ie",
      "b ar",
      "me et",
      "creat es",
      "diffic ult",
      "ch oose",
      "wor th",
      "r is",
      "ide as",
      "inter act",
      "fa il",
      "lar ge",
      "st ree",
      "ri es",
      "thank ful",
      "or ts",
      "ti red",
      "know ing",
      "wal king",
      "whate ver",
      "en vir",
      "le ts",
      "typ es",
      "ent ion",
      "num 4",
      "iss ue",
      "te am",
      "commun ity",
      "begin ning",
      "s ca",
      "us ually",
      "eas ily",
      "in appropriate",
      "is ting",
      "cid ent",
      "d en",
      "t ext",
      "ans w",
      "doc king",
      "communic ation",
      "id er",
      "je cts",
      "es pe",
      "par k",
      "land ing",
      "tor s",
      "b ers",
      "d le",
      "af fects",
      "exercis ing",
      "realiz e",
      "cour age",
      "friend ship",
      "v ent",
      "me ant",
      "lo se",
      "iz e",
      "br ought",
      "it ude",
      "your self",
      "u sh",
      "ment s",
      "v al",
      "! \"",
      "for n",
      "seem ed",
      "c ry",
      "cal i",
      "chang ed",
      "med ia",
      "th ird",
      "di e",
      "extreme ly",
      "favor ite",
      "f ine",
      "am az",
      "sh op",
      "forn ia",
      "cali fornia",
      "in ts",
      "are d",
      "dri ving",
      "k itch",
      "we l",
      "teen ag",
      "espe cially",
      "r op",
      "amoun t",
      "m is",
      "ju ne",
      "cook ing",
      "re f",
      "can t",
      "ap pro",
      "ha ir",
      "bl ood",
      "sing le",
      "kitch en",
      "child hood",
      "ri ding",
      "talk ed",
      "b ir",
      "f ight",
      "know s",
      "cons ider",
      "f ive",
      "play ed",
      "dehydr ated",
      "p ri",
      "fa ther",
      "opin ions",
      "v o",
      "young er",
      "bir th",
      "ex isting",
      "f aster",
      "u ck",
      "bre ak",
      "item s",
      "up on",
      "up set",
      "incl u",
      "ing s",
      "ke t",
      "if ic",
      "h arm",
      "do ll",
      "artic le",
      "en er",
      "if ul",
      "ce pt",
      ".. ..",
      "ac cident",
      "stud ent",
      "show ed",
      "r ound",
      "s na",
      "de c",
      "gr ad",
      "pre sent",
      "side red",
      "mid dle",
      "con sidered",
      "sp ace",
      "ima g",
      "pract ical",
      "r ated",
      "ne y",
      "per fect",
      "hard er",
      "f air",
      "sup port",
      "suc cess",
      "drug s",
      "sever al",
      "gi ving",
      "fre sh",
      "lea ving",
      "answ er",
      "? \"",
      "j our",
      "est ri",
      "cour se",
      "ok ay",
      "envir on",
      "w ard",
      "ped estri",
      "cub a",
      "conf id",
      "f ish",
      "me lt",
      "ti v",
      "fo ll",
      "enjoy ing",
      "press ure",
      "th irst",
      "amaz ing",
      "te ens",
      "c as",
      "ti e",
      "dire ctions",
      "contro l",
      "author s",
      "hand s",
      "tri es",
      "mi gr",
      "descri bes",
      "ac ting",
      "tow ards",
      "pedestri ans",
      "um p",
      "like ly",
      "ous ly",
      "find s",
      "listen ing",
      "swi vel",
      "f it",
      "sp ent",
      "seem s",
      "ar ri",
      "environ ment",
      "lit er",
      "beaut iful",
      "en ces",
      "fe ll",
      "ro y",
      "allow s",
      "long er",
      "hun d",
      "stu dy",
      "a go",
      "he ld",
      "ex act",
      "ul ar",
      "c atch",
      "at or",
      "not ic",
      "girl s",
      "hund red",
      "c old",
      "n t",
      "ca used",
      "lot s",
      "blim p",
      "complete ly",
      "e ch",
      "read ers",
      "bas ed",
      "bur g",
      "ro lling",
      "im migr",
      "pict ure",
      ". '",
      "f lo",
      "de p",
      "gi ven",
      "bl ue",
      "blim ps",
      "jour ney",
      "t able",
      "mean ing",
      "websit e",
      "ent ire",
      "wor ry",
      "ac tiv",
      "can not",
      "scre en",
      "caps1 2",
      "spe ech",
      "cre ate",
      "caps1 3",
      "mom ent",
      "entertain ment",
      "b ot",
      "we ights",
      "d ar",
      "ate ly",
      "off end",
      "mi les",
      "nor m",
      "event ually",
      "pre s",
      "ser ious",
      "st ated",
      "sh o",
      "great ful",
      "coun t",
      "b ly",
      "p ain",
      "ban ned",
      "c ase",
      "r a",
      "hind en",
      "exc ited",
      "sub ject",
      "p ower",
      "li ved",
      "ri ble",
      "de cis",
      "think s",
      "dest roy",
      "hinden burg",
      "got ten",
      "smi th",
      "star ts",
      "f er",
      "ad ap",
      "ac cess",
      "fl ow",
      "star ting",
      "ener gy",
      "d a",
      "s our",
      "ris k",
      "m ask",
      "sp orts",
      "qu ite",
      "interest ing",
      "h on",
      "i an",
      "re sp",
      "any more",
      "ch all",
      "m pt",
      "s leep",
      "ca m",
      "au ght",
      "itt en",
      "pur pose",
      "doll ars",
      "al one",
      "lo ves",
      "ce le",
      "most ly",
      "explain s",
      "p li",
      "know n",
      "over come",
      "school s",
      "� .",
      "ic s",
      "co st",
      "streng then",
      "quick ly",
      "messa ge",
      "d ense",
      "g est",
      "m il",
      "to m",
      "pre vent",
      "person ally",
      "re cent",
      "gr am",
      "sit es",
      "pr oud",
      "allow ing",
      "ple ase",
      "hum an",
      "cele br",
      "w ar",
      "ap art",
      "found ation",
      "din ner",
      "cous in",
      "\" ,",
      "ful ly",
      "dri ve",
      "cal m",
      "over all",
      "fl u",
      "cens oring",
      "m ature",
      "re g",
      "me t",
      "sto pped",
      "s end",
      "in c",
      "li kes",
      "wr itten",
      "cult ures",
      "cle an",
      "ste el",
      "pie ce",
      "ac cept",
      "sa ve",
      "re la",
      "ac com",
      "sto ries",
      "great ly",
      "kind s",
      "sent ence",
      "sol ut",
      "m oo",
      "ri ed",
      "mem bers",
      "clo ser",
      "bab y",
      "dense ly",
      "em ot",
      "ck ed",
      "su it",
      "comfort able",
      "stree t",
      "c ul",
      "g as",
      "p hy",
      "ct ure",
      "pre ci",
      "show ing",
      "use ful",
      "un ity",
      "viol ence",
      "notic ed",
      "c li",
      "v ar",
      "bo ard",
      "spe ak",
      "typ ing",
      "rela x",
      "ca mp",
      "bus iness",
      "phy s",
      "re spe",
      "work s",
      "se as",
      "caps1 4",
      "jo kes",
      "s um",
      "pro ve",
      "des ign",
      "f ix",
      "ap rop",
      "num ber",
      "won t",
      "location 3",
      "person 4",
      "chang es",
      "col le",
      ". ,",
      "ca u",
      "conne ct",
      "teenag ers",
      "help ing",
      "let ter",
      "att ention",
      "find ing",
      "self less",
      "fore ver",
      "money 1",
      "ad m",
      "happ ens",
      "plac ed",
      "car ing",
      "moo red",
      "people s",
      "do g",
      "caps1 5",
      "p ing",
      "v owed",
      "be coming",
      "go ver",
      "ul ti",
      "stru gg",
      "month s",
      "vis ion",
      "atte mpt",
      "benef its",
      "n ation",
      "ou th",
      "bring s",
      "f ur",
      "m ess",
      "m ite",
      "s ight",
      "ie t",
      "tr ans",
      "dec ide",
      "i ves",
      "l ate",
      "on to",
      "bo red",
      "char ac",
      "birth day",
      "r ap",
      "ca ble",
      "de v",
      "c u",
      "k ur",
      "in ed",
      "is su",
      "be low",
      "ti ll",
      "teach ers",
      "gu ess",
      "immigr ants",
      "1 9",
      "p ot",
      "th ier",
      "with in",
      "pro gram",
      "ie ld",
      "date 2",
      "coun tries",
      "cau ght",
      "charac ter",
      "z y",
      "act ion",
      "sur round",
      "view s",
      "mask ie",
      "is ts",
      "pass ion",
      "streng th",
      "kur maskie",
      "k ill",
      "put ting",
      "gr ab",
      "jo ke",
      "dist ance",
      "reli g",
      "mor ning",
      "issu es",
      "c over",
      "f ig",
      "ex pe",
      "beli ef",
      "su d",
      "far away",
      "d ry",
      "r ace",
      "in flu",
      "though ts",
      "feeling s",
      "exp lo",
      "t w",
      "st air",
      "bu l",
      "qu iet",
      "song s",
      "appro ach",
      "sna ke",
      "j er",
      "ic es",
      "vis it",
      "sil ently",
      "imag ine",
      "d u",
      "se es",
      "there d",
      "l uck",
      "p ush",
      "ma ch",
      "snow s",
      "ear ly",
      "ro of",
      "exact ly",
      "doc tor",
      "six ty",
      "gh ts",
      "sp ir",
      "modif ic",
      "pass eng",
      "gre w",
      "h ar",
      "p as",
      "v ac",
      "y ose",
      "arm s",
      "chang ing",
      "respe ct",
      "ap preci",
      "no body",
      "dis agree",
      "video s",
      "yose mite",
      "sp ort",
      "contin u",
      "real ity",
      "second ly",
      "famili ar",
      "g es",
      "t aught",
      "se y",
      "am id",
      "scre am",
      "determin ed",
      "d s",
      "the s",
      "it ions",
      "im p",
      "inter acting",
      "sud den",
      "im possible",
      "what s",
      "mood s",
      "beli ev",
      "cont act",
      "flow ers",
      "hon est",
      "l er",
      "ha ven",
      "ci a",
      "b ing",
      "re am",
      "com mon",
      "id es",
      "ck s",
      "work ers",
      "clear ly",
      "mar cia",
      "w om",
      "gr at",
      "ap pe",
      "sto res",
      "cr az",
      "jer sey",
      "my space",
      "br ain",
      "big gest",
      "door s",
      "sy m",
      "addic ted",
      "le vel",
      "te le",
      "determin ation",
      "s or",
      "some where",
      "te ther",
      "il ar",
      "pr om",
      "liter ature",
      "passeng ers",
      "c ing",
      "is m",
      "tr ad",
      "didn t",
      "add ition",
      "sha re",
      "modific ations",
      "amid on",
      "is ed",
      "da ily",
      "ind i",
      "organiz ation",
      "ment ion",
      "sym bo",
      "l unch",
      "li f",
      "b oring",
      "f ield",
      "were n",
      "foll ow",
      "s w",
      "it al",
      "st ro",
      "ke e",
      "ab and",
      "qu ire",
      "part y",
      "was te",
      "pro jects",
      "him self",
      "spec ial",
      "wonder ful",
      "flo or",
      "! �",
      "a il",
      "con vers",
      "ob vi",
      "re moving",
      "me l",
      "wi de",
      "pr ints",
      "vel op",
      "contin ue",
      "s om",
      "t on",
      "ers on",
      "pro vide",
      "look s",
      "ru sh",
      "e ating",
      "p ul",
      "an ces",
      "deser ts",
      "inc reas",
      "suit able",
      "n one",
      "s li",
      "re es",
      "week s",
      "education al",
      "success ful",
      "stair s",
      "craz y",
      "k ather",
      "w ish",
      "fac ts",
      "down town",
      "percent 2",
      "! !",
      "i o",
      "l ap",
      "an im",
      "ren ce",
      "kather ine",
      "n ment",
      "s cen",
      "le st",
      "sh own",
      "wr ote",
      "b al",
      "some body",
      "thank s",
      "fur ther",
      "indi vid",
      "m outh",
      "re pe",
      "on ed",
      "pat erson",
      "concer n",
      "seas on",
      "a un",
      "i p",
      "s ci",
      "li z",
      "mo der",
      "itt ed",
      "a king",
      "b ought",
      "p ull",
      "ne cess",
      "let ting",
      "mil li",
      "re port",
      "be at",
      "off ice",
      "num 5",
      "conclu ded",
      "kee ps",
      "end less",
      "pl ants",
      "ct ing",
      "ser v",
      "g ar",
      "st er",
      "sp ot",
      "fin ish",
      "stru cture",
      "relation ships",
      "inv ol",
      "colle ge",
      "b ath",
      "c it",
      "g ing",
      "t ers",
      "li ked",
      "happen ing",
      "ele ct",
      "sour ce",
      "grat itude",
      "st ep",
      "se at",
      "law s",
      "bot t",
      "destroy ed",
      "individ ual",
      "g on",
      "s ort",
      "t all",
      "pr of",
      "watch ed",
      "ben if",
      "sur v",
      "hun g",
      "near ly",
      "vo ice",
      "fig ure",
      "pul led",
      "an k",
      "ter n",
      "hum or",
      "cry ing",
      "n on",
      "th row",
      "des p",
      "bl ack",
      "sha red",
      "topic s",
      "thirst y",
      "� �",
      "re w",
      "ar ing",
      "state ment",
      "imp act",
      "f ill",
      "sh ot",
      "pres ents",
      "s es",
      "every where",
      "hand le",
      "understand ing",
      "guy s",
      "i v",
      "i ate",
      "t ic",
      "own ers",
      "inst ant",
      "stay ing",
      "bor n",
      "exce pt",
      "m ine",
      "t one",
      "le y",
      "any where",
      "rel ative",
      "arri ved",
      "at ives",
      "it ing",
      "st em",
      "um ble",
      "sca red",
      "pli ed",
      "l ay",
      "m er",
      "in no",
      "re quire",
      "no vel",
      "patient s",
      "beli ve",
      "rest ri",
      "frame work",
      "ac tive",
      "am er",
      "pl us",
      "ev ents",
      "fac tory",
      "too l",
      "mind s",
      "road s",
      "blue prints",
      "decis ion",
      "surv ive",
      "ri c",
      "dang ling",
      "c ross",
      "o st",
      "ne ither",
      "work ed",
      "sy stem",
      "defin ition",
      "grad es",
      "stro ke",
      "a im",
      "ta il",
      "il t",
      "ass ign",
      "fin ished",
      "possi bly",
      "gl ass",
      "se ctions",
      "de velop",
      "cus tom",
      "add ed",
      "strong ly",
      "chall eng",
      "ex posed",
      "tr ust",
      "sex ual",
      "oc cur",
      "aband oned",
      "' .",
      "i ble",
      "home land",
      "keep ing",
      "stay ed",
      "belief s",
      "d ream",
      "t nam",
      "u d",
      "la zy",
      "part ic",
      "vie tnam",
      "ju ice",
      "blo om",
      "p ack",
      "t reat",
      "po st",
      "adv ice",
      "modif ied",
      "d am",
      "g ard",
      "st up",
      "gh ost",
      "de press",
      "ang ry",
      "pic ked",
      "ger man",
      "e ct",
      "r ad",
      "ce ll",
      "town s",
      "writ es",
      "grand ma",
      "constru ction",
      "activ ities",
      "cit iz",
      "d ou",
      "f ing",
      "hor rible",
      "cli ck",
      "gover nment",
      "pas sa",
      "bath room",
      "s ick",
      "sup posed",
      "gre g",
      "confid ence",
      "relig ion",
      "f at",
      "pr ote",
      "hang ing",
      "spec ific",
      "un safe",
      "nam ed",
      "gon na",
      "y ing",
      "me e",
      "ent ial",
      "when ever",
      "sp ire",
      "shelf s",
      "sup ply",
      "bus y",
      "passion ate",
      "dou b",
      "pe ace",
      "ic ial",
      "stu ck",
      "adap t",
      "trans m",
      "stup id",
      "h om",
      "s i",
      "there s",
      "sit y",
      "wo ke",
      "stand ing",
      "bas ically",
      "aprop riate",
      "b low",
      "u el",
      "w in",
      "ch ose",
      "wor ried",
      "de ep",
      "iz ing",
      "ag ed",
      "norm al",
      "strengthen ed",
      "c tive",
      "bu ilt",
      "fo cus",
      "inst ance",
      "slow ly",
      "vac ation",
      "greg ation",
      "ri ch",
      "thousand s",
      "travel ing",
      "as king",
      "he ight",
      "any body",
      "res ult",
      "tru ly",
      "passa ge",
      "ed s",
      "ca using",
      "ve y",
      "ob es",
      "str a",
      "popul ar",
      "e qu",
      "h ate",
      "wor st",
      "car s",
      "teach es",
      "moder n",
      "b a",
      "b at",
      "l ad",
      "s n",
      "s ed",
      "t u",
      "t ask",
      "ca uses",
      "te thered",
      "tr an",
      "clo thes",
      "exper ts",
      "trad ition",
      "t ough",
      "rel atives",
      "plan e",
      "resp ons",
      "im prove",
      "par ts",
      "obst ic",
      "situ ations",
      "emot ion",
      "p ath",
      "q ue",
      "z e",
      "in n",
      "for ce",
      "un less",
      "per i",
      "tru th",
      "s of",
      "en ed",
      "ut ion",
      "op port",
      "ple as",
      "dar k",
      "gard en",
      "ti m",
      "caps1 6",
      "cond itions",
      "grand mother",
      "tele vision",
      "c op",
      "l oud",
      "o id",
      "se ts",
      "ap point",
      "di ed",
      "pro vid",
      "bo x",
      "dif f",
      "open ed",
      "cous ins",
      "swe at",
      "g um",
      "th r",
      "ir t",
      "ies t",
      "nar r",
      "che er",
      "res our",
      "un i",
      "ex ers",
      "second s",
      "transm itted",
      "c hair",
      "she l",
      "off er",
      "la ke",
      "reach ed",
      "har sh",
      "peri od",
      "b and",
      "d ers",
      "n at",
      "wh ite",
      "eng ine",
      "descri bed",
      "experi ences",
      "quest ions",
      "pract ice",
      "advan ces",
      "val u",
      "convers ation",
      "\" ...",
      "b ase",
      "c king",
      "c lim",
      "s on",
      "re plied",
      "st ri",
      "ig no",
      "exc ers",
      "fail ing",
      "recent ly",
      "b right",
      "y le",
      "� ,",
      ".. .\"",
      "cr af",
      "rac ism",
      "obes ity",
      "c at",
      "r ate",
      "ur al",
      "em bar",
      "act ions",
      "rel ated",
      "comp any",
      "mee ting",
      "th rew",
      "ou l",
      "or s",
      "com ed",
      "um ped",
      "example s",
      "dri vers",
      "av oid",
      "harm ful",
      "so li",
      "te red",
      "pl ans",
      "pro du",
      "conclu de",
      "cor re",
      "ele ment",
      "doub t",
      "i ent",
      "are ly",
      "lo g",
      "au di",
      "our selves",
      "ang er",
      "ju d",
      "interest ed",
      "stra ight",
      "c ir",
      "dehydr ation",
      "st ick",
      "ic ul",
      "cor ding",
      "grou ps",
      "19 3",
      "aun t",
      "te ars",
      "gi gg",
      "sto od",
      "form ed",
      "sur pr",
      "av ail",
      "g n",
      "m ing",
      "s en",
      "off ends",
      "pro cess",
      "il ing",
      "benef icial",
      "? �",
      "f li",
      "g le",
      "l ines",
      "wind ow",
      "bur st",
      "swi m",
      ".... ....",
      "celebr ations",
      "program s",
      "a id",
      "g or",
      "m ix",
      "w ise",
      "ob ese",
      "wouldn t",
      "inclu ding",
      "tran sport",
      "re placed",
      "go al",
      "laugh s",
      "jo e",
      "m ulti",
      "o h",
      "com for",
      "ri ghts",
      "dr aw",
      "bro ke",
      "miss ed",
      "remind s",
      "anim als",
      "milli ons",
      "g oo",
      "is ing",
      "ad o",
      "adv ent",
      "hear ing",
      "apart ment",
      "f if",
      "f au",
      "h ide",
      "t went",
      "be comes",
      "ac cording",
      "de red",
      "str ange",
      "chat ting",
      "p ump",
      "r ating",
      "en ced",
      "ab solut",
      "check ed",
      "grand parents",
      "fight ing",
      "organization 3",
      "a h",
      "p un",
      "w an",
      "st ation",
      "se ven",
      "ch ed",
      "not ice",
      "want ing",
      "enjoy ed",
      "minut e",
      "selfless ly",
      "citiz ens",
      "ar gum",
      "fe ar",
      "ph ones",
      "shouldn t",
      "memor y",
      "ner v",
      "advan ta",
      "nation al",
      "partic ular",
      "corre ct",
      "c ure",
      "h es",
      "l ish",
      "s l",
      "mo or",
      "ro ll",
      "lo sing",
      "de ath",
      "ist ic",
      "web cam",
      "class es",
      "complain ing",
      "p age",
      "v ol",
      "ex tra",
      "te m",
      "off ense",
      "confid ent",
      "phys ical",
      "necess ary",
      "twent y",
      "a ver",
      "r ass",
      "ca p",
      "ma th",
      "de tail",
      "ear th",
      "h id",
      "y el",
      "ve red",
      "id ent",
      "iz ed",
      "doesn t",
      "sound s",
      "rad io",
      "b unch",
      "t rees",
      "in ation",
      "ma p",
      "ce ed",
      "pa pers",
      "mel ts",
      "it ive",
      "gi z",
      "sit e",
      "room s",
      "cr ash",
      "cur rent",
      "fort un",
      "tradition al",
      "b ag",
      "d augh",
      "k s",
      "m ot",
      "dock ed",
      "lea ves",
      "strong er",
      "daugh ter",
      "j ump",
      "we igh",
      "ay s",
      "for got",
      "will ing",
      "sk y",
      "boy s",
      "sol ve",
      "reg ular",
      "avail able",
      "s la",
      "w all",
      "ti ed",
      "lo ss",
      "pre p",
      "tow ard",
      "ser ve",
      "doc tors",
      "accom mo",
      "desp ite",
      "m s",
      "m ass",
      "s ist",
      "as pe",
      "sh ut",
      "un cle",
      "fac tor",
      "call ing",
      "fish ing",
      "b ility",
      "c ence",
      "r ust",
      "v ul",
      "or ig",
      "ri des",
      "ro le",
      "un healthy",
      "gr a",
      "tal lest",
      "tr ack",
      "mom ents",
      "su gg",
      "hum ans",
      "cas es",
      "goo gle",
      "orig in",
      "g un",
      "th us",
      "ac king",
      "ke ts",
      "person s",
      "ite ly",
      "less on",
      "fic tion",
      "influ ence",
      "obvi ously",
      "b ird",
      "d uc",
      "w it",
      "in ary",
      "read s",
      "children s",
      "dri ver",
      "bas ket",
      "dist r",
      "invol ved",
      "nerv ous",
      "yel led",
      "d ress",
      "f ong",
      "i ally",
      "i tor",
      "ad just",
      "any way",
      "fac es",
      "car ry",
      "teach ing",
      "prop er",
      "gre en",
      "k ward",
      "pp ing",
      "setting s",
      "sm art",
      "adv ance",
      "aw kward",
      "exp and",
      "tru ck",
      "rid icul",
      "gl ad",
      "var iety",
      "diff rent",
      "accommo date",
      "d ance",
      "e red",
      "g s",
      "i ca",
      "t v",
      "t ly",
      "t end",
      "t umble",
      "he av",
      "ru in",
      "exp lic",
      "conne ction",
      "accom pl",
      "cul inary",
      "benif it",
      "lad y",
      "st at",
      "gr ac",
      "fam ous",
      "sim ilar",
      "sup er",
      "miss ing",
      "transport ation",
      "aver age",
      "e ly",
      "ly ing",
      "had n",
      "friend ly",
      "foot ball",
      "stree ts",
      "mention ed",
      "embar rass",
      "- @",
      "as leep",
      "li b",
      "gr own",
      "graph ic",
      "dro ve",
      "gener ation",
      "concer ned",
      "explic it",
      "r on",
      "for ward",
      "op p",
      "ter y",
      "bu is",
      "librar ian",
      "min fong",
      "t ree",
      "th ir",
      "ch es",
      "con gregation",
      "ast ic",
      "patient ly",
      "sha pe",
      "sub jects",
      "drink ing",
      "sho es",
      "continu ed",
      "lap top",
      "b la",
      "se le",
      "we eds",
      "fore ign",
      "creat ing",
      "warm th",
      "heat stroke",
      "boy friend",
      "bes ides",
      "sca ry",
      "sor ry",
      "soli dar",
      "' ,",
      "e ight",
      "g ed",
      "k n",
      "o sity",
      "an e",
      "br a",
      "po or",
      "po ints",
      "ag re",
      "clo ck",
      "big ger",
      "stud ies",
      "por ts",
      "adm ir",
      "inno cence",
      "solidar ity",
      "ter rible",
      "defin itely",
      "narr ator",
      "sist ers",
      "b other",
      "b ond",
      "e tern",
      "er ing",
      "?? ??",
      "car d",
      "pass ing",
      "explain ed",
      "dire ction",
      "conf li",
      "phys ically",
      "sci ence",
      "fau lt",
      "k no",
      "t es",
      "you th",
      "me ll",
      "sto mach",
      "emp ty",
      "turn s",
      "lim ited",
      "main ly",
      "flam able",
      "sudden ly",
      "honest ly",
      "wom en",
      "symbo liz",
      "opport unity",
      "an no",
      "ar om",
      "bo at",
      "sk ill",
      "brother s",
      "care ers",
      "ball o",
      "ima gin",
      "artic les",
      "sum mer",
      "hung ry",
      "bat tery",
      "sof t",
      "igno re",
      "c ha",
      "j umped",
      "r and",
      "at ta",
      "for ced",
      "ti es",
      "fr ust",
      "qu al",
      "dis appoint",
      "activ ity",
      "expe ct",
      "f i",
      "ar ily",
      "tr ain",
      "co ach",
      "vi or",
      "each other",
      "grateful ness",
      "neighbor s",
      "major ity",
      "remind ed",
      "k illed",
      "m oun",
      "r om",
      "as ed",
      "al ing",
      "caps1 7",
      "caps1 8",
      "ye lling",
      "co vered",
      "high er",
      "che cking",
      "drop ped",
      "att itude",
      "shop ping",
      "bal ance",
      "buis ness",
      "l s",
      "s and",
      "re ly",
      "be le",
      "ent y",
      "aw are",
      "buy ing",
      "ref le",
      "b ri",
      "ac id",
      "au ther",
      "play s",
      "mem ber",
      "cr ack",
      "solut ion",
      "hom es",
      "basket ball",
      "lib ary",
      "b arely",
      "n ic",
      "en coun",
      "ro de",
      "pl enty",
      "diffe rence",
      "inst illed",
      "head ed",
      "field s",
      "nat ural",
      "admir ation",
      "b ill",
      "k er",
      "im press",
      "back drop",
      "ment al",
      "int ro",
      "gy m",
      "gener al",
      "surround ings",
      "c les",
      "t ons",
      "th ri",
      "al oud",
      "um ps",
      "em ent",
      "listen ed",
      "sacri fic",
      "challeng es",
      "dam age",
      "craf t",
      "v ow",
      "con v",
      "de ad",
      "pro ved",
      "turn ing",
      "bro ken",
      "begin s",
      "grand pa",
      "dest ination",
      "emot ions",
      "bott les",
      "multi ple",
      "l ab",
      "n ine",
      "w ood",
      "th reat",
      "re take",
      "er ous",
      "put s",
      "un k",
      "au r",
      "sa f",
      "num 6",
      "ie ve",
      "med i",
      "mis takes",
      "kill ing",
      "absolut ely",
      "tem per",
      "d iscus",
      "p red",
      "r or",
      "re ce",
      "re main",
      "en ge",
      "we ar",
      "ac count",
      "im patient",
      "sup pose",
      "hot el",
      "call s",
      "bre ath",
      "contain ed",
      "teenag er",
      "dep ends",
      "believ es",
      "wom an",
      "follow ing",
      "c ouch",
      "at ly",
      "be ach",
      "se ll",
      "ar gue",
      "ha z",
      "ro ck",
      "de f",
      "pro ves",
      "ye ll",
      "hundred s",
      "sw ing",
      "h all",
      "en c",
      "not e",
      "cond ition",
      "ext ended",
      "hur ting",
      "explain ing",
      "inv ent",
      "col or",
      "dep end",
      "' '",
      "b ills",
      "p ages",
      "t it",
      "in fo",
      "ri but",
      "cl aim",
      "per ate",
      "fun n",
      "ci vi",
      "rel ate",
      "smi led",
      "inclu ded",
      "foll owed",
      "further more",
      "tu be",
      "base ball",
      "jud ge",
      "d ies",
      "i or",
      "m ir",
      "re presents",
      "to t",
      "to ler",
      "it ter",
      "pr int",
      "lim its",
      "cr ow",
      "writ er",
      "cor dination",
      "sat is",
      "advan ced",
      "chall enge",
      "prevent ed",
      "spir it",
      "scream ing",
      "bird s",
      "etern ally",
      "d ic",
      "e th",
      "g ree",
      "s le",
      "as te",
      "un fortun",
      "sp o",
      "dr am",
      "leg s",
      "popul ation",
      "ru de",
      "pos es",
      "conne cted",
      "messa ging",
      "mis take",
      "norm ally",
      "grac ious",
      "p ac",
      "pe t",
      "any ways",
      "search ing",
      "inclu des",
      "strugg le",
      "rust y",
      "vul gar",
      "sugg est",
      "rand om",
      "b il",
      "d an",
      "m ouse",
      "p ool",
      "re present",
      "li er",
      "ver t",
      "sh irt",
      "some ones",
      "caps2 1",
      "descri be",
      "explo re",
      "tw itter",
      "luck y",
      "prote ct",
      "ba it",
      "wan na",
      "l led",
      "o s",
      "s mell",
      "en com",
      "ex ist",
      "sa ved",
      "ap p",
      "enjoy able",
      "hold ing",
      "courage ous",
      "som thing",
      "increas e",
      "g lo",
      "be cu",
      "ar k",
      "we ird",
      "so ld",
      "sh ar",
      "bu mp",
      "de b",
      "af f",
      "express ion",
      "f il",
      "l li",
      "sh ed",
      "am ing",
      "some time",
      "num erous",
      "star ing",
      "ho sp",
      "gener osity",
      "location 4",
      "pie ces",
      "decis ions",
      "g ent",
      "l oose",
      "ri ver",
      "ac ts",
      "um b",
      "library s",
      "than ked",
      "act ed",
      "wa ke",
      "important ly",
      "realiz es",
      "cho ices",
      "exp ensive",
      "messa ges",
      "incl ude",
      "accept able",
      "amer ica",
      "b oo",
      "d ess",
      "h ilar",
      "t ar",
      "al right",
      "of fe",
      "tow er",
      "today s",
      "med ic",
      "blo ck",
      "count less",
      "resp on",
      "elect ron",
      "audi ence",
      "- -",
      "c ial",
      "r out",
      "in y",
      "re m",
      "sp an",
      "sm iling",
      "dis cover",
      "gg ed",
      "gener ations",
      "amer ic",
      "obstic les",
      "argum ent",
      "arom as",
      "temper ature",
      "tot ally",
      "re le",
      "al i",
      "off ending",
      "dif fer",
      "approp iate",
      "short est",
      "ho le",
      "pack ed",
      "heav y",
      "bla me",
      "becu ase",
      "h ous",
      "the me",
      "us ual",
      "lo s",
      "ex ha",
      "ren ces",
      "des k",
      "deser ted",
      "hur st",
      "ear lier",
      "pur ch",
      "ele ven",
      "cross ed",
      "gra pe",
      "d ut",
      "i ans",
      "ly ric",
      "ma giz",
      "ful fill",
      "co ll",
      "hard ships",
      "net working",
      "sur vi",
      "plan ned",
      "comp u",
      "fall ing",
      "sna kes",
      "cu ri",
      "respons i",
      "lake hurst",
      "c and",
      "m all",
      "p ound",
      "y s",
      "st ating",
      "wi ch",
      "are s",
      "un ders",
      "fr aid",
      "de mon",
      "ap parent",
      "less ons",
      "effect ed",
      "mat ters",
      "weight ed",
      "encom passed",
      "dess er",
      "p an",
      "be ha",
      "be ating",
      "ar gu",
      "im medi",
      "eas e",
      "cur se",
      "hope fully",
      "cor ner",
      "doc um",
      "bre aking",
      "comp an",
      "por tr",
      "quick er",
      "sil ly",
      "hit ting",
      "swe et",
      "attempt ed",
      "valu able",
      "hilar ious",
      "f le",
      "t our",
      "t ast",
      "y ard",
      "al y",
      "we ak",
      "wi ld",
      "un ic",
      "but ton",
      "ef fort",
      "bl ind",
      "sur vey",
      "sk in",
      "obvi ous",
      "prof an",
      "advent ure",
      "accompl ish",
      "kn it",
      "b ound",
      "g ress",
      "z ed",
      "wh om",
      "gi ous",
      "ev ed",
      "pro hib",
      "ang ers",
      "dis aster",
      "suc ceed",
      "addic ting",
      "sever ance",
      "ra ised",
      "mot iv",
      ") ,",
      "a fraid",
      "at op",
      "er n",
      "er y",
      "ca red",
      "for th",
      "us age",
      "caps1 9",
      "ob serv",
      "hard ly",
      "clo sed",
      "kind a",
      "writ ers",
      "tra ve",
      "inv ention",
      "imag es",
      "cir c",
      "exha ust",
      "lyric s",
      "t wi",
      "t aste",
      "er a",
      "al ive",
      "om y",
      "every time",
      "art ist",
      "over weight",
      "ef fe",
      "dis cri",
      "pic king",
      "add ing",
      "pot ential",
      "continu es",
      "depress ed",
      "193 7",
      "confli ct",
      "p umps",
      "r am",
      "s ides",
      "it age",
      "sh es",
      "lo ck",
      "cycl ing",
      "per severance",
      "communic ating",
      "lead s",
      "cons um",
      "modif y",
      "sol ved",
      "contro vers",
      "relax ed",
      "fix ed",
      "lif est",
      "sci ent",
      "comfor ting",
      "shar p",
      "demon str",
      "d ir",
      "w at",
      "now here",
      "import ance",
      "su ff",
      "fre ind",
      "percent 3",
      "var ious",
      "scen e",
      "sla very",
      "e con",
      "f ant",
      "re ci",
      "se par",
      "ar ter",
      "com unic",
      "off ened",
      "person 5",
      "back ground",
      "certain ly",
      "interest s",
      "dire ct",
      "wonder ing",
      "grab bed",
      "bul lying",
      "repe ated",
      "mix ing",
      "span ish",
      "n ap",
      "st able",
      "ha ps",
      "ma g",
      "her itage",
      "iz z",
      "qu it",
      "cr uel",
      "posit ion",
      "dang ers",
      "care ful",
      "dist ur",
      "pa id",
      "sour ces",
      "custom s",
      "fing ers",
      "resour ce",
      "advanta ge",
      "n ames",
      "an n",
      "mov es",
      "cont ribut",
      "inst antly",
      "realiz ation",
      "plan ning",
      "research ing",
      "dev ice",
      "novel s",
      "uni que",
      "engine ers",
      "duc ed",
      "b ow",
      "g if",
      "i le",
      "es ome",
      "st yle",
      "op t",
      "out doors",
      "sh out",
      "ent ially",
      "ap o",
      "sto r",
      "cy ber",
      "tra il",
      "bre a",
      "vir t",
      "design ed",
      "tic kets",
      "detail s",
      "tumble weeds",
      ", @",
      "f u",
      "l ished",
      "s way",
      "u ps",
      "th o",
      "re c",
      "ed itor",
      "for gotten",
      "am ong",
      "ble s",
      "up d",
      "pers u",
      "ment ally",
      "air ship",
      "safe ly",
      "else where",
      "girl friend",
      "couldn t",
      "run s",
      "gg ing",
      "warm ing",
      "miss es",
      "mor row",
      "addic tion",
      "serious ly",
      "serv ice",
      "bott le",
      "require d",
      "peace ful",
      "prep ared",
      "hous es",
      "m ur",
      "in apropriate",
      "re ports",
      "com ments",
      "ad vert",
      "were d",
      "ure d",
      "sp read",
      "pro ven",
      "happ ier",
      "pre vi",
      "ph o",
      "wasn t",
      "bring ing",
      "descri bing",
      "contro ll",
      "constru cting",
      "consider ation",
      "inn apropriate",
      "bele ive",
      "hosp ital",
      "profan ity",
      "h ol",
      "m ic",
      "r ange",
      "s ize",
      "u le",
      "an ch",
      "se qu",
      "he ll",
      "op posit",
      "mo de",
      "un censored",
      "de gre",
      "aren t",
      "ire s",
      "per haps",
      "play er",
      "different ly",
      "ans wered",
      "hop ing",
      "cor r",
      "rac ist",
      "power ful",
      "rush ing",
      "medic ine",
      "immedi ately",
      "degre es",
      "h ook",
      "i th",
      "l at",
      "p ants",
      "t ex",
      "re cor",
      "be long",
      "you tube",
      "ti an",
      "de em",
      "gr ass",
      "il ly",
      "too d",
      "ment ions",
      "jo in",
      "soc cer",
      "ser ies",
      "bur n",
      "sad ness",
      "ima ge",
      "contain s",
      "frust rated",
      "encoun tered",
      "civi liz",
      "unders tood",
      "ab hor",
      "some things",
      "cycl ists",
      "ef fic",
      "ag er",
      "let ters",
      "na v",
      "bas is",
      "bas ic",
      "pay ing",
      "symbo l",
      "agre ed",
      "funn iest",
      "pho to",
      "f al",
      "h at",
      "t ant",
      "in spir",
      "to morrow",
      "or y",
      "be ac",
      "was ting",
      "ot es",
      "for d",
      "con vey",
      "po e",
      "reas e",
      "date 3",
      "add s",
      "bl ing",
      "cre am",
      "res ults",
      "pur poses",
      "key s",
      "constru cted",
      "wel come",
      "pli es",
      "war ning",
      "tall er",
      "treat ed",
      "provid es",
      "........ ........",
      "aspe ct",
      "dut ies",
      "lifest yle",
      "opposit e",
      "c up",
      "g ro",
      "p up",
      "s ending",
      "in cre",
      "re co",
      "en courage",
      "ca ke",
      "li e",
      "un fair",
      "ry s",
      "caps2 0",
      "ye ah",
      "ig ning",
      "dr ank",
      "sm oo",
      "ange les",
      "por ch",
      "wel coming",
      "si ps",
      "qual ity",
      "f light",
      "s c",
      "s pl",
      "s light",
      "is es",
      "be l",
      "oo sing",
      "op tion",
      "ab ly",
      "us ers",
      "un comfortable",
      "pro gress",
      "child ern",
      "air craft",
      "hope less",
      "exc iting",
      "sub st",
      "beaut y",
      "dep ending",
      "surround ing",
      "pull ing",
      "assign ment",
      "origin al",
      "c d",
      "d ating",
      "m ud",
      "s cent",
      "v an",
      "to ri",
      "al co",
      "es says",
      "st ared",
      "was h",
      "com b",
      "de er",
      "gible s",
      "act ual",
      "low er",
      "cr it",
      "pub lish",
      "const ant",
      "experi enced",
      "express es",
      "dest ined",
      "blo cked",
      "interact ion",
      "push ed",
      "scen es",
      "custom ers",
      "resour ces",
      "atta ched",
      "c ast",
      "f an",
      "f ro",
      "p air",
      "s orts",
      "w itch",
      "be red",
      "st ain",
      "ch r",
      "bu m",
      "br own",
      "dr ag",
      "dis appe",
      "rest aur",
      "head s",
      "dist ant",
      "hun ting",
      "cut e",
      "perfect ly",
      "appreci ation",
      "believ ed",
      "anno ying",
      "haz ard",
      "compan ies",
      "fle w",
      "repeated ly",
      "incre di",
      "f ied",
      "r ang",
      "s qu",
      "s cr",
      "es ca",
      "ca res",
      "ha b",
      "ch rys",
      "li bar",
      "li ghts",
      "we ther",
      "ens ion",
      "friend ships",
      "ess ential",
      "cy cle",
      "ag rees",
      "form s",
      "const it",
      "??? .",
      "aw esome",
      "decid es",
      "walk s",
      "express ed",
      "rac es",
      "strugg led",
      "wit ting",
      "smoo th",
      "chrys ler",
      "l one",
      "m as",
      "in spire",
      "be y",
      "un able",
      "affect ing",
      "sm arter",
      "hop es",
      "ped al",
      "cri ed",
      "class room",
      "view ed",
      "miss ion",
      "pain t",
      "lif es",
      "necess arily",
      "obstic le",
      "swim ming",
      "roll er",
      "ridicul ously",
      "unfortun ately",
      "effe ctive",
      "2 5",
      "d ent",
      "n ast",
      "p al",
      "at least",
      "to tal",
      "or ies",
      "ad ays",
      "sh aring",
      "am ed",
      "un ities",
      "un witting",
      "pers pe",
      "happ end",
      ".\" @",
      "organiz ed",
      "str angers",
      "gu ar",
      "ru les",
      "ste ps",
      "break fast",
      "study ing",
      "adap ting",
      "fing er",
      "tim ers",
      "moun tain",
      "pred ic",
      "25 0",
      "b ree",
      "f ash",
      "n ers",
      "s ence",
      "is on",
      "ir on",
      "sh y",
      "po le",
      "bo ss",
      "show er",
      "int ended",
      "fa ith",
      "pass es",
      "plant ing",
      "plan es",
      "bi ker",
      "educ ate",
      "sign ific",
      "key board",
      "ref uel",
      "sleep ing",
      "respons ible",
      "ado re",
      "beac use",
      "poe ple",
      "e igh",
      "m ly",
      "z ing",
      "re ve",
      "ch ing",
      "ch ances",
      "ri der",
      "ce p",
      "build er",
      "ire d",
      "set t",
      "fin an",
      "mat ur",
      "remem bered",
      "isn t",
      "conf used",
      "entertain ing",
      "wel comed",
      "pri ce",
      "bot tom",
      "figure d",
      "provid ed",
      "regular ly",
      "cand y",
      "twi ce",
      "unwitting ly",
      "a pers",
      "p u",
      "p izz",
      "to ps",
      "ch uck",
      "li ft",
      "un like",
      "go d",
      "by e",
      "po lit",
      "af ford",
      "pre fer",
      "air port",
      "ban ning",
      "193 0",
      "gor ge",
      "rating s",
      "symboliz es",
      "responsi bility",
      "portr ay",
      "reco gn",
      "alco hol",
      "it es",
      "be ll",
      "ch ur",
      "some how",
      "con sequ",
      "ob ject",
      "fac tors",
      "down load",
      "ag ing",
      "paragraph s",
      "hard est",
      "dis like",
      "technolo g",
      "gre ater",
      "reli ef",
      "archite ct",
      "oc cas",
      "fail ure",
      "ital ian",
      "repe at",
      "individual s",
      "restri ctions",
      "? '",
      "c ket",
      "f oul",
      "r as",
      "s co",
      "s oul",
      "st re",
      "some what",
      "num 7",
      "ist ics",
      "family s",
      "inform ed",
      "grate full",
      "conclu ding",
      "man aged",
      "view ing",
      "short cut",
      "whe el",
      "pri v",
      "ulti es",
      "pot entially",
      "scream ed",
      "occur red",
      "thr own",
      "desser t",
      "pizz a",
      "d umb",
      "m atch",
      "m ates",
      "s ens",
      "x es",
      "in front",
      "al t",
      "ch er",
      "fe ast",
      "ne c",
      "au to",
      "ant ic",
      "de ple",
      "off ens",
      "no on",
      "caps2 2",
      "iz es",
      "child s",
      "fac ing",
      "add ress",
      "unti ll",
      "sha ck",
      "educ ated",
      "sun ny",
      "mor al",
      "final y",
      "consider ing",
      "ator s",
      "cul tur",
      "camp ing",
      "appreci ate",
      "tool s",
      "shel ve",
      "clim ate",
      "surpr ised",
      "opp in",
      "rom ance",
      "anch or",
      "civiliz ation",
      "nav y",
      ". @",
      "p y",
      "x ious",
      "li ed",
      "ow s",
      "lo cked",
      "she ll",
      "pl ing",
      "de li",
      "des igning",
      "sch ed",
      "hy ster",
      "coun ter",
      "cho col",
      "teen age",
      "comp lic",
      "social ize",
      "diffic ulties",
      "sil ent",
      "sign s",
      "selfless ness",
      "expe cted",
      "influ enced",
      "milli on",
      "lay ing",
      "glass es",
      "dream s",
      "disappoint ed",
      "impress ed",
      "fash ion",
      ", '",
      "a ke",
      "b last",
      "f ights",
      "g ri",
      "w ed",
      "om ent",
      "ti ps",
      "ul ty",
      "po d",
      "loc ated",
      "emp has",
      "first ly",
      "real y",
      "spend s",
      "pub lished",
      "newsp apers",
      "lead ing",
      "mi le",
      "hold s",
      "trouble s",
      "luck ily",
      "rush ed",
      "spire s",
      "equ ip",
      "gigg le",
      "exhaust ed",
      "distur bing",
      "ann oun",
      "restaur ant",
      "constit ution",
      "gorge ous",
      "e li",
      "f ir",
      "r af",
      "s ess",
      "t ick",
      "v ary",
      "in ting",
      "al izing",
      "be c",
      "ad ed",
      "not es",
      "de fine",
      "other wise",
      "gi ant",
      "po li",
      "hi p",
      "graph y",
      "cus s",
      "spe aking",
      "int rest",
      "ext ent",
      "smi les",
      "plan et",
      "descri pt",
      "rac ial",
      "amoun ts",
      "wel ch",
      "reg ard",
      "respect ful",
      "sli de",
      "seat s",
      "inno cent",
      "fif teen",
      "advanta ges",
      "wall s",
      "dress ed",
      "ballo on",
      "invent ed",
      "dram a",
      "respon se",
      "beha vior",
      "trave lling",
      "freind s",
      "matur ity",
      "chur ch",
      "chocol ate",
      "c ities",
      "d at",
      "e ld",
      "m and",
      "p en",
      "p es",
      "p ride",
      "z ep",
      "se perate",
      "ve ment",
      "ch i",
      "we t",
      "op er",
      "now adays",
      "po ll",
      "af fic",
      "see k",
      "tr ash",
      "pre v",
      "pr ot",
      "dis covered",
      "reli gious",
      "reli eved",
      "email s",
      "char ge",
      "appro ve",
      "cam era",
      "!! !",
      "aspe cts",
      "ridicul ous",
      "thir ty",
      "sele ction",
      "dan cing",
      "bump y",
      "differ nt",
      "equip ment",
      "p itch",
      "or dered",
      "be ar",
      "se ve",
      "pe l",
      "ter ri",
      "te mp",
      "sto ps",
      "diri g",
      "co aster",
      "hand y",
      "gen re",
      "ring s",
      "bi king",
      "comple ted",
      "hor ror",
      "strugg les",
      "rap id",
      "anim al",
      "force ful",
      "ballo ons",
      "sacrific ed",
      "toler ant",
      "lat est",
      "cultur al",
      "k ick",
      "u ne",
      "in aprop",
      "be cas",
      "st age",
      "li es",
      "we aring",
      "ac cur",
      "sh oot",
      "un g",
      "ga ther",
      "gain ing",
      "int ense",
      "mp h",
      "cur sing",
      "land ed",
      "stress ed",
      "hur ry",
      "hum ble",
      "week end",
      "envir oment",
      "answ ers",
      "entire ly",
      "tic ket",
      "task s",
      "imagin ation",
      "intro duced",
      "tit le",
      "dir ty",
      "econ omy",
      "gif t",
      "fal se",
      "p ines",
      "p pling",
      "s ion",
      "en ing",
      "se cre",
      "ve i",
      "ch an",
      "gh ter",
      "ge ar",
      "ab use",
      "de ca",
      "sp r",
      "art ists",
      "tr affic",
      "fre qu",
      "personal ity",
      "drink s",
      "constru ct",
      "approach ed",
      "lif ting",
      "throw ing",
      "assign ed",
      "blow ing",
      "stri ct",
      "surpr ise",
      "mass ive",
      "embarrass ed",
      "tes ts",
      "spo ke",
      "esca pe",
      "lone ly",
      "nast y",
      ". )",
      "a while",
      "b s",
      "i ved",
      "k y",
      "m ous",
      "n ud",
      "p our",
      "p ure",
      "u ed",
      "y ed",
      "z z",
      "� ?",
      "re ply",
      "re fresh",
      "at tr",
      "he y",
      "ver se",
      "am ond",
      "sa ves",
      "ob tain",
      "gain ed",
      "self s",
      "dis played",
      "enjoy ment",
      "cr acking",
      "won dered",
      "realiz ing",
      "comp ared",
      "pa vement",
      "near by",
      "sound ed",
      "quiet ly",
      "push ing",
      "aun ts",
      "focus ed",
      "emotion al",
      "valu es",
      "comed y",
      "produ ct",
      "produ cts",
      "americ an",
      "purch ase",
      "curi ous",
      "observ ation",
      "tant alizing",
      "perspe ctive",
      "f ond",
      "g ate",
      "k iss",
      "n i",
      "p in",
      "s mo",
      "t ension",
      "v ic",
      "se cur",
      "se cure",
      "ri vers",
      "so da",
      "gr ant",
      "di an",
      "even ing",
      "fun ction",
      "spe ll",
      "point ed",
      "cri ppling",
      "ra ise",
      "speak er",
      "relig ions",
      "restri cted",
      "shel ter",
      "element ary",
      "wood s",
      "dic tion",
      "deb ate",
      "ram shack",
      "opt ions",
      "eli min",
      "l ink",
      "r ation",
      "t wel",
      "al tern",
      "se gregation",
      "com ment",
      "ion al",
      "if ied",
      "any time",
      "but t",
      "te eth",
      "his tori",
      "di amond",
      "ist ed",
      "sp in",
      "cer tian",
      "world s",
      "ask s",
      "sing ing",
      "hur ts",
      "diffic ulty",
      "celebr ate",
      "elect ri",
      "assign ments",
      "challeng ing",
      "conv in",
      "saf ty",
      "direct ly",
      "inspir ation",
      "subst ance",
      "becas ue",
      "c ate",
      "o be",
      "s us",
      "s ink",
      "y o",
      "re gre",
      "as ing",
      "al way",
      "se lling",
      "com pet",
      "pe e",
      "ter m",
      "bu st",
      "your s",
      "ty ped",
      "has n",
      "hard working",
      "point less",
      "head ing",
      "exper t",
      "cour aged",
      "remember ing",
      "inte lli",
      "hu g",
      "inv ited",
      "att ack",
      "char act",
      "bloom ing",
      "exers ize",
      "fi les",
      "twel ve",
      "( �",
      "d irt",
      "e c",
      "l or",
      "r ise",
      "u ct",
      "v ital",
      "be ca",
      "ar ies",
      "ic y",
      "use ing",
      "im m",
      "librar ians",
      "em ents",
      "life time",
      "ach ieve",
      "ain t",
      "real istic",
      "vi a",
      "car ter",
      "res on",
      "bi kes",
      "bur ning",
      "ste pped",
      "sil ence",
      "pres ident",
      "sum m",
      "mach ine",
      "bloom s",
      "crow ded",
      "ali ke",
      "fant astic",
      "tex ting",
      "stain less",
      "vei w",
      "charact ers",
      "k ne",
      "w hel",
      "w ars",
      "in ing",
      "at ic",
      "en or",
      "se m",
      "wi l",
      "ac cep",
      "fe rence",
      "ne at",
      "te ar",
      "own er",
      "wr ap",
      "jo ined",
      "dy ing",
      "su ic",
      "joy ful",
      "cent er",
      "ser ved",
      "cri me",
      "open ing",
      "cor n",
      "attemp ts",
      "dist rac",
      "pract ic",
      "hor ri",
      "four th",
      "fail s",
      "dev ast",
      "dev ices",
      "mach ines",
      "prom ise",
      "invol ve",
      "desp air",
      "expand ed",
      "bra ve",
      "offe red",
      "docum ents",
      "bree ze",
      "zep pel",
      "nud ity",
      "a ked",
      "b on",
      "d ull",
      "k ic",
      "s igh",
      "w ow",
      "er cial",
      "to y",
      "it led",
      "st al",
      "st ead",
      "pe ers",
      "do se",
      "sa ving",
      "te y",
      "librar ie",
      "pro ving",
      "play ers",
      "str ain",
      "house hold",
      "stand s",
      "bl ings",
      "ign or",
      "sure ly",
      "plant ed",
      "blo ss",
      "complain ed",
      "adm it",
      "ulti m",
      "concern s",
      "shot s",
      "comunic ate",
      "hell o",
      "secur ity",
      "histori cal",
      "b id",
      "h illy",
      "i pod",
      "n ative",
      "r s",
      "t in",
      "v ast",
      "an ced",
      "re ward",
      "li k",
      "oo ting",
      "ab il",
      "sto ped",
      "new ark",
      "pr in",
      "mom s",
      "dri ed",
      "gen res",
      "dis sa",
      "sk ate",
      "star s",
      "sac raf",
      "express ing",
      "negative ly",
      "mor als",
      "blo cks",
      "free ly",
      "present ed",
      "sho ck",
      "mil k",
      "seas ons",
      "surround ed",
      "floor s",
      "convers ations",
      "equ al",
      "pleas ure",
      "cop y",
      "pun cture",
      "argum ents",
      "hid ing",
      "prep are",
      "deem ed",
      "bey ond",
      "ramshack le",
      "bloss om",
      "g ust",
      "h ic",
      "p m",
      "s oo",
      "u me",
      "at s",
      "en vior",
      "for ty",
      "sh iny",
      "ge es",
      "ti re",
      "lo gy",
      "gr ants",
      "cl ue",
      "ob jects",
      "per mission",
      "fl aw",
      "car ds",
      "bl ond",
      "hope ful",
      "sha de",
      "bed room",
      "reli able",
      "excer cis",
      "mar k",
      "deal ing",
      "reach es",
      "dog s",
      "explo de",
      "si blings",
      "weigh ed",
      "origin ally",
      "stat istics",
      "thir teen",
      "app lic",
      "controvers ial",
      "separ ate",
      "brea the",
      "g ary",
      "h ated",
      "l am",
      "n es",
      "o le",
      "s ar",
      "s had",
      "in de",
      "re act",
      "st are",
      "st umble",
      "ar n",
      "ut s",
      "me als",
      "ac he",
      "my ster",
      "end ure",
      "up stairs",
      "de gree",
      "no ise",
      "caps2 4",
      "able s",
      "eng ines",
      "bad ly",
      "after noon",
      "fa ke",
      "dis play",
      "ban k",
      "man ner",
      "liter ally",
      "risk s",
      "clean ing",
      "mess ing",
      "spir its",
      "increas ed",
      "sn ack",
      "embarrass ing",
      "gent le",
      "magiz ines",
      "compu tors",
      "upd ated",
      "poli ce",
      "a gi",
      "d om",
      "f ence",
      "m it",
      "s ne",
      "en ess",
      "or din",
      "it ar",
      "ca b",
      "ca ut",
      "was ted",
      "wi fe",
      "ro cks",
      "ti ght",
      "un controll",
      "im proved",
      "ap por",
      "every ones",
      "over whel",
      "gan g",
      "diffe rences",
      "min or",
      "high est",
      "cre ation",
      "health ier",
      "possi bility",
      "av or",
      "hurt ful",
      "oc cup",
      "catch ing",
      "appreci ative",
      "increas ing",
      "excers ise",
      "earth qu",
      "prohib ited",
      "chr ome",
      "signific ant",
      "refuel ing",
      "enor mous",
      "* *",
      "c tors",
      "d ouble",
      "e ren",
      "j unk",
      "n s",
      "w w",
      "th ro",
      "in cident",
      "in appropiate",
      "re action",
      "re vol",
      "to ll",
      "en cing",
      "me th",
      "pe b",
      "ll ent",
      "ne l",
      "ter ms",
      "con tr",
      "sp ark",
      "bo dies",
      "comm ercial",
      "tri ck",
      "enjoy s",
      "cr ush",
      "yes ter",
      "deser ve",
      "main tain",
      "bud s",
      "mar ket",
      "ele v",
      "concer t",
      "thankful ness",
      "ref u",
      "benif its",
      "iv ity",
      "depress ing",
      "craf ts",
      "distr acted",
      "proper ly",
      "enc ive",
      "bil ities",
      "electron ics",
      "pound s",
      "tast ed",
      "suff er",
      "gro cer",
      "dat a",
      "a led",
      "b un",
      "c red",
      "f arm",
      "o re",
      "th ay",
      "in j",
      "en e",
      "le an",
      "ch ating",
      "me al",
      "com pe",
      "id ence",
      "sh ooting",
      "ent ered",
      "un predic",
      "get ing",
      "im ent",
      "caps2 3",
      "child eren",
      "par ties",
      "fl ash",
      "jo king",
      "ci ous",
      "man e",
      "dad s",
      "bi o",
      "att end",
      "freedom s",
      "por ches",
      "baby sit",
      "lap tops",
      "elect ric",
      "humor ous",
      "opport unities",
      "excers ize",
      "advent ures",
      "sky pe",
      "fil m",
      "circ led",
      "mur der",
      "advert is",
      "eigh teen",
      "descript ion",
      "accur ate",
      "cate gor",
      "1 0",
      "c oo",
      "c offe",
      "h ob",
      "l un",
      "p it",
      "r up",
      "t rem",
      "w ards",
      "re turned",
      "ed ge",
      "me tal",
      "com par",
      "ac cid",
      "pro duc",
      "mon itor",
      "wa ve",
      "air planes",
      "la be",
      "mem ior",
      "net works",
      "che ek",
      "care er",
      "soon er",
      "rain y",
      "six th",
      "reach ing",
      "contain ing",
      "team s",
      "val ue",
      "som ed",
      "depress ion",
      "appoint ment",
      "jump ing",
      "disappoint ment",
      "sacrific es",
      "rece ive",
      "glo be",
      "electron ic",
      "pan ic",
      "demonstr ation",
      "dent ist",
      "stre t",
      "diction ary",
      "yester day",
      "a le",
      "r ase",
      "t ure",
      "t ition",
      "“ @",
      "an xious",
      "re place",
      "as ting",
      "ke l",
      "if y",
      "end er",
      "ex pl",
      "con vi",
      "im ma",
      "de pri",
      "um st",
      "off encive",
      "their s",
      "libr a",
      "fl or",
      "cus sing",
      "hand ed",
      "wind y",
      "high way",
      "rel ates",
      "ten n",
      "cen cor",
      "comple tly",
      "inv o",
      "item ent",
      "gener ally",
      "ator y",
      "destroy ing",
      "clean ed",
      "gas es",
      "relax ing",
      "bul lied",
      "develop ed",
      "thr ought",
      "exers ise",
      "fif th",
      "intro du",
      "crow d",
      "motiv ation",
      "apo lo",
      "deca des",
      "e ars",
      "n ur",
      "p ond",
      "th a",
      "th in"
    ]
  }
}