{
  "version": "1.0",
  "truncation": null,
  "padding": null,
  "added_tokens": [
    {
      "id": 0,
      "content": "<PAD>",
      "single_word": false,
      "lstrip": false,
      "rstrip": false,
      "normalized": false,
      "special": true
    }
  ],
  "normalizer": {
    "type": "Lowercase"
  },
  "pre_tokenizer": {
    "type": "Whitespace"
  },
  "post_processor": null,
  "decoder": null,
  "model": {
    "type": "BPE",
    "dropout": null,
    "unk_token": null,
    "continuing_subword_prefix": null,
    "end_of_word_suffix": null,
    "fuse_unk": false,
    "vocab": {
      "<PAD>": 0,
      "\u001b": 1,
      "\u001d": 2,
      "!": 3,
      "\"": 4,
      "#": 5,
      "$": 6,
      "%": 7,
      "&": 8,
      "'": 9,
      "(": 10,
      ")": 11,
      "*": 12,
      "+": 13,
      ",": 14,
      "-": 15,
      ".": 16,
      "/": 17,
      "0": 18,
      "1": 19,
      "2": 20,
      "3": 21,
      "4": 22,
      "5": 23,
      "6": 24,
      "7": 25,
      "8": 26,
      "9": 27,
      ":": 28,
      ";": 29,
      "<": 30,
      "=": 31,
      ">": 32,
      "?": 33,
      "@": 34,
      "[": 35,
      "\\": 36,
      "]": 37,
      "^": 38,
      "_": 39,
      "`": 40,
      "a": 41,
      "b": 42,
      "c": 43,
      "d": 44,
      "e": 45,
      "f": 46,
      "g": 47,
      "h": 48,
      "i": 49,
      "j": 50,
      "k": 51,
      "l": 52,
      "m": 53,
      "n": 54,
      "o": 55,
      "p": 56,
      "q": 57,
      "r": 58,
      "s": 59,
      "t": 60,
      "u": 61,
      "v": 62,
      "w": 63,
      "x": 64,
      "y": 65,
      "z": 66,
      "{": 67,
      "|": 68,
      "}": 69,
      "~": 70,
      "th": 71,
      "the": 72,
      "in": 73,
      "an": 74,
      "re": 75,
      "er": 76,
      "ou": 77,
      "on": 78,
      "it": 79,
      "is": 80,
      "to": 81,
      "at": 82,
      "or": 83,
      "and": 84,
      "en": 85,
      "as": 86,
      "ing": 87,
      "ed": 88,
      "ll": 89,
      "es": 90,
      "ar": 91,
      "le": 92,
      "se": 93,
      "st": 94,
      "of": 95,
      "me": 96,
      "ch": 97,
      "ro": 98,
      "ve": 99,
      "for": 100,
      "you": 101,
      "al": 102,
      "ic": 103,
      "ad": 104,
      "wi": 105,
      "all": 106,
      "this": 107,
      "gh": 108,
      "be": 109,
      "lo": 110,
      "no": 111,
      "ct": 112,
      "ver": 113,
      "ly": 114,
      "wh": 115,
      "so": 116,
      "ut": 117,
      "id": 118,
      "co": 119,
      "we": 120,
      "out": 121,
      "that": 122,
      "with": 123,
      "li": 124,
      "ent": 125,
      "ke": 126,
      "my": 127,
      "ay": 128,
      "ha": 129,
      "go": 130,
      "one": 131,
      "us": 132,
      "ld": 133,
      "ion": 134,
      "ge": 135,
      "ght": 136,
      "ab": 137,
      "ac": 138,
      "was": 139,
      "mo": 140,
      "ri": 141,
      "are": 142,
      "do": 143,
      "ho": 144,
      "ne": 145,
      "but": 146,
      "fe": 147,
      "he": 148,
      "ter": 149,
      "un": 150,
      "have": 151,
      "not": 152,
      "ti": 153,
      "if": 154,
      "wor": 155,
      "am": 156,
      "ce": 157,
      "pe": 158,
      "ur": 159,
      "ir": 160,
      "pro": 161,
      "pl": 162,
      "ok": 163,
      "up": 164,
      "..": 165,
      "com": 166,
      "very": 167,
      "ry": 168,
      "de": 169,
      "ap": 170,
      "bo": 171,
      "use": 172,
      "con": 173,
      "ally": 174,
      "ther": 175,
      "ame": 176,
      "ust": 177,
      "gre": 178,
      "ex": 179,
      "ould": 180,
      "work": 181,
      "they": 182,
      "end": 183,
      "ta": 184,
      "great": 185,
      "od": 186,
      "int": 187,
      "can": 188,
      "ma": 189,
      "ice": 190,
      "get": 191,
      "qu": 192,
      "oun": 193,
      "po": 194,
      "like": 195,
      "ie": 196,
      "ul": 197,
      "just": 198,
      "rom": 199,
      "any": 200,
      "from": 201,
      "had": 202,
      "cle": 203,
      "uct": 204,
      "si": 205,
      "per": 206,
      "ide": 207,
      "ast": 208,
      "ure": 209,
      "ough": 210,
      "ack": 211,
      "able": 212,
      "your": 213,
      "good": 214,
      "when": 215,
      "some": 216,
      "vent": 217,
      "il": 218,
      "other": 219,
      "act": 220,
      "art": 221,
      "thing": 222,
      "them": 223,
      "ess": 224,
      "ant": 225,
      "ck": 226,
      "these": 227,
      "time": 228,
      "ds": 229,
      "tr": 230,
      "way": 231,
      "ag": 232,
      "will": 233,
      "dry": 234,
      "game": 235,
      "well": 236,
      "ble": 237,
      "bu": 238,
      "clean": 239,
      "pre": 240,
      "whi": 241,
      "would": 242,
      "em": 243,
      "what": 244,
      "did": 245,
      "sh": 246,
      "ig": 247,
      "est": 248,
      "duct": 249,
      "ers": 250,
      "fo": 251,
      "pr": 252,
      "our": 253,
      "ist": 254,
      "ple": 255,
      "now": 256,
      "ound": 257,
      "ain": 258,
      "fin": 259,
      "too": 260,
      "br": 261,
      "ear": 262,
      "ard": 263,
      "um": 264,
      "more": 265,
      "set": 266,
      "about": 267,
      "than": 268,
      "ong": 269,
      "ush": 270,
      "cl": 271,
      "has": 272,
      "ven": 273,
      "ill": 274,
      "there": 275,
      "dryer": 276,
      "read": 277,
      "wn": 278,
      "need": 279,
      "ate": 280,
      "sho": 281,
      "ty": 282,
      "lit": 283,
      "sc": 284,
      "eas": 285,
      "uch": 286,
      "light": 287,
      "side": 288,
      "vie": 289,
      "sa": 290,
      "ue": 291,
      "only": 292,
      "really": 293,
      "im": 294,
      "ity": 295,
      "pp": 296,
      "product": 297,
      "love": 298,
      "ph": 299,
      "ite": 300,
      "lint": 301,
      "sp": 302,
      "ick": 303,
      "af": 304,
      "dri": 305,
      "sto": 306,
      "play": 307,
      "ink": 308,
      "its": 309,
      "te": 310,
      "over": 311,
      "ep": 312,
      "fir": 313,
      "ought": 314,
      "red": 315,
      "ation": 316,
      "tle": 317,
      "book": 318,
      "...": 319,
      "low": 320,
      "then": 321,
      "does": 322,
      "ight": 323,
      "bl": 324,
      "ive": 325,
      "don": 326,
      "back": 327,
      "ca": 328,
      "by": 329,
      "first": 330,
      "ting": 331,
      "ull": 332,
      "wo": 333,
      "look": 334,
      "clo": 335,
      "ren": 336,
      "et": 337,
      "works": 338,
      "der": 339,
      "into": 340,
      "much": 341,
      "got": 342,
      "bet": 343,
      "used": 344,
      "little": 345,
      "right": 346,
      "urn": 347,
      "year": 348,
      "fect": 349,
      "!!": 350,
      "ase": 351,
      "av": 352,
      "which": 353,
      "ine": 354,
      "gr": 355,
      "ach": 356,
      "hand": 357,
      "el": 358,
      "str": 359,
      "most": 360,
      "ts": 361,
      "off": 362,
      "every": 363,
      "want": 364,
      "cause": 365,
      "ment": 366,
      "ade": 367,
      "new": 368,
      "turn": 369,
      "again": 370,
      "air": 371,
      "jo": 372,
      "dis": 373,
      "even": 374,
      "char": 375,
      "were": 376,
      "ction": 377,
      "man": 378,
      "drill": 379,
      "who": 380,
      "didn": 381,
      "long": 382,
      "ser": 383,
      "because": 384,
      "atch": 385,
      "ace": 386,
      "day": 387,
      "az": 388,
      "res": 389,
      "rough": 390,
      "also": 391,
      "ies": 392,
      "ort": 393,
      "buy": 394,
      "comm": 395,
      "ass": 396,
      "after": 397,
      "still": 398,
      "been": 399,
      "phone": 400,
      "00": 401,
      "brush": 402,
      "through": 403,
      "bought": 404,
      "igh": 405,
      "ind": 406,
      "ater": 407,
      "view": 408,
      "car": 409,
      "perfect": 410,
      "op": 411,
      "put": 412,
      "rods": 413,
      "sm": 414,
      "pur": 415,
      "using": 416,
      "mar": 417,
      "easy": 418,
      "sup": 419,
      "les": 420,
      "price": 421,
      "ze": 422,
      "keep": 423,
      "ality": 424,
      "better": 425,
      "nice": 426,
      "ves": 427,
      "age": 428,
      "ps": 429,
      "less": 430,
      "ous": 431,
      "head": 432,
      "tim": 433,
      "ise": 434,
      "how": 435,
      "ving": 436,
      "old": 437,
      "ved": 438,
      "rod": 439,
      "quality": 440,
      "tor": 441,
      "lor": 442,
      "ol": 443,
      "high": 444,
      "ouse": 445,
      "dif": 446,
      "ance": 447,
      "ak": 448,
      "scre": 449,
      "fun": 450,
      "spe": 451,
      "could": 452,
      "make": 453,
      "review": 454,
      "house": 455,
      "think": 456,
      "des": 457,
      "sion": 458,
      "sure": 459,
      "min": 460,
      "down": 461,
      "lot": 462,
      "while": 463,
      "ber": 464,
      "her": 465,
      "fore": 466,
      "color": 467,
      "each": 468,
      "table": 469,
      "two": 470,
      "years": 471,
      "small": 472,
      "vel": 473,
      "purch": 474,
      "going": 475,
      "ually": 476,
      "atter": 477,
      "his": 478,
      "start": 479,
      "fit": 480,
      "came": 481,
      "ere": 482,
      "last": 483,
      "she": 484,
      "part": 485,
      "commend": 486,
      "run": 487,
      "pi": 488,
      "see": 489,
      "recommend": 490,
      "ot": 491,
      "kes": 492,
      "made": 493,
      ").": 494,
      "che": 495,
      "feren": 496,
      "su": 497,
      "au": 498,
      "times": 499,
      "pt": 500,
      "blem": 501,
      "problem": 502,
      "di": 503,
      "ily": 504,
      "happ": 505,
      "mon": 506,
      "come": 507,
      "ful": 508,
      "wr": 509,
      "ten": 510,
      "tach": 511,
      "add": 512,
      "ose": 513,
      "best": 514,
      "before": 515,
      "tri": 516,
      "son": 517,
      "attach": 518,
      "ci": 519,
      "king": 520,
      "cleaning": 521,
      "pret": 522,
      "ish": 523,
      "sim": 524,
      "cut": 525,
      "cr": 526,
      "vac": 527,
      "ang": 528,
      "bro": 529,
      "amaz": 530,
      "ased": 531,
      "should": 532,
      "another": 533,
      "pretty": 534,
      "many": 535,
      "take": 536,
      "stu": 537,
      "aw": 538,
      "bit": 539,
      "ars": 540,
      "band": 541,
      "though": 542,
      "full": 543,
      "big": 544,
      "know": 545,
      "gu": 546,
      "size": 547,
      "ways": 548,
      "differen": 549,
      "ably": 550,
      "secon": 551,
      "ning": 552,
      "around": 553,
      "pos": 554,
      "ever": 555,
      "gam": 556,
      "ree": 557,
      "comfor": 558,
      "pres": 559,
      "enough": 560,
      "push": 561,
      "cont": 562,
      "ated": 563,
      "never": 564,
      "sel": 565,
      "hel": 566,
      "seem": 567,
      "ger": 568,
      "astic": 569,
      "few": 570,
      "om": 571,
      "their": 572,
      "10": 573,
      "hard": 574,
      "where": 575,
      "inside": 576,
      "exce": 577,
      "batter": 578,
      "find": 579,
      "kit": 580,
      "sin": 581,
      "say": 582,
      "pect": 583,
      "pipe": 584,
      "watch": 585,
      "pull": 586,
      "ans": 587,
      "since": 588,
      "uction": 589,
      "without": 590,
      "movie": 591,
      "lar": 592,
      "ount": 593,
      "wer": 594,
      "ics": 595,
      "dog": 596,
      "actually": 597,
      "ub": 598,
      "always": 599,
      "doesn": 600,
      "tra": 601,
      "sur": 602,
      "ff": 603,
      "ious": 604,
      "sol": 605,
      "fi": 606,
      "line": 607,
      "wise": 608,
      "may": 609,
      "ton": 610,
      "own": 611,
      "pie": 612,
      "won": 613,
      "self": 614,
      "inst": 615,
      "ary": 616,
      "fil": 617,
      "blow": 618,
      "same": 619,
      "howe": 620,
      "however": 621,
      "ical": 622,
      "port": 623,
      "fl": 624,
      "screw": 625,
      "games": 626,
      "outside": 627,
      "month": 628,
      "conne": 629,
      "cess": 630,
      "mas": 631,
      "ture": 632,
      "ow": 633,
      "prob": 634,
      "gg": 635,
      "try": 636,
      "struction": 637,
      "probably": 638,
      "both": 639,
      "wear": 640,
      "comp": 641,
      "box": 642,
      "different": 643,
      "expect": 644,
      "gl": 645,
      "point": 646,
      "things": 647,
      "case": 648,
      "cor": 649,
      "quick": 650,
      "found": 651,
      "feel": 652,
      "hold": 653,
      "ual": 654,
      "being": 655,
      "might": 656,
      "pic": 657,
      "ition": 658,
      "second": 659,
      "iss": 660,
      "once": 661,
      "--": 662,
      "fr": 663,
      "comfortable": 664,
      "ible": 665,
      "cent": 666,
      "those": 667,
      "stand": 668,
      "headset": 669,
      "vice": 670,
      "tal": 671,
      "pli": 672,
      "tom": 673,
      "needed": 674,
      "tain": 675,
      "ces": 676,
      "war": 677,
      "cre": 678,
      "class": 679,
      "repl": 680,
      "move": 681,
      "bad": 682,
      "power": 683,
      "happy": 684,
      "something": 685,
      "ones": 686,
      "ating": 687,
      "lock": 688,
      "kind": 689,
      "peo": 690,
      "people": 691,
      "form": 692,
      "battery": 693,
      "clock": 694,
      "here": 695,
      "far": 696,
      "ks": 697,
      "ial": 698,
      "ls": 699,
      "bs": 700,
      "hour": 701,
      "section": 702,
      "amazon": 703,
      "tape": 704,
      "fle": 705,
      "top": 706,
      "help": 707,
      "20": 708,
      "je": 709,
      "istance": 710,
      "pa": 711,
      "ket": 712,
      "worked": 713,
      "pen": 714,
      "life": 715,
      "cheap": 716,
      "clockwise": 717,
      "turned": 718,
      "sy": 719,
      "foot": 720,
      "nook": 721,
      "shoes": 722,
      "heav": 723,
      "mode": 724,
      "ra": 725,
      "ash": 726,
      "call": 727,
      "cover": 728,
      "dy": 729,
      "picture": 730,
      "version": 731,
      "kid": 732,
      "dur": 733,
      "super": 734,
      "story": 735,
      "makes": 736,
      "att": 737,
      "under": 738,
      "him": 739,
      "toge": 740,
      "gi": 741,
      "together": 742,
      "eng": 743,
      "large": 744,
      "ele": 745,
      "cou": 746,
      "resistance": 747,
      "oney": 748,
      "ign": 749,
      "speed": 750,
      "cons": 751,
      "sound": 752,
      "clu": 753,
      "bre": 754,
      "fine": 755,
      "til": 756,
      "fully": 757,
      "mem": 758,
      "worth": 759,
      "looking": 760,
      "getting": 761,
      "ason": 762,
      "give": 763,
      "cho": 764,
      "charact": 765,
      "toy": 766,
      "icul": 767,
      "level": 768,
      "money": 769,
      "tight": 770,
      "excell": 771,
      "attached": 772,
      "tw": 773,
      "item": 774,
      "job": 775,
      "open": 776,
      "clut": 777,
      "),": 778,
      "inclu": 779,
      "loves": 780,
      "pair": 781,
      "excellent": 782,
      "joy": 783,
      "order": 784,
      "couple": 785,
      "clutch": 786,
      "pack": 787,
      "fast": 788,
      "ence": 789,
      "real": 790,
      "ends": 791,
      "ft": 792,
      "said": 793,
      "num": 794,
      "purchased": 795,
      "pped": 796,
      "defin": 797,
      "plastic": 798,
      "went": 799,
      "vide": 800,
      "ately": 801,
      "cli": 802,
      "purchase": 803,
      "ni": 804,
      "connect": 805,
      "coll": 806,
      "saw": 807,
      "until": 808,
      "sing": 809,
      "flex": 810,
      "ature": 811,
      "comes": 812,
      "ange": 813,
      "ween": 814,
      "store": 815,
      "bul": 816,
      "thought": 817,
      "isn": 818,
      "mag": 819,
      "against": 820,
      "having": 821,
      "sen": 822,
      "orig": 823,
      "win": 824,
      "working": 825,
      "quite": 826,
      "origin": 827,
      "books": 828,
      "dr": 829,
      "ier": 830,
      "ner": 831,
      "weight": 832,
      "broke": 833,
      "enjoy": 834,
      "design": 835,
      "home": 836,
      "ip": 837,
      "short": 838,
      "coming": 839,
      "64": 840,
      "blue": 841,
      "tion": 842,
      "ild": 843,
      "ss": 844,
      "io": 845,
      "room": 846,
      "done": 847,
      "tre": 848,
      "hal": 849,
      "....": 850,
      "aph": 851,
      "wall": 852,
      "days": 853,
      "fact": 854,
      "screen": 855,
      "led": 856,
      "rece": 857,
      "hook": 858,
      "extra": 859,
      "why": 860,
      "med": 861,
      "cy": 862,
      "free": 863,
      "ient": 864,
      "show": 865,
      "minut": 866,
      "graph": 867,
      "bright": 868,
      "likely": 869,
      "world": 870,
      "fri": 871,
      "pping": 872,
      "tv": 873,
      "clear": 874,
      "xt": 875,
      "wanted": 876,
      "away": 877,
      "reviews": 878,
      "let": 879,
      "fig": 880,
      "water": 881,
      "heavy": 882,
      "list": 883,
      "dire": 884,
      "film": 885,
      "slow": 886,
      "must": 887,
      "feet": 888,
      "uck": 889,
      "ending": 890,
      "gen": 891,
      "cal": 892,
      "wee": 893,
      "row": 894,
      "everything": 895,
      "such": 896,
      "fav": 897,
      "vis": 898,
      "months": 899,
      "sive": 900,
      "piece": 901,
      "definite": 902,
      "ats": 903,
      "ically": 904,
      "easily": 905,
      "stuff": 906,
      "face": 907,
      "val": 908,
      "almost": 909,
      "ident": 910,
      "la": 911,
      "unit": 912,
      "series": 913,
      "contro": 914,
      "video": 915,
      "=\"": 916,
      "etc": 917,
      "ided": 918,
      "yes": 919,
      "tried": 920,
      "ked": 921,
      "ged": 922,
      "making": 923,
      "simple": 924,
      "hit": 925,
      "compl": 926,
      "aper": 927,
      "definitely": 928,
      "ave": 929,
      "aren": 930,
      "tub": 931,
      "ob": 932,
      "between": 933,
      "replac": 934,
      "kids": 935,
      "bas": 936,
      "seems": 937,
      "favor": 938,
      "instruction": 939,
      "looks": 940,
      "ments": 941,
      "link": 942,
      "half": 943,
      "iced": 944,
      "sever": 945,
      "ready": 946,
      "original": 947,
      "overall": 948,
      "hours": 949,
      "wal": 950,
      "several": 951,
      "amer": 952,
      "200": 953,
      "cer": 954,
      "19": 955,
      "ail": 956,
      "expected": 957,
      "dered": 958,
      "50": 959,
      "install": 960,
      "flexible": 961,
      "beg": 962,
      "solut": 963,
      "number": 964,
      "key": 965,
      "shop": 966,
      "ject": 967,
      "ken": 968,
      "que": 969,
      "due": 970,
      "paper": 971,
      "itch": 972,
      "**": 973,
      "stick": 974,
      "feature": 975,
      "ages": 976,
      "rout": 977,
      "exact": 978,
      "mus": 979,
      "ath": 980,
      "minutes": 981,
      "vol": 982,
      "fam": 983,
      "wa": 984,
      "tell": 985,
      "reason": 986,
      "person": 987,
      "hu": 988,
      "dec": 989,
      "stars": 990,
      "colors": 991,
      "tubing": 992,
      "dust": 993,
      "perfectly": 994,
      "reading": 995,
      "ins": 996,
      "ift": 997,
      "eater": 998,
      "loved": 999,
      "comple": 1000,
      "wasn": 1001,
      "inter": 1002,
      "bed": 1003,
      "ply": 1004,
      "par": 1005,
      "ordered": 1006,
      "gets": 1007,
      "cur": 1008,
      "fan": 1009,
      "vacu": 1010,
      "vacuum": 1011,
      "ctr": 1012,
      "bot": 1013,
      "ted": 1014,
      "bands": 1015,
      "ped": 1016,
      "cost": 1017,
      "place": 1018,
      "plan": 1019,
      "ides": 1020,
      "sit": 1021,
      "cially": 1022,
      "star": 1023,
      "pictures": 1024,
      "graphics": 1025,
      "ations": 1026,
      "during": 1027,
      "llow": 1028,
      "highly": 1029,
      "black": 1030,
      "stem": 1031,
      "doing": 1032,
      "electr": 1033,
      "ome": 1034,
      "took": 1035,
      "sw": 1036,
      "happen": 1037,
      "espe": 1038,
      "least": 1039,
      "iz": 1040,
      "pay": 1041,
      "especially": 1042,
      "ness": 1043,
      "sl": 1044,
      "thank": 1045,
      "tighten": 1046,
      "card": 1047,
      "yet": 1048,
      "save": 1049,
      "favorite": 1050,
      "ago": 1051,
      "pri": 1052,
      "nor": 1053,
      "break": 1054,
      "system": 1055,
      "maybe": 1056,
      "bir": 1057,
      "easier": 1058,
      "next": 1059,
      "fits": 1060,
      "esome": 1061,
      "tool": 1062,
      "setting": 1063,
      "colle": 1064,
      "peri": 1065,
      "vi": 1066,
      "figure": 1067,
      "ug": 1068,
      "four": 1069,
      "ular": 1070,
      "bend": 1071,
      "button": 1072,
      "anyone": 1073,
      "load": 1074,
      "cri": 1075,
      "wish": 1076,
      "awesome": 1077,
      "arch": 1078,
      "contin": 1079,
      "ced": 1080,
      "fant": 1081,
      "aught": 1082,
      "chr": 1083,
      "var": 1084,
      "longer": 1085,
      "cool": 1086,
      "thats": 1087,
      "litter": 1088,
      "safe": 1089,
      "ility": 1090,
      "flo": 1091,
      "gn": 1092,
      "shoe": 1093,
      "cute": 1094,
      "wonder": 1095,
      "ref": 1096,
      "apart": 1097,
      "already": 1098,
      "vo": 1099,
      "takes": 1100,
      "iously": 1101,
      "oo": 1102,
      "three": 1103,
      "pass": 1104,
      "net": 1105,
      "characters": 1106,
      "pulling": 1107,
      "tension": 1108,
      "anything": 1109,
      "writ": 1110,
      "sof": 1111,
      "manual": 1112,
      "someone": 1113,
      "ilt": 1114,
      "cket": 1115,
      "ste": 1116,
      "por": 1117,
      "ward": 1118,
      "12": 1119,
      "lam": 1120,
      "cook": 1121,
      "lt": 1122,
      "ement": 1123,
      "music": 1124,
      "huge": 1125,
      "reg": 1126,
      "ire": 1127,
      "pushed": 1128,
      "problems": 1129,
      "amazing": 1130,
      "exactly": 1131,
      "absolut": 1132,
      "mess": 1133,
      "left": 1134,
      "hands": 1135,
      "pieces": 1136,
      "shi": 1137,
      "type": 1138,
      "mount": 1139,
      "tu": 1140,
      "lim": 1141,
      "ared": 1142,
      "ef": 1143,
      "night": 1144,
      "24": 1145,
      "ised": 1146,
      "gy": 1147,
      "absolute": 1148,
      "action": 1149,
      "close": 1150,
      "rid": 1151,
      "cap": 1152,
      "else": 1153,
      "daught": 1154,
      "mater": 1155,
      "ings": 1156,
      "charge": 1157,
      "blower": 1158,
      "glad": 1159,
      "quickly": 1160,
      "wash": 1161,
      "ither": 1162,
      "knew": 1163,
      "started": 1164,
      "force": 1165,
      "bag": 1166,
      "running": 1167,
      "ctor": 1168,
      "cks": 1169,
      "past": 1170,
      "inser": 1171,
      "arn": 1172,
      "catch": 1173,
      "lose": 1174,
      "ended": 1175,
      "sk": 1176,
      "mario": 1177,
      "fall": 1178,
      "ouch": 1179,
      "device": 1180,
      "bottom": 1181,
      "youve": 1182,
      "project": 1183,
      "played": 1184,
      "true": 1185,
      "oc": 1186,
      "amount": 1187,
      "deal": 1188,
      "ider": 1189,
      "thread": 1190,
      "diff": 1191,
      "tooth": 1192,
      "linteater": 1193,
      "family": 1194,
      "ative": 1195,
      "smaller": 1196,
      "azy": 1197,
      "sha": 1198,
      "goes": 1199,
      "recei": 1200,
      "lots": 1201,
      "guide": 1202,
      "requ": 1203,
      "fort": 1204,
      "child": 1205,
      "built": 1206,
      "mi": 1207,
      "door": 1208,
      "complete": 1209,
      "cus": 1210,
      "handy": 1211,
      "expen": 1212,
      "strong": 1213,
      "ctions": 1214,
      "material": 1215,
      "stay": 1216,
      "near": 1217,
      "arri": 1218,
      "kept": 1219,
      "mark": 1220,
      "wood": 1221,
      "fair": 1222,
      "finally": 1223,
      "cord": 1224,
      "plus": 1225,
      "brand": 1226,
      "!!!": 1227,
      "pes": 1228,
      "fantastic": 1229,
      "note": 1230,
      "tail": 1231,
      "buying": 1232,
      "adjust": 1233,
      "pot": 1234,
      "classic": 1235,
      "solid": 1236,
      "daughter": 1237,
      "switch": 1238,
      "cant": 1239,
      "aut": 1240,
      "twist": 1241,
      "gift": 1242,
      "recent": 1243,
      "sty": 1244,
      "possi": 1245,
      "couldn": 1246,
      "playing": 1247,
      "service": 1248,
      "paint": 1249,
      "extension": 1250,
      "descri": 1251,
      "thor": 1252,
      "tap": 1253,
      "ask": 1254,
      "mask": 1255,
      "ead": 1256,
      "ates": 1257,
      "member": 1258,
      "smo": 1259,
      "ads": 1260,
      "allow": 1261,
      "hope": 1262,
      "expensive": 1263,
      "instead": 1264,
      "absolutely": 1265,
      "fac": 1266,
      "beaut": 1267,
      "added": 1268,
      "miss": 1269,
      "stur": 1270,
      "difficul": 1271,
      "disap": 1272,
      "nothing": 1273,
      "others": 1274,
      "iv": 1275,
      "mb": 1276,
      "surpr": 1277,
      "cycle": 1278,
      "block": 1279,
      "includ": 1280,
      "ye": 1281,
      "ters": 1282,
      "sign": 1283,
      "bluetooth": 1284,
      "christ": 1285,
      "15": 1286,
      "either": 1287,
      "wait": 1288,
      "beat": 1289,
      "wouldn": 1290,
      "care": 1291,
      "touch": 1292,
      "issue": 1293,
      "although": 1294,
      "spin": 1295,
      "board": 1296,
      "kindle": 1297,
      "100": 1298,
      "==": 1299,
      "sat": 1300,
      "cable": 1301,
      "thes": 1302,
      "ult": 1303,
      "date": 1304,
      "support": 1305,
      "follow": 1306,
      "norm": 1307,
      "leng": 1308,
      "ption": 1309,
      "ior": 1310,
      "lie": 1311,
      "week": 1312,
      "insert": 1313,
      "ys": 1314,
      "remove": 1315,
      "process": 1316,
      "yourself": 1317,
      "safety": 1318,
      "floor": 1319,
      "length": 1320,
      "pick": 1321,
      "christmas": 1322,
      "washer": 1323,
      "sturdy": 1324,
      "cour": 1325,
      "conven": 1326,
      "whole": 1327,
      "beautif": 1328,
      "clothes": 1329,
      "cial": 1330,
      "aining": 1331,
      "replacement": 1332,
      "fly": 1333,
      "fight": 1334,
      "80": 1335,
      "bulbs": 1336,
      "bi": 1337,
      "cro": 1338,
      "ounds": 1339,
      "remember": 1340,
      "cleaned": 1341,
      "electrical": 1342,
      "ping": 1343,
      "sed": 1344,
      "return": 1345,
      "sell": 1346,
      "dir": 1347,
      "moto": 1348,
      "recently": 1349,
      "inten": 1350,
      "seen": 1351,
      "disconnect": 1352,
      "recommended": 1353,
      "simply": 1354,
      "sense": 1355,
      "main": 1356,
      "trying": 1357,
      "chall": 1358,
      "siz": 1359,
      "value": 1360,
      "begin": 1361,
      "ny": 1362,
      "decided": 1363,
      "disappoint": 1364,
      "map": 1365,
      "pliers": 1366,
      "ons": 1367,
      "search": 1368,
      "lights": 1369,
      "gener": 1370,
      "received": 1371,
      "space": 1372,
      "gard": 1373,
      "mis": 1374,
      "ris": 1375,
      "feed": 1376,
      "haven": 1377,
      "model": 1378,
      "hear": 1379,
      "prov": 1380,
      "wife": 1381,
      "wrap": 1382,
      "arrived": 1383,
      "area": 1384,
      "dogs": 1385,
      "levels": 1386,
      "sn": 1387,
      "ouble": 1388,
      "ont": 1389,
      "lod": 1390,
      "oth": 1391,
      "reach": 1392,
      "fortun": 1393,
      "conf": 1394,
      "adap": 1395,
      "lazy": 1396,
      "keeping": 1397,
      "tube": 1398,
      ".)": 1399,
      "mul": 1400,
      "mer": 1401,
      "experi": 1402,
      "ground": 1403,
      "convenient": 1404,
      "priced": 1405,
      "trip": 1406,
      "change": 1407,
      "wearing": 1408,
      "medi": 1409,
      "instructions": 1410,
      "smooth": 1411,
      "cas": 1412,
      "leaf": 1413,
      "terri": 1414,
      "white": 1415,
      "py": 1416,
      "posed": 1417,
      "mine": 1418,
      "ams": 1419,
      "dro": 1420,
      "mic": 1421,
      "americ": 1422,
      "fa": 1423,
      "hus": 1424,
      "rot": 1425,
      "uses": 1426,
      "intere": 1427,
      "inch": 1428,
      "charg": 1429,
      "lodged": 1430,
      "multi": 1431,
      "interest": 1432,
      "page": 1433,
      "five": 1434,
      "stre": 1435,
      "30": 1436,
      "!!!!": 1437,
      "gardus": 1438,
      "fer": 1439,
      "seconds": 1440,
      "belie": 1441,
      "charger": 1442,
      "phones": 1443,
      "possible": 1444,
      "dv": 1445,
      "sor": 1446,
      "continue": 1447,
      "ball": 1448,
      "ability": 1449,
      "unch": 1450,
      "carry": 1451,
      "men": 1452,
      "ark": 1453,
      "prev": 1454,
      "stume": 1455,
      "ices": 1456,
      "idea": 1457,
      "friend": 1458,
      "husband": 1459,
      "dam": 1460,
      "imag": 1461,
      "costume": 1462,
      "character": 1463,
      "figured": 1464,
      "iny": 1465,
      "ms": 1466,
      "ints": 1467,
      "rele": 1468,
      "replace": 1469,
      "older": 1470,
      "wonderful": 1471,
      "pages": 1472,
      "appe": 1473,
      "oper": 1474,
      "soft": 1475,
      "given": 1476,
      "ator": 1477,
      "liked": 1478,
      "dow": 1479,
      "unless": 1480,
      "mr": 1481,
      "ines": 1482,
      "ited": 1483,
      "twisted": 1484,
      "pan": 1485,
      "fortunately": 1486,
      "rest": 1487,
      "player": 1488,
      "auto": 1489,
      "filter": 1490,
      "roll": 1491,
      "16": 1492,
      "ring": 1493,
      "vered": 1494,
      "consist": 1495,
      "detail": 1496,
      "option": 1497,
      "cu": 1498,
      "rather": 1499,
      "certain": 1500,
      "ume": 1501,
      "tory": 1502,
      "opening": 1503,
      "sometimes": 1504,
      "beautiful": 1505,
      "needs": 1506,
      "chang": 1507,
      "da": 1508,
      "window": 1509,
      "directions": 1510,
      "batteries": 1511,
      "issu": 1512,
      "owned": 1513,
      "arp": 1514,
      "often": 1515,
      "along": 1516,
      "memor": 1517,
      "finish": 1518,
      "travel": 1519,
      "metal": 1520,
      "common": 1521,
      "rench": 1522,
      "front": 1523,
      "include": 1524,
      "icular": 1525,
      "chuck": 1526,
      "abr": 1527,
      "bin": 1528,
      "fairly": 1529,
      "scen": 1530,
      "wrong": 1531,
      "addition": 1532,
      "later": 1533,
      "prote": 1534,
      "write": 1535,
      "router": 1536,
      "vert": 1537,
      "special": 1538,
      "motoro": 1539,
      "bucks": 1540,
      "difficult": 1541,
      "n64": 1542,
      "ress": 1543,
      "consider": 1544,
      "issues": 1545,
      "ents": 1546,
      "grand": 1547,
      "hose": 1548,
      "ung": 1549,
      "motorola": 1550,
      "gave": 1551,
      "ford": 1552,
      "exter": 1553,
      "blade": 1554,
      "check": 1555,
      "hor": 1556,
      "extre": 1557,
      "avail": 1558,
      "itself": 1559,
      "loose": 1560,
      "ext": 1561,
      "compla": 1562,
      "hind": 1563,
      "handle": 1564,
      "og": 1565,
      "particular": 1566,
      "itive": 1567,
      "60": 1568,
      "ru": 1569,
      "comput": 1570,
      "gged": 1571,
      "usb": 1572,
      "food": 1573,
      "count": 1574,
      "rub": 1575,
      "mov": 1576,
      "har": 1577,
      "loc": 1578,
      "sugg": 1579,
      "dvd": 1580,
      "taking": 1581,
      "pocket": 1582,
      "suggest": 1583,
      "lad": 1584,
      "leav": 1585,
      "fied": 1586,
      "cell": 1587,
      "difference": 1588,
      "pressure": 1589,
      "extreme": 1590,
      "fix": 1591,
      "friends": 1592,
      "course": 1593,
      "style": 1594,
      "myself": 1595,
      "angles": 1596,
      "als": 1597,
      "ions": 1598,
      "abo": 1599,
      "custom": 1600,
      "mac": 1601,
      "ump": 1602,
      "helps": 1603,
      "pu": 1604,
      "behind": 1605,
      "except": 1606,
      "supposed": 1607,
      "attachment": 1608,
      "normal": 1609,
      "features": 1610,
      "body": 1611,
      "\".": 1612,
      "moving": 1613,
      "shipping": 1614,
      "idd": 1615,
      "holes": 1616,
      "unfortunately": 1617,
      "iety": 1618,
      "felt": 1619,
      "thorough": 1620,
      "chool": 1621,
      "chan": 1622,
      "available": 1623,
      "clip": 1624,
      "hooked": 1625,
      "birds": 1626,
      "antly": 1627,
      "ned": 1628,
      "pho": 1629,
      "slight": 1630,
      "speak": 1631,
      "larger": 1632,
      "boy": 1633,
      "task": 1634,
      "appli": 1635,
      "track": 1636,
      "voice": 1637,
      "mind": 1638,
      "okay": 1639,
      "cast": 1640,
      "wrench": 1641,
      "rel": 1642,
      "sque": 1643,
      "update": 1644,
      "plug": 1645,
      "gir": 1646,
      "listen": 1647,
      "fective": 1648,
      "stri": 1649,
      "control": 1650,
      "cat": 1651,
      "regular": 1652,
      "today": 1653,
      "bar": 1654,
      "vers": 1655,
      "attic": 1656,
      "volume": 1657,
      "sle": 1658,
      "ond": 1659,
      "asse": 1660,
      "chen": 1661,
      "looked": 1662,
      "ninten": 1663,
      "nintendo": 1664,
      "round": 1665,
      "ware": 1666,
      "ank": 1667,
      "ioned": 1668,
      "mail": 1669,
      "computer": 1670,
      "thin": 1671,
      "resp": 1672,
      "verse": 1673,
      "kitchen": 1674,
      "fire": 1675,
      "sections": 1676,
      "thick": 1677,
      "helpful": 1678,
      "written": 1679,
      "mach": 1680,
      "spending": 1681,
      "experience": 1682,
      "road": 1683,
      "gri": 1684,
      "doll": 1685,
      "workout": 1686,
      "durable": 1687,
      "above": 1688,
      "plac": 1689,
      "cannot": 1690,
      "ired": 1691,
      "bell": 1692,
      "entire": 1693,
      "25": 1694,
      "deli": 1695,
      "turns": 1696,
      "function": 1697,
      "variety": 1698,
      "extremely": 1699,
      "cred": 1700,
      "sounds": 1701,
      "ors": 1702,
      "ying": 1703,
      "ilar": 1704,
      "oh": 1705,
      "asure": 1706,
      "tip": 1707,
      "reader": 1708,
      "products": 1709,
      "tech": 1710,
      "believe": 1711,
      "sand": 1712,
      "marvel": 1713,
      "broken": 1714,
      "seemed": 1715,
      "step": 1716,
      "manu": 1717,
      "disappointed": 1718,
      "ane": 1719,
      "kets": 1720,
      "poor": 1721,
      "guess": 1722,
      "camer": 1723,
      "pleased": 1724,
      "photo": 1725,
      "moun": 1726,
      "impres": 1727,
      "challeng": 1728,
      "manufact": 1729,
      "hole": 1730,
      "screws": 1731,
      "movies": 1732,
      "learn": 1733,
      "within": 1734,
      "access": 1735,
      "sub": 1736,
      "climb": 1737,
      "weeks": 1738,
      "covered": 1739,
      "parts": 1740,
      "overpriced": 1741,
      "oil": 1742,
      "ata": 1743,
      "test": 1744,
      "whatever": 1745,
      "toys": 1746,
      "bill": 1747,
      "necess": 1748,
      "guy": 1749,
      "land": 1750,
      "lda": 1751,
      "enter": 1752,
      "crash": 1753,
      "flat": 1754,
      "cond": 1755,
      "slower": 1756,
      "tit": 1757,
      "ensure": 1758,
      "trouble": 1759,
      "thanks": 1760,
      "described": 1761,
      "gameplay": 1762,
      "bat": 1763,
      "oud": 1764,
      "school": 1765,
      "american": 1766,
      "base": 1767,
      "gid": 1768,
      "jam": 1769,
      "aster": 1770,
      "blew": 1771,
      "thinking": 1772,
      "advert": 1773,
      "included": 1774,
      "spinning": 1775,
      "gone": 1776,
      "noticed": 1777,
      "zz": 1778,
      "trans": 1779,
      "whats": 1780,
      "dark": 1781,
      "repe": 1782,
      "ling": 1783,
      "lowest": 1784,
      "stop": 1785,
      "tightened": 1786,
      "exterior": 1787,
      "data": 1788,
      "hum": 1789,
      "kni": 1790,
      "spent": 1791,
      "basically": 1792,
      "ather": 1793,
      "hang": 1794,
      "edge": 1795,
      "adapter": 1796,
      "pc": 1797,
      "separ": 1798,
      "whe": 1799,
      "bud": 1800,
      "scr": 1801,
      "bor": 1802,
      "unscrew": 1803,
      "aged": 1804,
      "sony": 1805,
      "items": 1806,
      "usually": 1807,
      "calend": 1808,
      "camera": 1809,
      "youn": 1810,
      "name": 1811,
      "print": 1812,
      "zelda": 1813,
      "enty": 1814,
      "ference": 1815,
      "appliance": 1816,
      "motor": 1817,
      "cab": 1818,
      "init": 1819,
      "taken": 1820,
      "fill": 1821,
      "rotary": 1822,
      "sides": 1823,
      "drying": 1824,
      "dries": 1825,
      "total": 1826,
      "ention": 1827,
      "fist": 1828,
      "season": 1829,
      "ird": 1830,
      "watched": 1831,
      "flow": 1832,
      "ror": 1833,
      "decent": 1834,
      "cuts": 1835,
      "president": 1836,
      "disconnected": 1837,
      "pup": 1838,
      "ster": 1839,
      "soon": 1840,
      "company": 1841,
      "passable": 1842,
      "ev": 1843,
      "sco": 1844,
      ".....": 1845,
      "tact": 1846,
      "inform": 1847,
      "leg": 1848,
      "mechan": 1849,
      "ific": 1850,
      "bum": 1851,
      "import": 1852,
      "satis": 1853,
      "ined": 1854,
      "everyone": 1855,
      "manufacture": 1856,
      "single": 1857,
      "obstruction": 1858,
      "holds": 1859,
      "lid": 1860,
      "gives": 1861,
      "taping": 1862,
      "eyes": 1863,
      "exer": 1864,
      "build": 1865,
      "dislodged": 1866,
      "leave": 1867,
      "ridgid": 1868,
      "catcher": 1869,
      "event": 1870,
      "ran": 1871,
      "wads": 1872,
      "impassable": 1873,
      "clods": 1874,
      "clutched": 1875,
      "charging": 1876,
      "du": 1877,
      "non": 1878,
      "impro": 1879,
      "says": 1880,
      "sized": 1881,
      "rating": 1882,
      "construction": 1883,
      "rent": 1884,
      "exerc": 1885,
      "incre": 1886,
      "hon": 1887,
      "zer": 1888,
      "station": 1889,
      "bother": 1890,
      "activ": 1891,
      "stopped": 1892,
      "driving": 1893,
      "audi": 1894,
      "jun": 1895,
      "inv": 1896,
      "ens": 1897,
      "vir": 1898,
      "collection": 1899,
      "completely": 1900,
      "coun": 1901,
      "mix": 1902,
      "terrible": 1903,
      "bt": 1904,
      "noise": 1905,
      "word": 1906,
      "otherwise": 1907,
      "contain": 1908,
      "angle": 1909,
      "ron": 1910,
      "town": 1911,
      "pose": 1912,
      "understand": 1913,
      "epis": 1914,
      "tablet": 1915,
      "fail": 1916,
      "watching": 1917,
      "preci": 1918,
      "shot": 1919,
      "anno": 1920,
      "research": 1921,
      "atic": 1922,
      "dep": 1923,
      "anymore": 1924,
      "wow": 1925,
      "bur": 1926,
      "live": 1927,
      "tru": 1928,
      "strap": 1929,
      "children": 1930,
      "wide": 1931,
      "charged": 1932,
      "comfort": 1933,
      "damage": 1934,
      "nur": 1935,
      "rect": 1936,
      "clearly": 1937,
      "****": 1938,
      "useful": 1939,
      "ized": 1940,
      "bly": 1941,
      "ential": 1942,
      "kill": 1943,
      "bigger": 1944,
      "based": 1945,
      "compared": 1946,
      "necessary": 1947,
      "gar": 1948,
      "matter": 1949,
      "plenty": 1950,
      "sent": 1951,
      "song": 1952,
      "vs": 1953,
      "ffic": 1954,
      "feels": 1955,
      "\">": 1956,
      "grow": 1957,
      "training": 1958,
      "wire": 1959,
      "neck": 1960,
      "handles": 1961,
      "cards": 1962,
      "provided": 1963,
      "rubber": 1964,
      "condition": 1965,
      "advertised": 1966,
      "ky": 1967,
      "na": 1968,
      "amp": 1969,
      "attention": 1970,
      "leaves": 1971,
      "equ": 1972,
      "appreci": 1973,
      "cked": 1974,
      "tract": 1975,
      "memory": 1976,
      "manufacturer": 1977,
      "lets": 1978,
      "lost": 1979,
      "mini": 1980,
      "squeak": 1981,
      "mean": 1982,
      "buttons": 1983,
      "90": 1984,
      "range": 1985,
      "ina": 1986,
      "hot": 1987,
      "minim": 1988,
      "eat": 1989,
      "uring": 1990,
      "assem": 1991,
      "75": 1992,
      "anyway": 1993,
      "bulb": 1994,
      "ades": 1995,
      "sitting": 1996,
      "slightly": 1997,
      "jor": 1998,
      "tem": 1999,
      "position": 2000,
      "waiting": 2001,
      "40": 2002,
      "words": 2003,
      "standard": 2004,
      "micro": 2005,
      "ize": 2006,
      "prof": 2007,
      "loo": 2008,
      "fficient": 2009,
      "lip": 2010,
      "burn": 2011,
      "bunch": 2012,
      "pad": 2013,
      "airs": 2014,
      "interesting": 2015,
      "ities": 2016,
      "waste": 2017,
      "lightweight": 2018,
      "bers": 2019,
      "ia": 2020,
      "advent": 2021,
      "held": 2022,
      "dev": 2023,
      "present": 2024,
      "correct": 2025,
      "cheaper": 2026,
      "walt": 2027,
      "sorry": 2028,
      "cure": 2029,
      "male": 2030,
      "phys": 2031,
      "draw": 2032,
      "allen": 2033,
      "enjoyed": 2034,
      "arm": 2035,
      "happens": 2036,
      "proper": 2037,
      "plant": 2038,
      "bus": 2039,
      "cd": 2040,
      "cats": 2041,
      "spec": 2042,
      "lasted": 2043,
      "controls": 2044,
      "local": 2045,
      "actor": 2046,
      "gold": 2047,
      "quest": 2048,
      "seriously": 2049,
      "keeps": 2050,
      "videos": 2051,
      "fre": 2052,
      "sams": 2053,
      "exc": 2054,
      "glass": 2055,
      "velo": 2056,
      "dewalt": 2057,
      "shows": 2058,
      "ises": 2059,
      "flash": 2060,
      "designed": 2061,
      "machine": 2062,
      "\",": 2063,
      "similar": 2064,
      "eye": 2065,
      "ler": 2066,
      "measure": 2067,
      "perfor": 2068,
      "ship": 2069,
      "spr": 2070,
      "remo": 2071,
      "asing": 2072,
      "major": 2073,
      "pract": 2074,
      "breath": 2075,
      "samsung": 2076,
      "maid": 2077,
      "evil": 2078,
      "stairs": 2079,
      "lack": 2080,
      "positive": 2081,
      "visit": 2082,
      "plot": 2083,
      "race": 2084,
      "secure": 2085,
      "sole": 2086,
      "suppli": 2087,
      "calendar": 2088,
      "nal": 2089,
      "pop": 2090,
      "ram": 2091,
      "sil": 2092,
      "installed": 2093,
      "daily": 2094,
      "bible": 2095,
      "ross": 2096,
      "lamb": 2097,
      "dollars": 2098,
      "fold": 2099,
      "opin": 2100,
      "gym": 2101,
      "====": 2102,
      "aa": 2103,
      "performan": 2104,
      "++": 2105,
      "match": 2106,
      "lift": 2107,
      "defective": 2108,
      "stock": 2109,
      "customer": 2110,
      "reference": 2111,
      "nicely": 2112,
      "cutting": 2113,
      "ian": 2114,
      "199": 2115,
      "nb": 2116,
      "rv": 2117,
      "zero": 2118,
      "appreciate": 2119,
      "uni": 2120,
      "contr": 2121,
      "stor": 2122,
      "connector": 2123,
      "headsets": 2124,
      "basic": 2125,
      "seller": 2126,
      "information": 2127,
      ".\"": 2128,
      "jack": 2129,
      "exp": 2130,
      "funny": 2131,
      "prime": 2132,
      "images": 2133,
      "adventure": 2134,
      "sum": 2135,
      "online": 2136,
      "tools": 2137,
      "18": 2138,
      "hur": 2139,
      "means": 2140,
      "collect": 2141,
      "entertain": 2142,
      "important": 2143,
      "45": 2144,
      ":)": 2145,
      "lu": 2146,
      "paren": 2147,
      "chop": 2148,
      "goog": 2149,
      "knife": 2150,
      "invest": 2151,
      "ile": 2152,
      "iness": 2153,
      "met": 2154,
      "contact": 2155,
      "acting": 2156,
      "grade": 2157,
      "direct": 2158,
      "dirty": 2159,
      "separate": 2160,
      "fabr": 2161,
      "saving": 2162,
      "giving": 2163,
      "adv": 2164,
      "package": 2165,
      "nbsp": 2166,
      "weigh": 2167,
      "cooker": 2168,
      "gan": 2169,
      "pain": 2170,
      "tray": 2171,
      "pulled": 2172,
      "called": 2173,
      "rill": 2174,
      "loud": 2175,
      "sold": 2176,
      "current": 2177,
      "11": 2178,
      "bath": 2179,
      "cing": 2180,
      "fans": 2181,
      "spo": 2182,
      "veh": 2183,
      "ional": 2184,
      "const": 2185,
      "clum": 2186,
      "wanting": 2187,
      "ggle": 2188,
      "began": 2189,
      "annoying": 2190,
      "gun": 2191,
      "libr": 2192,
      "previously": 2193,
      "opinion": 2194,
      "forced": 2195,
      "cleaner": 2196,
      "missed": 2197,
      "followed": 2198,
      "honest": 2199,
      "loosen": 2200,
      "factor": 2201,
      "controll": 2202,
      "young": 2203,
      "ries": 2204,
      "plain": 2205,
      "aging": 2206,
      "sharp": 2207,
      "ists": 2208,
      "minimal": 2209,
      "bon": 2210,
      "pet": 2211,
      "elements": 2212,
      "drag": 2213,
      "gb": 2214,
      "become": 2215,
      "stra": 2216,
      "__": 2217,
      "wet": 2218,
      "market": 2219,
      "party": 2220,
      "stud": 2221,
      "protect": 2222,
      "lay": 2223,
      "patch": 2224,
      "likes": 2225,
      "notice": 2226,
      "replaced": 2227,
      "vehic": 2228,
      "dest": 2229,
      "fy": 2230,
      "fing": 2231,
      "throw": 2232,
      "reci": 2233,
      "playstation": 2234,
      "allows": 2235,
      "surprise": 2236,
      "fic": 2237,
      "forth": 2238,
      "pol": 2239,
      "sets": 2240,
      "download": 2241,
      "paid": 2242,
      "paying": 2243,
      "effect": 2244,
      "including": 2245,
      "bust": 2246,
      "sus": 2247,
      "talk": 2248,
      "increase": 2249,
      "</": 2250,
      "prefer": 2251,
      "cla": 2252,
      "flaw": 2253,
      "fabric": 2254,
      "sou": 2255,
      "rein": 2256,
      "ches": 2257,
      "heart": 2258,
      "appro": 2259,
      "ield": 2260,
      "ults": 2261,
      "craf": 2262,
      "nike": 2263,
      "197": 2264,
      "green": 2265,
      "istic": 2266,
      "mil": 2267,
      "ample": 2268,
      "dead": 2269,
      "washing": 2270,
      "14": 2271,
      "ah": 2272,
      "cir": 2273,
      "nearly": 2274,
      "across": 2275,
      "smoothly": 2276,
      "markers": 2277,
      "f8": 2278,
      "mit": 2279,
      "ming": 2280,
      "ently": 2281,
      "choice": 2282,
      "budget": 2283,
      "library": 2284,
      "dp": 2285,
      "ets": 2286,
      "calls": 2287,
      "scratch": 2288,
      "forward": 2289,
      "accur": 2290,
      "doesnt": 2291,
      "master": 2292,
      "squ": 2293,
      "satisfied": 2294,
      "ister": 2295,
      "backup": 2296,
      "shoulder": 2297,
      "portion": 2298,
      "walk": 2299,
      "21": 2300,
      "nam": 2301,
      "rac": 2302,
      "rant": 2303,
      "ses": 2304,
      "dial": 2305,
      "plantron": 2306,
      "bble": 2307,
      "boss": 2308,
      "perform": 2309,
      "els": 2310,
      "aver": 2311,
      "hi": 2312,
      "post": 2313,
      "vibr": 2314,
      "writing": 2315,
      "lady": 2316,
      "initial": 2317,
      "cm": 2318,
      "none": 2319,
      "bow": 2320,
      "tage": 2321,
      "hp": 2322,
      "sme": 2323,
      "plic": 2324,
      "mains": 2325,
      "ears": 2326,
      "bling": 2327,
      "potential": 2328,
      "rison": 2329,
      "harrison": 2330,
      "audio": 2331,
      "straight": 2332,
      "drive": 2333,
      "location": 2334,
      "jane": 2335,
      "walking": 2336,
      "surprised": 2337,
      "previous": 2338,
      "remains": 2339,
      "utf8": 2340,
      "female": 2341,
      "vacation": 2342,
      "confusing": 2343,
      "certainly": 2344,
      "plantronics": 2345,
      "hall": 2346,
      "truly": 2347,
      "third": 2348,
      "returned": 2349,
      "?\"": 2350,
      "bab": 2351,
      "efficient": 2352,
      "lly": 2353,
      "youtube": 2354,
      "linked": 2355,
      "32": 2356,
      "ben": 2357,
      "kno": 2358,
      "fear": 2359,
      "period": 2360,
      "limited": 2361,
      "tch": 2362,
      "cking": 2363,
      "dre": 2364,
      "holding": 2365,
      "complaint": 2366,
      "sequ": 2367,
      "forget": 2368,
      "mobi": 2369,
      "assum": 2370,
      "warning": 2371,
      "tiny": 2372,
      "frust": 2373,
      "hun": 2374,
      "os": 2375,
      "office": 2376,
      "marked": 2377,
      "torn": 2378,
      "multiple": 2379,
      "mp": 2380,
      "pink": 2381,
      "lead": 2382,
      "manner": 2383,
      "various": 2384,
      "risk": 2385,
      "wrapped": 2386,
      "battle": 2387,
      "repeat": 2388,
      "growing": 2389,
      "incred": 2390,
      "heard": 2391,
      "final": 2392,
      "girl": 2393,
      "ii": 2394,
      "ju": 2395,
      "lap": 2396,
      "immedi": 2397,
      "covers": 2398,
      "complaints": 2399,
      "fut": 2400,
      "tack": 2401,
      "towe": 2402,
      "blocks": 2403,
      "impressed": 2404,
      "nes": 2405,
      "arely": 2406,
      "suc": 2407,
      "occas": 2408,
      "flim": 2409,
      "twice": 2410,
      "ges": 2411,
      "txt": 2412,
      "plays": 2413,
      "blades": 2414,
      "oted": 2415,
      "threads": 2416,
      "storage": 2417,
      "fur": 2418,
      "patter": 2419,
      "closing": 2420,
      "000": 2421,
      "cm_": 2422,
      "mobile": 2423,
      "bal": 2424,
      "tot": 2425,
      "cr_": 2426,
      "crack": 2427,
      "standing": 2428,
      "windows": 2429,
      "performance": 2430,
      "cm_cr_": 2431,
      "13": 2432,
      "d_": 2433,
      "lines": 2434,
      "weap": 2435,
      "putting": 2436,
      "cum": 2437,
      "dut": 2438,
      "href": 2439,
      "stores": 2440,
      "scenes": 2441,
      "_txt": 2442,
      "_d_": 2443,
      "w_txt": 2444,
      "idence": 2445,
      "entry": 2446,
      "pros": 2447,
      "=\"/": 2448,
      "obv": 2449,
      "arp_d_": 2450,
      "rvw_txt": 2451,
      "cm_cr_arp_d_": 2452,
      "cm_cr_arp_d_rvw_txt": 2453,
      "onto": 2454,
      "moves": 2455,
      "progr": 2456,
      "develo": 2457,
      "trick": 2458,
      "shift": 2459,
      "puppy": 2460,
      "devices": 2461,
      "kick": 2462,
      "swe": 2463,
      "xy": 2464,
      "zard": 2465,
      "ards": 2466,
      "stren": 2467,
      "runs": 2468,
      "----": 2469,
      "iddle": 2470,
      "dim": 2471,
      "sne": 2472,
      "reverse": 2473,
      "secre": 2474,
      "notes": 2475,
      "buds": 2476,
      "personal": 2477,
      "thankfully": 2478,
      "episod": 2479,
      "supplied": 2480,
      "shiny": 2481,
      "spir": 2482,
      "dont": 2483,
      "gery": 2484,
      "totally": 2485,
      "episodes": 2486,
      "ili": 2487,
      "offe": 2488,
      "truck": 2489,
      "spend": 2490,
      "continu": 2491,
      "puzz": 2492,
      "flimsy": 2493,
      "luck": 2494,
      "weak": 2495,
      "vents": 2496,
      "shir": 2497,
      "die": 2498,
      "ism": 2499,
      "enem": 2500,
      "roy": 2501,
      "six": 2502,
      "somewhat": 2503,
      "cross": 2504,
      "operating": 2505,
      "future": 2506,
      "pattern": 2507,
      "gall": 2508,
      "haps": 2509,
      "early": 2510,
      "pushing": 2511,
      "cordless": 2512,
      "snap": 2513,
      "enemies": 2514,
      "ala": 2515,
      "user": 2516,
      "concer": 2517,
      "purpose": 2518,
      "brother": 2519,
      "streng": 2520,
      "eld": 2521,
      "needles": 2522,
      "torque": 2523,
      "engine": 2524,
      "duster": 2525,
      "steel": 2526,
      "confident": 2527,
      "sneak": 2528,
      "perhaps": 2529,
      "teach": 2530,
      "gotten": 2531,
      "thinks": 2532,
      "jum": 2533,
      "nut": 2534,
      "suction": 2535,
      "jeans": 2536,
      "magnet": 2537,
      "peel": 2538,
      "scared": 2539,
      "history": 2540,
      "complaining": 2541,
      "released": 2542,
      "sort": 2543,
      "plu": 2544,
      "ulated": 2545,
      "ants": 2546,
      "bucket": 2547,
      "chew": 2548,
      "frame": 2549,
      "warned": 2550,
      "medium": 2551,
      "anim": 2552,
      "please": 2553,
      "warrant": 2554,
      "album": 2555,
      "blan": 2556,
      "sucked": 2557,
      "messy": 2558,
      "buster": 2559,
      "3d": 2560,
      "700": 2561,
      "blo": 2562,
      "anch": 2563,
      "idi": 2564,
      "bring": 2565,
      "offer": 2566,
      "lastly": 2567,
      "surgery": 2568,
      "figuring": 2569,
      "listened": 2570,
      "knot": 2571,
      "told": 2572,
      "leak": 2573,
      "tier": 2574,
      "press": 2575,
      "release": 2576,
      "smell": 2577,
      "raz": 2578,
      "iding": 2579,
      "copy": 2580,
      "emp": 2581,
      "higher": 2582,
      "format": 2583,
      "cables": 2584,
      "improve": 2585,
      "immediately": 2586,
      "duty": 2587,
      "dig": 2588,
      "reli": 2589,
      "joints": 2590,
      "minus": 2591,
      "attaching": 2592,
      "surface": 2593,
      "talking": 2594,
      "lamin": 2595,
      "extensions": 2596,
      "properly": 2597,
      "middle": 2598,
      "sake": 2599,
      "optim": 2600,
      "changed": 2601,
      "email": 2602,
      "ga": 2603,
      "lin": 2604,
      "sad": 2605,
      "sele": 2606,
      "desp": 2607,
      "screwed": 2608,
      "heavily": 2609,
      "description": 2610,
      "appear": 2611,
      "jammed": 2612,
      "leather": 2613,
      "rock": 2614,
      "web": 2615,
      "produ": 2616,
      "choose": 2617,
      "hes": 2618,
      "unlike": 2619,
      "tware": 2620,
      "software": 2621,
      "gor": 2622,
      "pal": 2623,
      "wore": 2624,
      "2001": 2625,
      "threaded": 2626,
      "idden": 2627,
      "assumed": 2628,
      "hidden": 2629,
      "baby": 2630,
      "logy": 2631,
      "bris": 2632,
      "joined": 2633,
      "reviewing": 2634,
      "purchasing": 2635,
      "complain": 2636,
      "reached": 2637,
      "horri": 2638,
      "stripped": 2639,
      "gallon": 2640,
      "lately": 2641,
      "rated": 2642,
      "send": 2643,
      "ital": 2644,
      "wiggle": 2645,
      "disaster": 2646,
      "wins": 2647,
      "beginning": 2648,
      "cam": 2649,
      "jour": 2650,
      "sd": 2651,
      "disassem": 2652,
      "street": 2653,
      "average": 2654,
      "lau": 2655,
      "mor": 2656,
      "nest": 2657,
      "repair": 2658,
      "alth": 2659,
      "prom": 2660,
      "bubble": 2661,
      "signed": 2662,
      "options": 2663,
      "flowing": 2664,
      "cil": 2665,
      "hy": 2666,
      "mm": 2667,
      "bey": 2668,
      "neg": 2669,
      "cept": 2670,
      "example": 2671,
      "clogged": 2672,
      "throughout": 2673,
      "stays": 2674,
      "strength": 2675,
      "bends": 2676,
      "reconnect": 2677,
      "debris": 2678,
      "treo": 2679,
      "careful": 2680,
      "despite": 2681,
      "spot": 2682,
      "wield": 2683,
      "motion": 2684,
      "backed": 2685,
      "pipes": 2686,
      "stuck": 2687,
      "ports": 2688,
      "reinforce": 2689,
      "tough": 2690,
      "ising": 2691,
      "handful": 2692,
      "2005": 2693,
      "plane": 2694,
      "taped": 2695,
      "consists": 2696,
      "challenged": 2697,
      "eventually": 2698,
      "physics": 2699,
      "savings": 2700,
      "hd": 2701,
      "hat": 2702,
      "rul": 2703,
      "drilling": 2704,
      "shortcuts": 2705,
      "shape": 2706,
      "missing": 2707,
      "junction": 2708,
      "business": 2709,
      "idiot": 2710,
      "pine": 2711,
      "sun": 2712,
      "tab": 2713,
      "insur": 2714,
      "comfy": 2715,
      "settings": 2716,
      "general": 2717,
      "insurance": 2718,
      "unge": 2719,
      "sciss": 2720,
      "carp": 2721,
      "cars": 2722,
      "lasts": 2723,
      "climbing": 2724,
      "warranty": 2725,
      "laugh": 2726,
      "pat": 2727,
      "text": 2728,
      "heat": 2729,
      "exit": 2730,
      "stopping": 2731,
      "lower": 2732,
      "birth": 2733,
      "loosened": 2734,
      "towels": 2735,
      "nar": 2736,
      "umin": 2737,
      "disc": 2738,
      "cray": 2739,
      "octo": 2740,
      "delivery": 2741,
      "barn": 2742,
      "dated": 2743,
      "hate": 2744,
      "hazard": 2745,
      "areas": 2746,
      "author": 2747,
      "considering": 2748,
      "burst": 2749,
      "optimal": 2750,
      "october": 2751,
      "bits": 2752,
      "dd": 2753,
      "stain": 2754,
      "blend": 2755,
      "profess": 2756,
      "dist": 2757,
      "mill": 2758,
      "hoping": 2759,
      "umb": 2760,
      "mostly": 2761,
      "mention": 2762,
      "known": 2763,
      "littermaid": 2764,
      "fantastically": 2765,
      "constantly": 2766,
      "shocking": 2767,
      "connection": 2768,
      "efficiently": 2769,
      "tackle": 2770,
      "field": 2771,
      "kink": 2772,
      "oween": 2773,
      "organ": 2774,
      "seph": 2775,
      "worn": 2776,
      "plat": 2777,
      "plate": 2778,
      "gree": 2779,
      "grou": 2780,
      "oooo": 2781,
      "stretch": 2782,
      "program": 2783,
      "jump": 2784,
      "mother": 2785,
      "comment": 2786,
      "lighting": 2787,
      "hardware": 2788,
      "locker": 2789,
      "mission": 2790,
      "510": 2791,
      "lon": 2792,
      "rate": 2793,
      "wad": 2794,
      "envis": 2795,
      "terror": 2796,
      "avo": 2797,
      "simpli": 2798,
      "porter": 2799,
      "fighting": 2800,
      "halloween": 2801,
      "ey": 2802,
      "sal": 2803,
      "shoo": 2804,
      "collar": 2805,
      "insulated": 2806,
      "mechanically": 2807,
      "counter": 2808,
      "warnings": 2809,
      "labr": 2810,
      "tern": 2811,
      "unwield": 2812,
      "cleaners": 2813,
      "joseph": 2814,
      "marks": 2815,
      "routed": 2816,
      "bendy": 2817,
      "dirtier": 2818,
      "ladder": 2819,
      "unwieldy": 2820,
      "hvac": 2821,
      "inward": 2822,
      "enge": 2823,
      "ensur": 2824,
      "novel": 2825,
      "idol": 2826,
      "aption": 2827,
      "ager": 2828,
      "seeing": 2829,
      "wards": 2830,
      "contraption": 2831,
      "wind": 2832,
      "brit": 2833,
      "spans": 2834,
      "girls": 2835,
      "scissors": 2836,
      "simplified": 2837,
      "dress": 2838,
      "pump": 2839,
      "engl": 2840,
      "loct": 2841,
      "weve": 2842,
      "gobs": 2843,
      "hell": 2844,
      "quoted": 2845,
      "residence": 2846,
      "cleanings": 2847,
      "202": 2848,
      "yellow": 2849,
      "activating": 2850,
      "summer": 2851,
      "destroy": 2852,
      "carpentry": 2853,
      "ensuring": 2854,
      "loctite": 2855,
      "gest": 2856,
      "usual": 2857,
      "blockage": 2858,
      "unscrewing": 2859,
      "exercises": 2860,
      "1977": 2861,
      "blankets": 2862,
      "disassembling": 2863,
      "envisioned": 2864,
      "knur": 2865,
      "tend": 2866,
      "adult": 2867,
      "quie": 2868,
      "clod": 2869,
      "consisting": 2870,
      "thoroughness": 2871,
      "clumsi": 2872,
      "knotted": 2873,
      "*?": 2874,
      "6hp": 2875,
      "ially": 2876,
      "r8": 2877,
      "tt": 2878,
      "moder": 2879,
      "irator": 2880,
      "ups": 2881,
      "applic": 2882,
      "boo": 2883,
      "velcro": 2884,
      "pencil": 2885,
      "musty": 2886,
      "slats": 2887,
      "mounted": 2888,
      "signal": 2889,
      "challenge": 2890,
      "respirator": 2891,
      "accurate": 2892,
      "barnes": 2893,
      "kinked": 2894,
      "dou": 2895,
      "hs": 2896,
      "rle": 2897,
      "zip": 2898,
      "resigned": 2899,
      "rich": 2900,
      "poke": 2901,
      "desk": 2902,
      "comforters": 2903,
      "dram": 2904,
      "facelift": 2905,
      "projects": 2906,
      "scene": 2907,
      "macram": 2908,
      "googles": 2909,
      "weapons": 2910,
      "secret": 2911,
      "labrum": 2912,
      "knurled": 2913,
      "clodbuster": 2914,
      "clumsiest": 2915,
      "r82005": 2916,
      "rle202": 2917,
      "double": 2918,
      "pper": 2919,
      "seal": 2920,
      "unlock": 2921,
      "boxes": 2922,
      "reception": 2923,
      "internet": 2924,
      "situ": 2925,
      "controller": 2926,
      "plugged": 2927,
      "envir": 2928,
      "bear": 2929,
      "provide": 2930,
      "actual": 2931,
      "production": 2932,
      "team": 2933,
      "places": 2934,
      "environ": 2935,
      "??": 2936,
      "cry": 2937,
      "click": 2938,
      "feeling": 2939,
      "songs": 2940,
      "san": 2941,
      "swi": 2942,
      "clips": 2943,
      "barely": 2944,
      "ried": 2945,
      "solution": 2946,
      "drop": 2947,
      "whether": 2948,
      "bility": 2949,
      "vin": 2950,
      "attract": 2951,
      "seat": 2952,
      "boat": 2953,
      "mentioned": 2954,
      "minor": 2955,
      "selves": 2956,
      "compact": 2957,
      "success": 2958,
      "gs": 2959,
      "rad": 2960,
      "belt": 2961,
      "anywhere": 2962,
      "trad": 2963,
      "ational": 2964,
      "display": 2965,
      "address": 2966,
      "powerful": 2967,
      "cali": 2968,
      ",\"": 2969,
      "lg": 2970,
      "late": 2971,
      "ases": 2972,
      "noble": 2973,
      "combin": 2974,
      "bags": 2975,
      "normally": 2976,
      "grip": 2977,
      "vehicle": 2978,
      "washington": 2979,
      "reviewers": 2980,
      "finding": 2981,
      "saying": 2982,
      "binoc": 2983,
      "speaker": 2984,
      "transfer": 2985,
      "ties": 2986,
      "ease": 2987,
      "wants": 2988,
      "smart": 2989,
      "versions": 2990,
      "respon": 2991,
      "title": 2992,
      "advan": 2993,
      "bonus": 2994,
      "ale": 2995,
      "tear": 2996,
      "thrill": 2997,
      "hero": 2998,
      "compar": 2999,
      "require": 3000,
      "mounting": 3001,
      "hurt": 3002,
      "hn": 3003,
      "ker": 3004,
      "keyboard": 3005,
      "sleep": 3006,
      "photos": 3007,
      "rp": 3008,
      "tly": 3009,
      "inexpensive": 3010,
      "lol": 3011,
      "packaging": 3012,
      "shipped": 3013,
      "actors": 3014,
      "explo": 3015,
      "din": 3016,
      "iting": 3017,
      "ison": 3018,
      "deep": 3019,
      "exception": 3020,
      "models": 3021,
      "70": 3022,
      "chance": 3023,
      "worst": 3024,
      "useless": 3025,
      "answer": 3026,
      "appears": 3027,
      "laptop": 3028,
      "izon": 3029,
      "fighter": 3030,
      "platform": 3031,
      "rus": 3032,
      "bookmark": 3033,
      "background": 3034,
      "struct": 3035,
      "results": 3036,
      "slide": 3037,
      "inches": 3038,
      "additional": 3039,
      "publ": 3040,
      "golden": 3041,
      "shirt": 3042,
      "frequ": 3043,
      "lear": 3044,
      "roo": 3045,
      "provides": 3046,
      "city": 3047,
      "ding": 3048,
      "ded": 3049,
      "hub": 3050,
      "ives": 3051,
      "toe": 3052,
      "roid": 3053,
      "closed": 3054,
      "john": 3055,
      "originally": 3056,
      "skin": 3057,
      "falling": 3058,
      "challenging": 3059,
      "500": 3060,
      "aven": 3061,
      "bing": 3062,
      "faster": 3063,
      "stal": 3064,
      "forever": 3065,
      "center": 3066,
      "ordering": 3067,
      "doors": 3068,
      "sizes": 3069,
      "unique": 3070,
      "gala": 3071,
      "lts": 3072,
      "lbs": 3073,
      "mes": 3074,
      "lier": 3075,
      "themselves": 3076,
      "train": 3077,
      "spice": 3078,
      "skill": 3079,
      "required": 3080,
      "iphone": 3081,
      "inds": 3082,
      "ites": 3083,
      "orange": 3084,
      "spac": 3085,
      "gaming": 3086,
      "numbers": 3087,
      "minute": 3088,
      ";<": 3089,
      "ban": 3090,
      "ires": 3091,
      "ences": 3092,
      "ution": 3093,
      "hood": 3094,
      "scri": 3095,
      "syn": 3096,
      "gas": 3097,
      "thus": 3098,
      "resident": 3099,
      "starts": 3100,
      "vision": 3101,
      "breaking": 3102,
      "slee": 3103,
      "birthday": 3104,
      "pokemon": 3105,
      "learning": 3106,
      "reco": 3107,
      "worry": 3108,
      "guys": 3109,
      "create": 3110,
      "fault": 3111,
      "accessor": 3112,
      "boring": 3113,
      "claim": 3114,
      "yard": 3115,
      "ances": 3116,
      "log": 3117,
      "upon": 3118,
      "indiv": 3119,
      "difficulty": 3120,
      "relative": 3121,
      "shown": 3122,
      "serious": 3123,
      "carrying": 3124,
      "bes": 3125,
      "bri": 3126,
      "jab": 3127,
      "shad": 3128,
      "ico": 3129,
      "tie": 3130,
      "adding": 3131,
      "compare": 3132,
      "brands": 3133,
      "father": 3134,
      "effects": 3135,
      "further": 3136,
      "sch": 3137,
      "spl": 3138,
      "states": 3139,
      "loop": 3140,
      "cold": 3141,
      "lives": 3142,
      "fell": 3143,
      "grad": 3144,
      "connected": 3145,
      "cooking": 3146,
      "dropped": 3147,
      "individ": 3148,
      "!)": 3149,
      "hen": 3150,
      "serv": 3151,
      "planner": 3152,
      "factory": 3153,
      "techno": 3154,
      "sander": 3155,
      "mountain": 3156,
      "obviously": 3157,
      "admit": 3158,
      "ulars": 3159,
      "happened": 3160,
      "sneakers": 3161,
      "razr": 3162,
      "slip": 3163,
      "android": 3164,
      "hair": 3165,
      "worse": 3166,
      "death": 3167,
      "foam": 3168,
      "firm": 3169,
      "brow": 3170,
      "attack": 3171,
      "films": 3172,
      "horrible": 3173,
      "binoculars": 3174,
      "galaxy": 3175,
      "nd": 3176,
      "god": 3177,
      "upper": 3178,
      "liter": 3179,
      "scroll": 3180,
      "changes": 3181,
      "palm": 3182,
      "17": 3183,
      "ied": 3184,
      "lf": 3185,
      "ners": 3186,
      "cep": 3187,
      "max": 3188,
      "realize": 3189,
      "chart": 3190,
      "role": 3191,
      "goal": 3192,
      "greatest": 3193,
      "trust": 3194,
      "everywhere": 3195,
      "newer": 3196,
      "bulky": 3197,
      "installation": 3198,
      "humor": 3199,
      "focus": 3200,
      "spy": 3201,
      "crazy": 3202,
      "regard": 3203,
      "nat": 3204,
      "women": 3205,
      "ished": 3206,
      "biggest": 3207,
      "enjoyable": 3208,
      "avoid": 3209,
      "infl": 3210,
      "lored": 3211,
      "bles": 3212,
      "imagine": 3213,
      "country": 3214,
      "alone": 3215,
      "ously": 3216,
      "requires": 3217,
      "beyond": 3218,
      "professional": 3219,
      "dic": 3220,
      "altern": 3221,
      "exercise": 3222,
      "magnetic": 3223,
      "cident": 3224,
      "ckets": 3225,
      "nit": 3226,
      "invol": 3227,
      "shar": 3228,
      "lighter": 3229,
      "div": 3230,
      "electron": 3231,
      "group": 3232,
      "mid": 3233,
      "pical": 3234,
      "ray": 3235,
      "rain": 3236,
      "state": 3237,
      "autom": 3238,
      "expecting": 3239,
      "glue": 3240,
      "excited": 3241,
      "sli": 3242,
      "wing": 3243,
      "alot": 3244,
      "health": 3245,
      "upgrade": 3246,
      "points": 3247,
      "pens": 3248,
      "labe": 3249,
      "reasonable": 3250,
      "cabin": 3251,
      "puzzles": 3252,
      "rand": 3253,
      "colored": 3254,
      "impossible": 3255,
      "teen": 3256,
      "berry": 3257,
      "coloring": 3258,
      "trail": 3259,
      "opened": 3260,
      "via": 3261,
      "entertaining": 3262,
      "pac": 3263,
      "ador": 3264,
      "webs": 3265,
      "units": 3266,
      "tran": 3267,
      "earlier": 3268,
      "tele": 3269,
      "indic": 3270,
      "suit": 3271,
      "frid": 3272,
      "director": 3273,
      "changing": 3274,
      "jabra": 3275,
      "cup": 3276,
      "ural": 3277,
      "upstairs": 3278,
      "converse": 3279,
      "everyday": 3280,
      "downstairs": 3281,
      "expectations": 3282,
      "personally": 3283,
      "details": 3284,
      "detailed": 3285,
      "equip": 3286,
      "ience": 3287,
      "typical": 3288,
      "grab": 3289,
      "designs": 3290,
      "lamp": 3291,
      "effective": 3292,
      "attractive": 3293,
      "coffe": 3294,
      "opp": 3295,
      "snow": 3296,
      "living": 3297,
      "types": 3298,
      "turning": 3299,
      "warm": 3300,
      "seasons": 3301,
      "specific": 3302,
      "glasses": 3303,
      "practice": 3304,
      "jes": 3305,
      "below": 3306,
      "ney": 3307,
      "carina": 3308,
      "coffee": 3309,
      "fash": 3310,
      "ifts": 3311,
      "afford": 3312,
      "offers": 3313,
      "knows": 3314,
      "bird": 3315,
      "grandson": 3316,
      "extended": 3317,
      "garage": 3318,
      "recipes": 3319,
      "gain": 3320,
      "law": 3321,
      "ese": 3322,
      "chick": 3323,
      "inte": 3324,
      "intended": 3325,
      "tomb": 3326,
      "b00": 3327,
      "ibly": 3328,
      "ocarina": 3329,
      "tive": 3330,
      "apparen": 3331,
      "shut": 3332,
      "lessly": 3333,
      "paints": 3334,
      "multiplayer": 3335,
      "quiet": 3336,
      "edition": 3337,
      "lif": 3338,
      "mom": 3339,
      "tips": 3340,
      "apps": 3341,
      "concept": 3342,
      "ource": 3343,
      "result": 3344,
      "realistic": 3345,
      "cube": 3346,
      "********": 3347,
      "fresh": 3348,
      "removed": 3349,
      "craft": 3350,
      "racing": 3351,
      "narrow": 3352,
      "2nd": 3353,
      "thur": 3354,
      "aspect": 3355,
      "arc": 3356,
      "brings": 3357,
      "starting": 3358,
      "steed": 3359,
      "fixed": 3360,
      "lambchop": 3361,
      "directly": 3362,
      "doubt": 3363,
      "cush": 3364,
      "lic": 3365,
      "ision": 3366,
      "outstanding": 3367,
      "doom": 3368,
      "docum": 3369,
      "holid": 3370,
      "hasn": 3371,
      "players": 3372,
      "tons": 3373,
      "raider": 3374,
      "winter": 3375,
      "famili": 3376,
      "leaving": 3377,
      "========": 3378,
      "negative": 3379,
      "tradition": 3380,
      "holiday": 3381,
      "ging": 3382,
      "tired": 3383,
      "clus": 3384,
      "rake": 3385,
      "watercolor": 3386,
      "bike": 3387,
      "dirt": 3388,
      "tracks": 3389,
      "junk": 3390,
      "occasion": 3391,
      "equipment": 3392,
      "jesus": 3393,
      "99": 3394,
      "ering": 3395,
      "moved": 3396,
      "explain": 3397,
      "readers": 3398,
      "mary": 3399,
      "includes": 3400,
      "returning": 3401,
      "fingers": 3402,
      "site": 3403,
      "vic": 3404,
      "wrest": 3405,
      "becomes": 3406,
      "deter": 3407,
      "tries": 3408,
      "crit": 3409,
      "portable": 3410,
      "telling": 3411,
      "british": 3412,
      "cart": 3413,
      "sam": 3414,
      "ute": 3415,
      "exist": 3416,
      "fox": 3417,
      "colorful": 3418,
      "heavier": 3419,
      "workouts": 3420,
      "placed": 3421,
      "question": 3422,
      "honestly": 3423,
      "relatively": 3424,
      "ahead": 3425,
      "sister": 3426,
      "tic": 3427,
      "tast": 3428,
      "erous": 3429,
      "stage": 3430,
      "ado": 3431,
      "acket": 3432,
      "spect": 3433,
      "object": 3434,
      "wireless": 3435,
      "technology": 3436,
      "gon": 3437,
      "gers": 3438,
      "gifts": 3439,
      "mou": 3440,
      "tex": 3441,
      "info": 3442,
      "weird": 3443,
      "rip": 3444,
      "lovely": 3445,
      "stories": 3446,
      "files": 3447,
      "cording": 3448,
      "adjustable": 3449,
      "america": 3450,
      "____": 3451,
      "fro": 3452,
      "fli": 3453,
      "nie": 3454,
      "zen": 3455,
      "rope": 3456,
      "prevent": 3457,
      "saved": 3458,
      "content": 3459,
      "treats": 3460,
      "titles": 3461,
      "legend": 3462,
      "anchor": 3463,
      "journal": 3464,
      "morning": 3465,
      "pin": 3466,
      "ride": 3467,
      "une": 3468,
      "uff": 3469,
      "asked": 3470,
      "account": 3471,
      "ps2": 3472,
      "trim": 3473,
      "packed": 3474,
      "treat": 3475,
      "particularly": 3476,
      "frustrating": 3477,
      "amy": 3478,
      "ima": 3479,
      "ww": 3480,
      "asy": 3481,
      "arms": 3482,
      "amps": 3483,
      "app": 3484,
      "sight": 3485,
      "ipad": 3486,
      "direction": 3487,
      "square": 3488,
      "incredibly": 3489,
      "flip": 3490,
      "ode": 3491,
      "wink": 3492,
      "roches": 3493,
      "ham": 3494,
      "traf": 3495,
      "headphones": 3496,
      "deser": 3497,
      "died": 3498,
      "helped": 3499,
      "portray": 3500,
      "scoop": 3501,
      "episode": 3502,
      "adorable": 3503,
      "gro": 3504,
      "lat": 3505,
      "alumin": 3506,
      "usa": 3507,
      "pockets": 3508,
      "keys": 3509,
      "cases": 3510,
      "straps": 3511,
      "aluminum": 3512,
      "hh": 3513,
      "tar": 3514,
      "stup": 3515,
      "accident": 3516,
      "prec": 3517,
      "effort": 3518,
      "adjustment": 3519,
      "faces": 3520,
      "human": 3521,
      "parents": 3522,
      "digital": 3523,
      "environment": 3524,
      "spyro": 3525,
      "website": 3526,
      "rochester": 3527,
      "df": 3528,
      "revol": 3529,
      "ley": 3530,
      "stitch": 3531,
      "ples": 3532,
      "console": 3533,
      "odd": 3534,
      "ula": 3535,
      "crap": 3536,
      "mighty": 3537,
      "cooler": 3538,
      "appropri": 3539,
      "agree": 3540,
      "mir": 3541,
      "mort": 3542,
      "rd": 3543,
      "tent": 3544,
      "wel": 3545,
      "myster": 3546,
      "bandico": 3547,
      "compli": 3548,
      "brightness": 3549,
      "functional": 3550,
      "james": 3551,
      "filled": 3552,
      "popular": 3553,
      "bandicoot": 3554,
      "dash": 3555,
      "kia": 3556,
      "nic": 3557,
      "yr": 3558,
      "meant": 3559,
      "icy": 3560,
      "verizon": 3561,
      "col": 3562,
      "pers": 3563,
      "fol": 3564,
      "brushes": 3565,
      "helmet": 3566,
      "packaged": 3567,
      "weights": 3568,
      "falls": 3569,
      "hanging": 3570,
      "flashlight": 3571,
      "currently": 3572,
      "ake": 3573,
      "nav": 3574,
      "rit": 3575,
      "vill": 3576,
      "thre": 3577,
      "became": 3578,
      "brought": 3579,
      "file": 3580,
      "learned": 3581,
      "container": 3582,
      "dragon": 3583,
      "stainless": 3584,
      "pencils": 3585,
      "stupid": 3586,
      "recharge": 3587,
      "ene": 3588,
      "edges": 3589,
      "supply": 3590,
      "listed": 3591,
      "interface": 3592,
      "finished": 3593,
      "credit": 3594,
      "silver": 3595,
      "santa": 3596,
      "mouth": 3597,
      "isy": 3598,
      "uncomfortable": 3599,
      "empt": 3600,
      "ully": 3601,
      "survi": 3602,
      "sky": 3603,
      "interested": 3604,
      "individual": 3605,
      "35": 3606,
      "300": 3607,
      "pans": 3608,
      "wars": 3609,
      "enced": 3610,
      "leash": 3611,
      "nokia": 3612,
      "prin": 3613,
      "sale": 3614,
      "harder": 3615,
      "surprising": 3616,
      "knock": 3617,
      "blood": 3618,
      "familiar": 3619,
      "ders": 3620,
      "ered": 3621,
      "glow": 3622,
      "gps": 3623,
      "gni": 3624,
      "kong": 3625,
      "china": 3626,
      "iff": 3627,
      "purple": 3628,
      "ps1": 3629,
      "magic": 3630,
      "worlds": 3631,
      "radio": 3632,
      "!\"": 3633,
      "3rd": 3634,
      "ith": 3635,
      "ibility": 3636,
      "rare": 3637,
      "code": 3638,
      "wered": 3639,
      "geor": 3640,
      "moment": 3641,
      "defe": 3642,
      "bull": 3643,
      "setup": 3644,
      "adequ": 3645,
      "attempt": 3646,
      "charges": 3647,
      "wheel": 3648,
      "terrorists": 3649,
      ".,": 3650,
      ":/": 3651,
      "lcd": 3652,
      "kinda": 3653,
      "pairs": 3654,
      "electric": 3655,
      "depth": 3656,
      "comfortably": 3657,
      "patterns": 3658,
      "improvement": 3659,
      "besides": 3660,
      "static": 3661,
      "soc": 3662,
      "pleas": 3663,
      "woman": 3664,
      "stru": 3665,
      "storyline": 3666,
      "realized": 3667,
      "halo": 3668,
      "tells": 3669,
      "blackberry": 3670,
      "woody": 3671,
      "possibly": 3672,
      "hopefully": 3673,
      "dang": 3674,
      "eu": 3675,
      "jap": 3676,
      "tas": 3677,
      "accep": 3678,
      "iron": 3679,
      "earpiece": 3680,
      "spare": 3681,
      "bled": 3682,
      "omb": 3683,
      "himself": 3684,
      "picked": 3685,
      "incredible": 3686,
      "english": 3687,
      "recogni": 3688,
      "random": 3689,
      "kart": 3690,
      "ery": 3691,
      "adds": 3692,
      "comed": 3693,
      "expan": 3694,
      "emma": 3695,
      "creative": 3696,
      "voy": 3697,
      "signific": 3698,
      "mistake": 3699,
      "traveling": 3700,
      "finger": 3701,
      "cabinet": 3702,
      "winkler": 3703,
      "dan": 3704,
      "den": 3705,
      "dunge": 3706,
      "fat": 3707,
      "theme": 3708,
      "inde": 3709,
      "versat": 3710,
      "weather": 3711,
      "boot": 3712,
      "extr": 3713,
      "ideas": 3714,
      "nursing": 3715,
      "remote": 3716,
      "cushion": 3717,
      "japan": 3718,
      "hilar": 3719,
      "ral": 3720,
      "tone": 3721,
      "ud": 3722,
      "rely": 3723,
      "stages": 3724,
      "active": 3725,
      "shor": 3726,
      "compan": 3727,
      "superior": 3728,
      "valu": 3729,
      "replacing": 3730,
      "selling": 3731,
      "spring": 3732,
      "arcade": 3733,
      "650": 3734,
      "brill": 3735,
      "cul": 3736,
      "htt": 3737,
      "lb": 3738,
      "input": 3739,
      "stated": 3740,
      "kee": 3741,
      "height": 3742,
      "bob": 3743,
      "blast": 3744,
      "ishing": 3745,
      "tones": 3746,
      "hearing": 3747,
      "tested": 3748,
      "improved": 3749,
      "literally": 3750,
      "tro": 3751,
      "regre": 3752,
      "remain": 3753,
      "wifi": 3754,
      "quil": 3755,
      "spor": 3756,
      "receive": 3757,
      "sticky": 3758,
      "reasons": 3759,
      "capac": 3760,
      "styl": 3761,
      "painting": 3762,
      "following": 3763,
      "beautifully": 3764,
      "printed": 3765,
      "failed": 3766,
      "++++": 3767,
      "sweet": 3768,
      "eyre": 3769,
      "mat": 3770,
      "ught": 3771,
      "zed": 3772,
      "oldman": 3773,
      "superb": 3774,
      "younger": 3775,
      "building": 3776,
      "laminated": 3777,
      "shooting": 3778,
      "avengers": 3779,
      "://": 3780,
      "iant": 3781,
      "zomb": 3782,
      "chap": 3783,
      "compe": 3784,
      "boom": 3785,
      "elastic": 3786,
      "strange": 3787,
      "created": 3788,
      "classroom": 3789,
      "prior": 3790,
      "balls": 3791,
      "delivered": 3792,
      "dream": 3793,
      "chicken": 3794,
      "bound": 3795,
      "bond": 3796,
      "knit": 3797,
      "tick": 3798,
      "anti": 3799,
      "retail": 3800,
      "gamecube": 3801,
      "blu": 3802,
      "purse": 3803,
      "reviewer": 3804,
      "sensit": 3805,
      "yeah": 3806,
      "spray": 3807,
      "google": 3808,
      "mp3": 3809,
      "prompt": 3810,
      "rpg": 3811,
      "apparently": 3812,
      "voyager": 3813,
      "spre": 3814,
      "wine": 3815,
      "neat": 3816,
      "hey": 3817,
      "prep": 3818,
      "lite": 3819,
      "redu": 3820,
      "functions": 3821,
      "loaded": 3822,
      "aaa": 3823,
      "modern": 3824,
      "fridge": 3825,
      "folks": 3826,
      "bass": 3827,
      "pure": 3828,
      "pdf": 3829,
      "refun": 3830,
      "meet": 3831,
      "convers": 3832,
      "gameboy": 3833,
      "tee": 3834,
      "nia": 3835,
      "squee": 3836,
      "initially": 3837,
      "correctly": 3838,
      "students": 3839,
      "blender": 3840,
      "script": 3841,
      "appropriate": 3842,
      "expansion": 3843,
      "1st": 3844,
      "dad": 3845,
      "gau": 3846,
      "jig": 3847,
      "vable": 3848,
      "chem": 3849,
      "chose": 3850,
      "nets": 3851,
      "news": 3852,
      "menu": 3853,
      "specif": 3854,
      "henry": 3855,
      "television": 3856,
      "image": 3857,
      "enemy": 3858,
      "pants": 3859,
      "rec": 3860,
      "fornia": 3861,
      "soles": 3862,
      "terms": 3863,
      "exper": 3864,
      "whenever": 3865,
      "antic": 3866,
      "shoot": 3867,
      "costs": 3868,
      "viol": 3869,
      "limit": 3870,
      "snug": 3871,
      "knives": 3872,
      "depending": 3873,
      "reliable": 3874,
      "select": 3875,
      "situation": 3876,
      "capacity": 3877,
      "glo": 3878,
      "gary": 3879,
      "lab": 3880,
      "lens": 3881,
      "tall": 3882,
      "lex": 3883,
      "icated": 3884,
      "bolts": 3885,
      "exe": 3886,
      "artist": 3887,
      "hardly": 3888,
      "wax": 3889,
      "collector": 3890,
      "flying": 3891,
      "terrific": 3892,
      "events": 3893,
      "selection": 3894,
      "ike": 3895,
      "pads": 3896,
      "record": 3897,
      "ripped": 3898,
      "apply": 3899,
      "pool": 3900,
      "clar": 3901,
      "command": 3902,
      "paired": 3903,
      "mbly": 3904,
      "squeaker": 3905,
      "bene": 3906,
      "missions": 3907,
      "california": 3908,
      "russi": 3909,
      "revolution": 3910,
      "george": 3911,
      "tur": 3912,
      "van": 3913,
      "isk": 3914,
      "enna": 3915,
      "according": 3916,
      "ilities": 3917,
      "tel": 3918,
      "carol": 3919,
      "favorites": 3920,
      "chris": 3921,
      "beatles": 3922,
      "assembly": 3923,
      "vibrant": 3924,
      "lang": 3925,
      "mal": 3926,
      "source": 3927,
      "replay": 3928,
      "stiff": 3929,
      "rome": 3930,
      "nov": 3931,
      "wears": 3932,
      "proof": 3933,
      "decor": 3934,
      "dish": 3935,
      "charm": 3936,
      "pairing": 3937,
      "generally": 3938,
      "generation": 3939,
      "ankle": 3940,
      "nuts": 3941,
      "crayons": 3942,
      "hilarious": 3943,
      "600": 3944,
      "edit": 3945,
      "aps": 3946,
      "fitting": 3947,
      "guides": 3948,
      "gging": 3949,
      "decide": 3950,
      "message": 3951,
      "friendly": 3952,
      "protection": 3953,
      "rule": 3954,
      "application": 3955,
      "mart": 3956,
      "ener": 3957,
      "pris": 3958,
      "stuffing": 3959,
      "fantasy": 3960,
      "poorly": 3961,
      "score": 3962,
      "vehicles": 3963,
      "traditional": 3964,
      "texture": 3965,
      "distance": 3966,
      "remin": 3967,
      "cop": 3968,
      "ultim": 3969,
      "suff": 3970,
      "studi": 3971,
      "recept": 3972,
      "sliding": 3973,
      "mrs": 3974,
      "recipe": 3975,
      "dialog": 3976,
      "balance": 3977,
      "frequently": 3978,
      "acceptable": 3979,
      "brilliant": 3980,
      "bage": 3981,
      "pig": 3982,
      "edu": 3983,
      "weren": 3984,
      "introd": 3985,
      "marsh": 3986,
      "compat": 3987,
      "raid": 3988,
      "planning": 3989,
      "ridicul": 3990,
      "suspect": 3991,
      "structed": 3992,
      "adequate": 3993,
      "22": 3994,
      "bone": 3995,
      "eli": 3996,
      "pounds": 3997,
      "sket": 3998,
      "toes": 3999,
      "stable": 4000,
      "noisy": 4001,
      "users": 4002,
      "driver": 4003,
      "suppose": 4004,
      "knowing": 4005,
      "corner": 4006,
      "genre": 4007,
      "external": 4008,
      "thicker": 4009,
      "extras": 4010,
      "gauge": 4011,
      "introdu": 4012,
      "250": 4013,
      "nail": 4014,
      "slot": 4015,
      "wed": 4016,
      "wers": 4017,
      "anced": 4018,
      "island": 4019,
      "heel": 4020,
      "maker": 4021,
      "sonic": 4022,
      "bros": 4023,
      "former": 4024,
      "visual": 4025,
      "bedroom": 4026,
      "park": 4027,
      "processor": 4028,
      "fixture": 4029,
      "entirely": 4030,
      "mixed": 4031,
      "garbage": 4032,
      "entertainment": 4033,
      "--------": 4034,
      "concern": 4035,
      "hesit": 4036,
      "brief": 4037,
      "navig": 4038,
      "-)": 4039,
      "yo": 4040,
      "aside": 4041,
      "meter": 4042,
      "cot": 4043,
      "comments": 4044,
      "def": 4045,
      "exchange": 4046,
      "aware": 4047,
      "sticks": 4048,
      "bellamy": 4049,
      "suspen": 4050,
      "drama": 4051,
      "hay": 4052,
      "thru": 4053,
      "tops": 4054,
      "stun": 4055,
      "usage": 4056,
      "among": 4057,
      "ury": 4058,
      "progre": 4059,
      "clamp": 4060,
      "imp": 4061,
      "ppy": 4062,
      "experienced": 4063,
      "castle": 4064,
      "impressive": 4065,
      "microphone": 4066,
      "exciting": 4067,
      "regret": 4068,
      "cate": 4069,
      "ebooks": 4070,
      "hous": 4071,
      "las": 4072,
      "ration": 4073,
      "ingred": 4074,
      "trash": 4075,
      "addic": 4076,
      "members": 4077,
      "magnets": 4078,
      "checked": 4079,
      "spots": 4080,
      "soul": 4081,
      "brothers": 4082,
      "document": 4083,
      "prisma": 4084,
      "national": 4085,
      "rings": 4086,
      "slim": 4087,
      "wings": 4088,
      "era": 4089,
      "atically": 4090,
      "beach": 4091,
      "usable": 4092,
      "boards": 4093,
      "somewhere": 4094,
      "discovered": 4095,
      "carri": 4096,
      "aking": 4097,
      "stands": 4098,
      "bulk": 4099,
      "systems": 4100,
      "ivity": 4101,
      "techn": 4102,
      "subst": 4103,
      "south": 4104,
      "destroyed": 4105,
      "compliments": 4106,
      "sensitive": 4107,
      "receptac": 4108,
      "eight": 4109,
      "fence": 4110,
      "kers": 4111,
      "ann": 4112,
      "stat": 4113,
      "notch": 4114,
      "boys": 4115,
      "umes": 4116,
      "jobs": 4117,
      "indust": 4118,
      "awk": 4119,
      "drain": 4120,
      "damaged": 4121,
      "memories": 4122,
      "contains": 4123,
      "cingular": 4124,
      "miles": 4125,
      "concerned": 4126,
      "explore": 4127,
      "latest": 4128,
      "halogen": 4129,
      "ingredient": 4130,
      "dick": 4131,
      "oem": 4132,
      "ric": 4133,
      "ana": 4134,
      "advice": 4135,
      "compet": 4136,
      "antenna": 4137,
      "stove": 4138,
      "offic": 4139,
      "holder": 4140,
      "paul": 4141,
      "cardboard": 4142,
      "ridge": 4143,
      "capture": 4144,
      "operation": 4145,
      "occasionally": 4146,
      "dies": 4147,
      "tread": 4148,
      "resc": 4149,
      "isin": 4150,
      "cha": 4151,
      "worried": 4152,
      "pepper": 4153,
      "pregn": 4154,
      "earbuds": 4155,
      "handed": 4156,
      "histor": 4157,
      "trips": 4158,
      "gamers": 4159,
      "maps": 4160,
      "physical": 4161,
      "practical": 4162,
      "offered": 4163,
      "organiz": 4164,
      "public": 4165,
      "banjo": 4166,
      "clusion": 4167,
      "spread": 4168,
      "haynes": 4169,
      "bay": 4170,
      "mc": 4171,
      "rust": 4172,
      "ssing": 4173,
      "towards": 4174,
      "bleed": 4175,
      "tered": 4176,
      "bookmarks": 4177,
      "strate": 4178,
      "viewing": 4179,
      "brown": 4180,
      "owner": 4181,
      "routers": 4182,
      "complex": 4183,
      "mainly": 4184,
      "granddaughter": 4185,
      "flaws": 4186,
      "scratches": 4187,
      "named": 4188,
      "goldeneye": 4189,
      "skills": 4190,
      "target": 4191,
      "shorter": 4192,
      "awkward": 4193,
      ">&": 4194,
      "aim": 4195,
      "dres": 4196,
      "inem": 4197,
      "modes": 4198,
      "rive": 4199,
      "aming": 4200,
      "delight": 4201,
      "emer": 4202,
      "prices": 4203,
      "saves": 4204,
      "grain": 4205,
      "manage": 4206,
      "solved": 4207,
      "movement": 4208,
      "2000": 4209,
      "reasonably": 4210,
      "vari": 4211,
      "disappointing": 4212,
      "believable": 4213,
      "split": 4214,
      "awhile": 4215,
      "jet": 4216,
      "pak": 4217,
      "rack": 4218,
      "report": 4219,
      "constructed": 4220,
      "tea": 4221,
      "akes": 4222,
      "lasting": 4223,
      "diag": 4224,
      "flick": 4225,
      "letter": 4226,
      "materials": 4227,
      "questions": 4228,
      "sequel": 4229,
      "developed": 4230,
      "affordable": 4231,
      "taste": 4232,
      "teeth": 4233,
      "bun": 4234,
      "lers": 4235,
      "pins": 4236,
      "atives": 4237,
      "lling": 4238,
      "meth": 4239,
      "wii": 4240,
      "ceed": 4241,
      "brain": 4242,
      "span": 4243,
      "commun": 4244,
      "smash": 4245,
      "sions": 4246,
      "sheet": 4247,
      "shouldn": 4248,
      "classes": 4249,
      "pictured": 4250,
      "magaz": 4251,
      "binder": 4252,
      "listening": 4253,
      "crafts": 4254,
      "combination": 4255,
      "alternative": 4256,
      "surprisingly": 4257,
      "versatile": 4258,
      "bb": 4259,
      "bars": 4260,
      "bree": 4261,
      "dw": 4262,
      "dull": 4263,
      "gent": 4264,
      "sword": 4265,
      "tin": 4266,
      "ya": 4267,
      "rear": 4268,
      "losing": 4269,
      "neither": 4270,
      "ify": 4271,
      "powered": 4272,
      "hadn": 4273,
      "silly": 4274,
      "ideal": 4275,
      "finds": 4276,
      "therefore": 4277,
      "afraid": 4278,
      "avid": 4279,
      "inding": 4280,
      "awful": 4281,
      "drink": 4282,
      "showing": 4283,
      "spoil": 4284,
      "spirit": 4285,
      "comparison": 4286,
      "spacing": 4287,
      "prismacolor": 4288,
      "dates": 4289,
      "ko": 4290,
      "len": 4291,
      "ency": 4292,
      "wider": 4293,
      "tire": 4294,
      "till": 4295,
      "peter": 4296,
      "buff": 4297,
      "cape": 4298,
      "caught": 4299,
      "enjoying": 4300,
      "stronger": 4301,
      "notebook": 4302,
      "operate": 4303,
      "mounts": 4304,
      "legs": 4305,
      "expand": 4306,
      "vibration": 4307,
      "ruler": 4308,
      "tabs": 4309,
      "zipper": 4310,
      "refund": 4311,
      "sketch": 4312,
      "isinart": 4313,
      "hinds": 4314,
      "jer": 4315,
      "isher": 4316,
      "mel": 4317,
      "gems": 4318,
      "grees": 4319,
      "respect": 4320,
      "partment": 4321,
      "---": 4322,
      "path": 4323,
      "response": 4324,
      "accessories": 4325,
      "fashion": 4326,
      "princess": 4327,
      "https": 4328,
      "stylish": 4329,
      "specifically": 4330,
      "120": 4331,
      "tori": 4332,
      "envelo": 4333,
      "seam": 4334,
      "icing": 4335,
      "wipe": 4336,
      "gear": 4337,
      "combat": 4338,
      "cles": 4339,
      "discover": 4340,
      "sheets": 4341,
      "stuffed": 4342,
      "childhood": 4343,
      "cuisinart": 4344,
      "bargain": 4345,
      "threw": 4346,
      "150": 4347,
      "kaz": 4348,
      "lun": 4349,
      "mand": 4350,
      "pha": 4351,
      "tun": 4352,
      "inj": 4353,
      "seven": 4354,
      "myst": 4355,
      "bolt": 4356,
      "conner": 4357,
      "somehow": 4358,
      "epub": 4359,
      "bases": 4360,
      "appeal": 4361,
      "panel": 4362,
      "scrap": 4363,
      "virt": 4364,
      "names": 4365,
      "leader": 4366,
      "sync": 4367,
      "accessory": 4368,
      "electronic": 4369,
      "oppon": 4370,
      "lifting": 4371,
      "method": 4372,
      "cand": 4373,
      "dual": 4374,
      "ebook": 4375,
      "ka": 4376,
      "nature": 4377,
      "thumb": 4378,
      "chrome": 4379,
      "wild": 4380,
      "wired": 4381,
      "ables": 4382,
      "holly": 4383,
      "nee": 4384,
      "nel": 4385,
      "pops": 4386,
      "club": 4387,
      "managed": 4388,
      "suppor": 4389,
      "surfaces": 4390,
      "cords": 4391,
      "numerous": 4392,
      "silic": 4393,
      "bosses": 4394,
      "occasional": 4395,
      "comedy": 4396,
      "clarity": 4397,
      "langu": 4398,
      "suspense": 4399,
      "connery": 4400,
      "?)": 4401,
      "bent": 4402,
      "batt": 4403,
      "dance": 4404,
      "gt": 4405,
      "pun": 4406,
      "punch": 4407,
      "v3": 4408,
      "xtraf": 4409,
      "heck": 4410,
      "comend": 4411,
      "willing": 4412,
      "backs": 4413,
      "cloth": 4414,
      "puts": 4415,
      "palet": 4416,
      "collet": 4417,
      "brighter": 4418,
      "mechanism": 4419,
      "temper": 4420,
      "natural": 4421,
      "russian": 4422,
      "dialogue": 4423,
      "hollywood": 4424,
      "xtraflex": 4425,
      "ba": 4426,
      "b000": 4427,
      "camp": 4428,
      "gang": 4429,
      "ude": 4430,
      "refle": 4431,
      "alpha": 4432,
      "rigg": 4433,
      "essential": 4434,
      "uel": 4435,
      "affect": 4436,
      "study": 4437,
      "showed": 4438,
      "launch": 4439,
      "wonderfully": 4440,
      "adapt": 4441,
      "chucks": 4442,
      "dimen": 4443,
      "teacher": 4444,
      "hs8": 4445,
      "breeze": 4446,
      "ereader": 4447,
      "fab": 4448,
      "raf": 4449,
      "tay": 4450,
      "align": 4451,
      "adults": 4452,
      "nose": 4453,
      "moments": 4454,
      "url": 4455,
      "updated": 4456,
      "perman": 4457,
      "brid": 4458,
      "shelf": 4459,
      "sufficient": 4460,
      "owners": 4461,
      "coverage": 4462,
      "soundtrack": 4463,
      "refill": 4464,
      "horror": 4465,
      "contacts": 4466,
      "obvious": 4467,
      "advantage": 4468,
      "indeed": 4469,
      "bby": 4470,
      "sits": 4471,
      "uma": 4472,
      "thro": 4473,
      "eras": 4474,
      "escape": 4475,
      "chines": 4476,
      "core": 4477,
      "buzz": 4478,
      "caused": 4479,
      "resist": 4480,
      "locking": 4481,
      "manuals": 4482,
      "shame": 4483,
      "switched": 4484,
      "squeakers": 4485,
      "collecting": 4486,
      "empty": 4487,
      "applications": 4488,
      "taylor": 4489,
      "chinese": 4490,
      "emotion": 4491,
      "gue": 4492,
      "hip": 4493,
      "tree": 4494,
      "inver": 4495,
      "enh": 4496,
      "sters": 4497,
      "stere": 4498,
      "rocks": 4499,
      "gem": 4500,
      "pear": 4501,
      "degrees": 4502,
      "conclusion": 4503,
      "intu": 4504,
      "poly": 4505,
      "buck": 4506,
      "assume": 4507,
      "oppos": 4508,
      "flu": 4509,
      "passed": 4510,
      "ski": 4511,
      "allowed": 4512,
      "snes": 4513,
      "techni": 4514,
      "securely": 4515,
      "constant": 4516,
      "noticeable": 4517,
      "develop": 4518,
      "gorge": 4519,
      "england": 4520,
      "fu": 4521,
      "gig": 4522,
      "hated": 4523,
      "vhs": 4524,
      "mega": 4525,
      "loving": 4526,
      "nostal": 4527,
      "abilities": 4528,
      "term": 4529,
      "tiv": 4530,
      "combo": 4531,
      "canner": 4532,
      "stops": 4533,
      "closer": 4534,
      "giant": 4535,
      "letters": 4536,
      "network": 4537,
      "elsewhere": 4538,
      "marker": 4539,
      "wooden": 4540,
      "media": 4541,
      "regularly": 4542,
      "subject": 4543,
      "jumping": 4544,
      "shadow": 4545,
      "zombies": 4546,
      "progress": 4547,
      "stereo": 4548,
      "gorgeous": 4549,
      "hill": 4550,
      "ordin": 4551,
      "sex": 4552,
      "sean": 4553,
      "chain": 4554,
      "modif": 4555,
      "apple": 4556,
      "tag": 4557,
      "presto": 4558,
      "illust": 4559,
      "ola": 4560,
      "downside": 4561,
      "cris": 4562,
      "196": 4563,
      "bottle": 4564,
      "breaks": 4565,
      "mium": 4566,
      "picky": 4567,
      "horse": 4568,
      "plugs": 4569,
      "borrow": 4570,
      "assemble": 4571,
      "advance": 4572,
      "continues": 4573,
      "situations": 4574,
      "automatic": 4575,
      "soccer": 4576,
      "execut": 4577,
      "energy": 4578,
      "ingredients": 4579,
      "!).": 4580,
      "darn": 4581,
      "jaw": 4582,
      "phe": 4583,
      "pound": 4584,
      "chi": 4585,
      "dozen": 4586,
      "butter": 4587,
      "apers": 4588,
      "conside": 4589,
      "willi": 4590,
      "shine": 4591,
      "plement": 4592,
      "bracket": 4593,
      "pher": 4594,
      "sport": 4595,
      "achie": 4596,
      "shell": 4597,
      "monit": 4598,
      "cheaply": 4599,
      "durability": 4600,
      "ssl": 4601,
      "=\"\"": 4602,
      "installing": 4603,
      "sticking": 4604,
      "steal": 4605,
      "weekend": 4606,
      "intense": 4607,
      "faith": 4608,
      "speaking": 4609,
      "deliver": 4610,
      "student": 4611,
      "distur": 4612,
      "richard": 4613,
      "considered": 4614,
      "egg": 4615,
      "gin": 4616,
      "lou": 4617,
      "sess": 4618,
      "toss": 4619,
      "ened": 4620,
      "army": 4621,
      "secur": 4622,
      "nooooo": 4623,
      "neigh": 4624,
      "expl": 4625,
      "prison": 4626,
      "hassle": 4627,
      "shopping": 4628,
      "discount": 4629,
      "ortex": 4630,
      "carto": 4631,
      "pip": 4632,
      "awl": 4633,
      "badly": 4634,
      "consum": 4635,
      "leds": 4636,
      "routine": 4637,
      "waist": 4638,
      "decision": 4639,
      "ugly": 4640,
      "shaped": 4641,
      "bibl": 4642,
      "searching": 4643,
      "thinner": 4644,
      "dollar": 4645,
      "functionality": 4646,
      "truth": 4647,
      "claus": 4648,
      "approach": 4649,
      "puzzle": 4650,
      "determin": 4651,
      "japanese": 4652,
      "conversation": 4653,
      "dickens": 4654,
      "aid": 4655,
      "ape": 4656,
      "sending": 4657,
      "tour": 4658,
      "edward": 4659,
      "wires": 4660,
      "loy": 4661,
      "river": 4662,
      "grew": 4663,
      "supports": 4664,
      "heads": 4665,
      "sucks": 4666,
      "happier": 4667,
      "pressing": 4668,
      "interior": 4669,
      "consistent": 4670,
      "calendars": 4671,
      "meaning": 4672,
      "burned": 4673,
      "bathroom": 4674,
      "police": 4675,
      "sadly": 4676,
      "camping": 4677,
      "thrilled": 4678,
      "gasket": 4679,
      "thurman": 4680,
      "mystery": 4681,
      "intuitive": 4682,
      "$$": 4683,
      "glove": 4684,
      "hung": 4685,
      "ki": 4686,
      "kinds": 4687,
      "sgt": 4688,
      "tes": 4689,
      "wit": 4690,
      "zing": 4691,
      "zes": 4692,
      "theless": 4693,
      "enn": 4694,
      "sewing": 4695,
      "loss": 4696,
      "gel": 4697,
      "neath": 4698,
      "exha": 4699,
      "predic": 4700,
      "overly": 4701,
      "suck": 4702,
      "solve": 4703,
      "underneath": 4704,
      "ledge": 4705,
      "visible": 4706,
      "identical": 4707,
      "basket": 4708,
      "apartment": 4709,
      "pastels": 4710,
      "cuit": 4711,
      "depend": 4712,
      "profile": 4713,
      "guns": 4714,
      "cracked": 4715,
      "animals": 4716,
      "danie": 4717,
      "technical": 4718,
      "temperature": 4719,
      "400": 4720,
      "echo": 4721,
      "fif": 4722,
      "mber": 4723,
      "nu": 4724,
      "wro": 4725,
      "inspir": 4726,
      "removing": 4727,
      "acy": 4728,
      "comb": 4729,
      "quit": 4730,
      "clamps": 4731,
      "stric": 4732,
      "commer": 4733,
      "sudd": 4734,
      "guard": 4735,
      "surround": 4736,
      "saws": 4737,
      "share": 4738,
      "harness": 4739,
      "landsc": 4740,
      "busy": 4741,
      "bench": 4742,
      "promised": 4743,
      "cryst": 4744,
      "trailer": 4745,
      "niece": 4746,
      "colour": 4747,
      "chapter": 4748,
      "benefit": 4749,
      "compatible": 4750,
      "categor": 4751,
      "rescue": 4752,
      "silicone": 4753,
      "palette": 4754,
      "exhaust": 4755,
      "sudden": 4756,
      ",,": 4757,
      "boun": 4758,
      "iest": 4759,
      "tank": 4760,
      "seed": 4761,
      "chest": 4762,
      "outdoor": 4763,
      "accept": 4764,
      "dom": 4765,
      "tian": 4766,
      "peace": 4767,
      "plush": 4768,
      "depot": 4769,
      "apped": 4770,
      "mainten": 4771,
      "clever": 4772,
      "illumin": 4773,
      "iment": 4774,
      "serve": 4775,
      "broom": 4776,
      "lifetime": 4777,
      "speeds": 4778,
      "worthy": 4779,
      "graphic": 4780,
      "stayed": 4781,
      "extend": 4782,
      "strips": 4783,
      "repeated": 4784,
      "mixing": 4785,
      "continued": 4786,
      "crystal": 4787,
      "browser": 4788,
      "sharpen": 4789,
      "carrier": 4790,
      "wrote": 4791,
      "maintenance": 4792,
      "cular": 4793,
      "hide": 4794,
      "sprint": 4795,
      "tends": 4796,
      "meat": 4797,
      "beans": 4798,
      "heater": 4799,
      "upgrad": 4800,
      "sible": 4801,
      "iling": 4802,
      "fool": 4803,
      "phen": 4804,
      "gamer": 4805,
      "locked": 4806,
      "formula": 4807,
      "tilt": 4808,
      "......": 4809,
      "drops": 4810,
      "memorable": 4811,
      "masterpiece": 4812,
      "sweat": 4813,
      "regardless": 4814,
      "intell": 4815,
      "nicer": 4816,
      "ridiculous": 4817,
      "impact": 4818,
      "receptacle": 4819,
      "'.": 4820,
      "cortex": 4821,
      "ht": 4822,
      "lent": 4823,
      "mur": 4824,
      "pend": 4825,
      "anth": 4826,
      "reset": 4827,
      "soap": 4828,
      "socket": 4829,
      "newh": 4830,
      "apo": 4831,
      "polit": 4832,
      "istry": 4833,
      "stored": 4834,
      "gray": 4835,
      "marily": 4836,
      "highest": 4837,
      "tablets": 4838,
      "fru": 4839,
      "choices": 4840,
      "famous": 4841,
      "lamps": 4842,
      "tune": 4843,
      "capcom": 4844,
      "washed": 4845,
      "adjusting": 4846,
      "protector": 4847,
      "respond": 4848,
      "presented": 4849,
      "flawlessly": 4850,
      "bowser": 4851,
      "swivel": 4852,
      "electronics": 4853,
      "automatically": 4854,
      "accidentally": 4855,
      "precise": 4856,
      "defeat": 4857,
      "companies": 4858,
      "studio": 4859,
      "treadmill": 4860,
      "opposite": 4861,
      "95": 4862,
      "gad": 4863,
      "jar": 4864,
      "mad": 4865,
      "pit": 4866,
      "anal": 4867,
      "reve": 4868,
      "remind": 4869,
      "itary": 4870,
      "meal": 4871,
      "wid": 4872,
      "beats": 4873,
      "grey": 4874,
      "foc": 4875,
      "aff": 4876,
      "closet": 4877,
      "!!!!!": 4878,
      "pricey": 4879,
      "broad": 4880,
      "amazed": 4881,
      "poses": 4882,
      "pression": 4883,
      "classics": 4884,
      "raised": 4885,
      "element": 4886,
      "packs": 4887,
      "united": 4888,
      "starter": 4889,
      "college": 4890,
      "ooo": 4891,
      "allowing": 4892,
      "carefully": 4893,
      "thoroughly": 4894,
      "strip": 4895,
      "steps": 4896,
      "downloaded": 4897,
      "milw": 4898,
      "balanced": 4899,
      "produced": 4900,
      "rulers": 4901,
      "tasks": 4902,
      "strategy": 4903,
      "commercial": 4904,
      "newhart": 4905,
      "rab": 4906,
      "rap": 4907,
      "ingly": 4908,
      "arily": 4909,
      "wig": 4910,
      "sock": 4911,
      "tale": 4912,
      "agent": 4913,
      "scary": 4914,
      "tek": 4915,
      "whose": 4916,
      "serves": 4917,
      "instant": 4918,
      "monthly": 4919,
      "crete": 4920,
      "hooks": 4921,
      "198": 4922,
      "follows": 4923,
      "replacements": 4924,
      "casual": 4925,
      "chargers": 4926,
      "wheels": 4927,
      "containers": 4928,
      "fails": 4929,
      "failure": 4930,
      "advanced": 4931,
      "label": 4932,
      "integr": 4933,
      "promptly": 4934,
      "anticip": 4935,
      "marshall": 4936,
      "kazoo": 4937,
      "lunar": 4938,
      "language": 4939,
      ":(": 4940,
      ":-)": 4941,
      "fal": 4942,
      "fish": 4943,
      "ius": 4944,
      "aries": 4945,
      "bered": 4946,
      "noted": 4947,
      "asty": 4948,
      "donkey": 4949,
      "aukee": 4950,
      "pressed": 4951,
      "fram": 4952,
      "locks": 4953,
      "nikes": 4954,
      "rooms": 4955,
      "walls": 4956,
      "complicated": 4957,
      "begins": 4958,
      "stickers": 4959,
      "internal": 4960,
      "primarily": 4961,
      "ators": 4962,
      "performances": 4963,
      "1998": 4964,
      "circular": 4965,
      "jud": 4966,
      "lucky": 4967,
      "leaks": 4968,
      "cartridge": 4969,
      "survival": 4970,
      "gentle": 4971,
      "xtraflex2": 4972,
      "phew": 4973,
      "crystals": 4974,
      "milwaukee": 4975,
      "42": 4976,
      "[...": 4977,
      "aer": 4978,
      "flight": 4979,
      "kin": 4980,
      "pod": 4981,
      "rang": 4982,
      "witch": 4983,
      "zone": 4984,
      "ining": 4985,
      "ork": 4986,
      "sega": 4987,
      "meets": 4988,
      "unk": 4989,
      "deck": 4990,
      "shots": 4991,
      "wrist": 4992,
      "talent": 4993,
      "graphy": 4994,
      "satur": 4995,
      "finishing": 4996,
      "checking": 4997,
      "located": 4998,
      "relation": 4999
    },
    "merges": [
      "t h",
      "th e",
      "i n",
      "a n",
      "r e",
      "e r",
      "o u",
      "o n",
      "i t",
      "i s",
      "t o",
      "a t",
      "o r",
      "an d",
      "e n",
      "a s",
      "in g",
      "e d",
      "l l",
      "e s",
      "a r",
      "l e",
      "s e",
      "s t",
      "o f",
      "m e",
      "c h",
      "r o",
      "v e",
      "f or",
      "y ou",
      "a l",
      "i c",
      "a d",
      "w i",
      "a ll",
      "th is",
      "g h",
      "b e",
      "l o",
      "n o",
      "c t",
      "v er",
      "l y",
      "w h",
      "s o",
      "u t",
      "i d",
      "c o",
      "w e",
      "ou t",
      "th at",
      "wi th",
      "l i",
      "en t",
      "k e",
      "m y",
      "a y",
      "h a",
      "g o",
      "on e",
      "u s",
      "l d",
      "i on",
      "g e",
      "gh t",
      "a b",
      "a c",
      "w as",
      "m o",
      "r i",
      "a re",
      "d o",
      "h o",
      "n e",
      "b ut",
      "f e",
      "h e",
      "t er",
      "u n",
      "ha ve",
      "no t",
      "t i",
      "i f",
      "w or",
      "a m",
      "c e",
      "p e",
      "u r",
      "i r",
      "p ro",
      "p l",
      "o k",
      "u p",
      ". .",
      "co m",
      "ver y",
      "r y",
      "d e",
      "a p",
      "b o",
      "u se",
      "c on",
      "all y",
      "the r",
      "a me",
      "u st",
      "g re",
      "e x",
      "ou ld",
      "wor k",
      "the y",
      "en d",
      "t a",
      "gre at",
      "o d",
      "in t",
      "c an",
      "m a",
      "ic e",
      "ge t",
      "q u",
      "ou n",
      "p o",
      "li ke",
      "i e",
      "u l",
      "j ust",
      "ro m",
      "an y",
      "f rom",
      "h ad",
      "c le",
      "u ct",
      "s i",
      "p er",
      "id e",
      "as t",
      "u re",
      "ou gh",
      "ac k",
      "ab le",
      "you r",
      "go od",
      "wh en",
      "so me",
      "v ent",
      "i l",
      "o ther",
      "a ct",
      "ar t",
      "th ing",
      "the m",
      "es s",
      "an t",
      "c k",
      "the se",
      "ti me",
      "d s",
      "t r",
      "w ay",
      "a g",
      "wi ll",
      "d ry",
      "g ame",
      "we ll",
      "b le",
      "b u",
      "cle an",
      "p re",
      "wh i",
      "w ould",
      "e m",
      "wh at",
      "d id",
      "s h",
      "i g",
      "es t",
      "d uct",
      "er s",
      "f o",
      "p r",
      "ou r",
      "is t",
      "p le",
      "no w",
      "oun d",
      "a in",
      "f in",
      "to o",
      "b r",
      "e ar",
      "ar d",
      "u m",
      "mo re",
      "se t",
      "ab out",
      "th an",
      "on g",
      "us h",
      "c l",
      "h as",
      "v en",
      "i ll",
      "the re",
      "dry er",
      "re ad",
      "w n",
      "ne ed",
      "at e",
      "s ho",
      "t y",
      "l it",
      "s c",
      "e as",
      "u ch",
      "li ght",
      "s ide",
      "v ie",
      "s a",
      "u e",
      "on ly",
      "re ally",
      "i m",
      "it y",
      "p p",
      "pro duct",
      "lo ve",
      "p h",
      "it e",
      "l int",
      "s p",
      "ic k",
      "a f",
      "d ri",
      "s to",
      "pl ay",
      "in k",
      "it s",
      "t e",
      "o ver",
      "e p",
      "f ir",
      "ou ght",
      "re d",
      "at ion",
      "t le",
      "bo ok",
      ".. .",
      "lo w",
      "the n",
      "do es",
      "i ght",
      "b l",
      "i ve",
      "d on",
      "b ack",
      "c a",
      "b y",
      "fir st",
      "t ing",
      "u ll",
      "w o",
      "lo ok",
      "c lo",
      "re n",
      "e t",
      "work s",
      "d er",
      "in to",
      "m uch",
      "go t",
      "be t",
      "us ed",
      "lit tle",
      "ri ght",
      "ur n",
      "y ear",
      "fe ct",
      "! !",
      "as e",
      "a v",
      "whi ch",
      "in e",
      "g r",
      "a ch",
      "h and",
      "e l",
      "st r",
      "mo st",
      "t s",
      "of f",
      "e very",
      "w ant",
      "ca use",
      "m ent",
      "ad e",
      "ne w",
      "t urn",
      "ag ain",
      "a ir",
      "j o",
      "d is",
      "e ven",
      "ch ar",
      "we re",
      "ct ion",
      "m an",
      "dri ll",
      "wh o",
      "did n",
      "l ong",
      "s er",
      "be cause",
      "at ch",
      "ac e",
      "d ay",
      "a z",
      "re s",
      "r ough",
      "al so",
      "i es",
      "or t",
      "bu y",
      "com m",
      "as s",
      "af ter",
      "st ill",
      "be en",
      "ph one",
      "0 0",
      "br ush",
      "th rough",
      "b ought",
      "i gh",
      "in d",
      "at er",
      "vie w",
      "c ar",
      "per fect",
      "o p",
      "p ut",
      "ro ds",
      "s m",
      "p ur",
      "us ing",
      "m ar",
      "eas y",
      "s up",
      "l es",
      "pr ice",
      "z e",
      "ke ep",
      "al ity",
      "bet ter",
      "n ice",
      "v es",
      "a ge",
      "p s",
      "l ess",
      "ou s",
      "he ad",
      "ti m",
      "is e",
      "ho w",
      "v ing",
      "o ld",
      "v ed",
      "ro d",
      "qu ality",
      "to r",
      "l or",
      "o l",
      "h igh",
      "ou se",
      "d if",
      "an ce",
      "a k",
      "sc re",
      "f un",
      "s pe",
      "c ould",
      "ma ke",
      "re view",
      "h ouse",
      "th ink",
      "d es",
      "s ion",
      "s ure",
      "m in",
      "do wn",
      "lo t",
      "whi le",
      "b er",
      "h er",
      "fo re",
      "co lor",
      "e ach",
      "t able",
      "t wo",
      "year s",
      "sm all",
      "ve l",
      "pur ch",
      "go ing",
      "u ally",
      "at ter",
      "h is",
      "st art",
      "f it",
      "c ame",
      "e re",
      "l ast",
      "s he",
      "p art",
      "comm end",
      "r un",
      "p i",
      "se e",
      "re commend",
      "o t",
      "k es",
      "m ade",
      ") .",
      "ch e",
      "fe ren",
      "s u",
      "a u",
      "tim es",
      "p t",
      "ble m",
      "pro blem",
      "d i",
      "i ly",
      "ha pp",
      "m on",
      "co me",
      "f ul",
      "w r",
      "t en",
      "ta ch",
      "ad d",
      "o se",
      "b est",
      "be fore",
      "t ri",
      "s on",
      "at tach",
      "c i",
      "k ing",
      "clean ing",
      "pre t",
      "is h",
      "si m",
      "c ut",
      "c r",
      "v ac",
      "an g",
      "b ro",
      "am az",
      "as ed",
      "sh ould",
      "an other",
      "pret ty",
      "m any",
      "ta ke",
      "st u",
      "a w",
      "b it",
      "ar s",
      "b and",
      "th ough",
      "f ull",
      "b ig",
      "k now",
      "g u",
      "si ze",
      "way s",
      "dif feren",
      "ab ly",
      "se con",
      "n ing",
      "ar ound",
      "po s",
      "e ver",
      "g am",
      "re e",
      "com for",
      "pre s",
      "en ough",
      "p ush",
      "con t",
      "at ed",
      "ne ver",
      "se l",
      "he l",
      "se em",
      "g er",
      "ast ic",
      "fe w",
      "o m",
      "the ir",
      "1 0",
      "h ard",
      "wh ere",
      "in side",
      "ex ce",
      "b atter",
      "fin d",
      "k it",
      "s in",
      "s ay",
      "pe ct",
      "pi pe",
      "w atch",
      "p ull",
      "an s",
      "sin ce",
      "uct ion",
      "with out",
      "mo vie",
      "l ar",
      "oun t",
      "w er",
      "ic s",
      "do g",
      "act ually",
      "u b",
      "al ways",
      "does n",
      "tr a",
      "s ur",
      "f f",
      "i ous",
      "so l",
      "f i",
      "l ine",
      "w ise",
      "m ay",
      "t on",
      "o wn",
      "p ie",
      "w on",
      "sel f",
      "in st",
      "ar y",
      "f il",
      "b low",
      "s ame",
      "ho we",
      "howe ver",
      "ic al",
      "p ort",
      "f l",
      "scre w",
      "gam es",
      "out side",
      "mon th",
      "con ne",
      "c ess",
      "m as",
      "t ure",
      "o w",
      "pro b",
      "g g",
      "t ry",
      "str uction",
      "prob ably",
      "bo th",
      "we ar",
      "com p",
      "bo x",
      "differen t",
      "ex pect",
      "g l",
      "po int",
      "thing s",
      "c ase",
      "c or",
      "qu ick",
      "f ound",
      "fe el",
      "ho ld",
      "u al",
      "be ing",
      "m ight",
      "p ic",
      "it ion",
      "secon d",
      "is s",
      "on ce",
      "- -",
      "f r",
      "comfor table",
      "i ble",
      "c ent",
      "th ose",
      "st and",
      "head set",
      "v ice",
      "t al",
      "p li",
      "to m",
      "need ed",
      "ta in",
      "c es",
      "w ar",
      "c re",
      "cl ass",
      "re pl",
      "mo ve",
      "b ad",
      "po wer",
      "happ y",
      "some thing",
      "on es",
      "at ing",
      "lo ck",
      "k ind",
      "pe o",
      "peo ple",
      "for m",
      "batter y",
      "clo ck",
      "he re",
      "f ar",
      "k s",
      "i al",
      "l s",
      "b s",
      "h our",
      "se ction",
      "amaz on",
      "ta pe",
      "f le",
      "to p",
      "hel p",
      "2 0",
      "j e",
      "ist ance",
      "p a",
      "ke t",
      "work ed",
      "p en",
      "li fe",
      "che ap",
      "clock wise",
      "turn ed",
      "s y",
      "fo ot",
      "no ok",
      "sho es",
      "he av",
      "mo de",
      "r a",
      "as h",
      "c all",
      "co ver",
      "d y",
      "pic ture",
      "ver sion",
      "k id",
      "d ur",
      "sup er",
      "sto ry",
      "ma kes",
      "at t",
      "un der",
      "h im",
      "to ge",
      "g i",
      "toge ther",
      "en g",
      "lar ge",
      "e le",
      "c ou",
      "res istance",
      "one y",
      "ig n",
      "spe ed",
      "con s",
      "s ound",
      "cl u",
      "b re",
      "fin e",
      "ti l",
      "full y",
      "me m",
      "wor th",
      "look ing",
      "get ting",
      "as on",
      "g ive",
      "ch o",
      "char act",
      "to y",
      "ic ul",
      "le vel",
      "m oney",
      "ti ght",
      "exce ll",
      "attach ed",
      "t w",
      "it em",
      "jo b",
      "op en",
      "cl ut",
      ") ,",
      "in clu",
      "lo ves",
      "p air",
      "excell ent",
      "jo y",
      "or der",
      "cou ple",
      "clut ch",
      "p ack",
      "f ast",
      "en ce",
      "re al",
      "end s",
      "f t",
      "sa id",
      "n um",
      "purch ased",
      "pp ed",
      "de fin",
      "pl astic",
      "w ent",
      "v ide",
      "ate ly",
      "c li",
      "purch ase",
      "n i",
      "conne ct",
      "co ll",
      "sa w",
      "un til",
      "s ing",
      "fle x",
      "at ure",
      "com es",
      "an ge",
      "we en",
      "sto re",
      "b ul",
      "th ought",
      "is n",
      "ma g",
      "again st",
      "ha ving",
      "s en",
      "or ig",
      "w in",
      "work ing",
      "qu ite",
      "orig in",
      "book s",
      "d r",
      "i er",
      "n er",
      "we ight",
      "bro ke",
      "en joy",
      "des ign",
      "ho me",
      "i p",
      "sh ort",
      "com ing",
      "6 4",
      "bl ue",
      "t ion",
      "i ld",
      "s s",
      "i o",
      "ro om",
      "d one",
      "t re",
      "h al",
      ".. ..",
      "ap h",
      "w all",
      "day s",
      "f act",
      "scre en",
      "l ed",
      "re ce",
      "ho ok",
      "ex tra",
      "wh y",
      "m ed",
      "c y",
      "f ree",
      "i ent",
      "sho w",
      "min ut",
      "gr aph",
      "b right",
      "like ly",
      "wor ld",
      "f ri",
      "pp ing",
      "t v",
      "cle ar",
      "x t",
      "want ed",
      "a way",
      "review s",
      "le t",
      "f ig",
      "w ater",
      "heav y",
      "l ist",
      "di re",
      "fil m",
      "s low",
      "m ust",
      "fe et",
      "u ck",
      "end ing",
      "g en",
      "c al",
      "we e",
      "ro w",
      "every thing",
      "s uch",
      "f av",
      "v is",
      "month s",
      "si ve",
      "pie ce",
      "defin ite",
      "at s",
      "ic ally",
      "eas ily",
      "stu ff",
      "f ace",
      "v al",
      "al most",
      "id ent",
      "l a",
      "un it",
      "ser ies",
      "cont ro",
      "vide o",
      "= \"",
      "et c",
      "id ed",
      "y es",
      "tri ed",
      "k ed",
      "g ed",
      "ma king",
      "sim ple",
      "h it",
      "com pl",
      "ap er",
      "definite ly",
      "a ve",
      "are n",
      "t ub",
      "o b",
      "bet ween",
      "repl ac",
      "kid s",
      "b as",
      "seem s",
      "fav or",
      "in struction",
      "look s",
      "ment s",
      "l ink",
      "hal f",
      "ic ed",
      "se ver",
      "read y",
      "origin al",
      "over all",
      "hour s",
      "w al",
      "sever al",
      "am er",
      "2 00",
      "c er",
      "1 9",
      "a il",
      "expect ed",
      "de red",
      "5 0",
      "inst all",
      "flex ible",
      "be g",
      "sol ut",
      "num ber",
      "ke y",
      "sho p",
      "je ct",
      "k en",
      "qu e",
      "d ue",
      "p aper",
      "it ch",
      "* *",
      "st ick",
      "fe ature",
      "ag es",
      "r out",
      "ex act",
      "m us",
      "a th",
      "minut es",
      "v ol",
      "f am",
      "w a",
      "te ll",
      "re ason",
      "per son",
      "h u",
      "de c",
      "st ars",
      "color s",
      "tub ing",
      "d ust",
      "perfect ly",
      "read ing",
      "in s",
      "if t",
      "e ater",
      "lo ved",
      "com ple",
      "was n",
      "in ter",
      "b ed",
      "p ly",
      "p ar",
      "or dered",
      "get s",
      "c ur",
      "f an",
      "vac u",
      "vacu um",
      "ct r",
      "bo t",
      "t ed",
      "band s",
      "p ed",
      "co st",
      "pl ace",
      "pl an",
      "id es",
      "s it",
      "ci ally",
      "st ar",
      "picture s",
      "graph ics",
      "ation s",
      "dur ing",
      "ll ow",
      "high ly",
      "bl ack",
      "st em",
      "do ing",
      "ele ctr",
      "o me",
      "to ok",
      "s w",
      "happ en",
      "es pe",
      "le ast",
      "i z",
      "p ay",
      "espe cially",
      "n ess",
      "s l",
      "than k",
      "tight en",
      "c ard",
      "y et",
      "sa ve",
      "favor ite",
      "a go",
      "p ri",
      "n or",
      "bre ak",
      "sy stem",
      "may be",
      "b ir",
      "eas ier",
      "ne xt",
      "f its",
      "es ome",
      "too l",
      "set ting",
      "coll e",
      "per i",
      "v i",
      "fig ure",
      "u g",
      "f our",
      "ul ar",
      "b end",
      "but ton",
      "any one",
      "lo ad",
      "c ri",
      "w ish",
      "aw esome",
      "ar ch",
      "cont in",
      "c ed",
      "f ant",
      "au ght",
      "ch r",
      "v ar",
      "long er",
      "co ol",
      "that s",
      "lit ter",
      "sa fe",
      "il ity",
      "f lo",
      "g n",
      "sho e",
      "cut e",
      "won der",
      "re f",
      "ap art",
      "al ready",
      "v o",
      "ta kes",
      "ious ly",
      "o o",
      "th ree",
      "p ass",
      "ne t",
      "charact ers",
      "pull ing",
      "ten sion",
      "any thing",
      "wr it",
      "s of",
      "man ual",
      "some one",
      "il t",
      "c ket",
      "st e",
      "p or",
      "w ard",
      "1 2",
      "l am",
      "co ok",
      "l t",
      "em ent",
      "mus ic",
      "hu ge",
      "re g",
      "i re",
      "push ed",
      "problem s",
      "amaz ing",
      "exact ly",
      "ab solut",
      "m ess",
      "le ft",
      "hand s",
      "pie ces",
      "sh i",
      "ty pe",
      "m ount",
      "t u",
      "li m",
      "are d",
      "e f",
      "n ight",
      "2 4",
      "is ed",
      "g y",
      "absolut e",
      "act ion",
      "clo se",
      "r id",
      "c ap",
      "el se",
      "d aught",
      "m ater",
      "ing s",
      "char ge",
      "blow er",
      "gl ad",
      "quick ly",
      "was h",
      "i ther",
      "k new",
      "start ed",
      "for ce",
      "b ag",
      "run ning",
      "c tor",
      "ck s",
      "p ast",
      "in ser",
      "ar n",
      "c atch",
      "lo se",
      "end ed",
      "s k",
      "mar io",
      "f all",
      "ou ch",
      "de vice",
      "bot tom",
      "you ve",
      "pro ject",
      "play ed",
      "tr ue",
      "o c",
      "am ount",
      "de al",
      "id er",
      "th read",
      "dif f",
      "too th",
      "lint eater",
      "fam ily",
      "at ive",
      "small er",
      "az y",
      "s ha",
      "go es",
      "rece i",
      "lo ts",
      "gu ide",
      "re qu",
      "for t",
      "ch ild",
      "bu ilt",
      "m i",
      "do or",
      "comple te",
      "c us",
      "hand y",
      "ex pen",
      "str ong",
      "ction s",
      "mater ial",
      "st ay",
      "ne ar",
      "ar ri",
      "ke pt",
      "mar k",
      "wo od",
      "f air",
      "fin ally",
      "cor d",
      "pl us",
      "br and",
      "!! !",
      "p es",
      "fant astic",
      "not e",
      "ta il",
      "buy ing",
      "ad just",
      "po t",
      "class ic",
      "sol id",
      "daught er",
      "sw itch",
      "can t",
      "a ut",
      "tw ist",
      "g ift",
      "re cent",
      "st y",
      "pos si",
      "could n",
      "play ing",
      "ser vice",
      "pa int",
      "ex tension",
      "des cri",
      "th or",
      "t ap",
      "as k",
      "mas k",
      "e ad",
      "at es",
      "mem ber",
      "s mo",
      "ad s",
      "all ow",
      "ho pe",
      "expen sive",
      "inst ead",
      "absolute ly",
      "f ac",
      "be aut",
      "add ed",
      "m iss",
      "st ur",
      "diff icul",
      "dis ap",
      "no thing",
      "other s",
      "i v",
      "m b",
      "sur pr",
      "cy cle",
      "b lock",
      "inclu d",
      "y e",
      "ter s",
      "si gn",
      "blue tooth",
      "chr ist",
      "1 5",
      "e ither",
      "wa it",
      "be at",
      "would n",
      "c are",
      "t ouch",
      "iss ue",
      "al though",
      "sp in",
      "bo ard",
      "kind le",
      "1 00",
      "= =",
      "s at",
      "c able",
      "the s",
      "ul t",
      "d ate",
      "sup port",
      "fo llow",
      "nor m",
      "l eng",
      "pt ion",
      "i or",
      "li e",
      "wee k",
      "inser t",
      "y s",
      "re move",
      "pro cess",
      "your self",
      "safe ty",
      "flo or",
      "leng th",
      "p ick",
      "christ mas",
      "was her",
      "stur dy",
      "c our",
      "con ven",
      "who le",
      "beaut if",
      "clo thes",
      "ci al",
      "ain ing",
      "replac ement",
      "f ly",
      "f ight",
      "8 0",
      "bul bs",
      "b i",
      "c ro",
      "oun ds",
      "re member",
      "clean ed",
      "electr ical",
      "p ing",
      "s ed",
      "re turn",
      "se ll",
      "d ir",
      "mo to",
      "recent ly",
      "int en",
      "se en",
      "dis connect",
      "recommend ed",
      "sim ply",
      "sen se",
      "ma in",
      "try ing",
      "ch all",
      "si z",
      "val ue",
      "beg in",
      "n y",
      "dec ided",
      "disap point",
      "m ap",
      "pli ers",
      "on s",
      "se arch",
      "light s",
      "gen er",
      "recei ved",
      "sp ace",
      "g ard",
      "m is",
      "r is",
      "fe ed",
      "ha ven",
      "mode l",
      "he ar",
      "pro v",
      "wi fe",
      "wr ap",
      "arri ved",
      "are a",
      "dog s",
      "level s",
      "s n",
      "ou ble",
      "on t",
      "lo d",
      "o th",
      "re ach",
      "fort un",
      "con f",
      "ad ap",
      "l azy",
      "keep ing",
      "tu be",
      ". )",
      "m ul",
      "m er",
      "ex peri",
      "gr ound",
      "conven ient",
      "pr iced",
      "tri p",
      "ch ange",
      "wear ing",
      "med i",
      "instruction s",
      "smo oth",
      "c as",
      "le af",
      "ter ri",
      "wh ite",
      "p y",
      "pos ed",
      "m ine",
      "am s",
      "d ro",
      "m ic",
      "amer ic",
      "f a",
      "h us",
      "ro t",
      "us es",
      "int ere",
      "in ch",
      "char g",
      "lod ged",
      "mul ti",
      "intere st",
      "p age",
      "f ive",
      "st re",
      "3 0",
      "!! !!",
      "gard us",
      "f er",
      "secon ds",
      "be lie",
      "char ger",
      "ph ones",
      "possi ble",
      "d v",
      "s or",
      "contin ue",
      "b all",
      "ab ility",
      "un ch",
      "car ry",
      "m en",
      "ar k",
      "pre v",
      "stu me",
      "ic es",
      "ide a",
      "fri end",
      "hus band",
      "d am",
      "i mag",
      "co stume",
      "charact er",
      "figure d",
      "in y",
      "m s",
      "int s",
      "re le",
      "repl ace",
      "old er",
      "wonder ful",
      "p ages",
      "ap pe",
      "o per",
      "sof t",
      "gi ven",
      "a tor",
      "li ked",
      "do w",
      "un less",
      "m r",
      "in es",
      "it ed",
      "twist ed",
      "p an",
      "fortun ately",
      "re st",
      "play er",
      "au to",
      "fil ter",
      "ro ll",
      "1 6",
      "r ing",
      "ve red",
      "cons ist",
      "de tail",
      "op tion",
      "c u",
      "ra ther",
      "cer tain",
      "u me",
      "to ry",
      "open ing",
      "some times",
      "beautif ul",
      "need s",
      "ch ang",
      "d a",
      "win dow",
      "dire ctions",
      "batter ies",
      "is su",
      "own ed",
      "ar p",
      "of ten",
      "al ong",
      "mem or",
      "fin ish",
      "tra vel",
      "me tal",
      "comm on",
      "ren ch",
      "fr ont",
      "inclu de",
      "icul ar",
      "ch uck",
      "ab r",
      "b in",
      "fair ly",
      "sc en",
      "wr ong",
      "add ition",
      "l ater",
      "pro te",
      "wr ite",
      "rout er",
      "ver t",
      "spe cial",
      "moto ro",
      "bu cks",
      "difficul t",
      "n 64",
      "res s",
      "cons ider",
      "issu es",
      "ent s",
      "gr and",
      "ho se",
      "un g",
      "motoro la",
      "g ave",
      "for d",
      "ex ter",
      "bl ade",
      "che ck",
      "h or",
      "ex tre",
      "av ail",
      "it self",
      "lo ose",
      "ex t",
      "compl a",
      "h ind",
      "hand le",
      "o g",
      "part icular",
      "it ive",
      "6 0",
      "r u",
      "com put",
      "gg ed",
      "us b",
      "fo od",
      "c ount",
      "r ub",
      "mo v",
      "h ar",
      "lo c",
      "su gg",
      "dv d",
      "ta king",
      "po cket",
      "sugg est",
      "l ad",
      "le av",
      "fi ed",
      "ce ll",
      "differen ce",
      "pres sure",
      "extre me",
      "fi x",
      "fri ends",
      "cour se",
      "sty le",
      "my self",
      "ang les",
      "al s",
      "ion s",
      "ab o",
      "cus tom",
      "m ac",
      "um p",
      "hel ps",
      "p u",
      "be hind",
      "exce pt",
      "sup posed",
      "attach ment",
      "norm al",
      "feature s",
      "bo dy",
      "\" .",
      "mo ving",
      "shi pping",
      "id d",
      "ho les",
      "un fortunately",
      "ie ty",
      "fe lt",
      "thor ough",
      "cho ol",
      "ch an",
      "avail able",
      "cli p",
      "hook ed",
      "bir ds",
      "ant ly",
      "n ed",
      "p ho",
      "s light",
      "spe ak",
      "lar ger",
      "bo y",
      "t ask",
      "ap pli",
      "tr ack",
      "vo ice",
      "m ind",
      "ok ay",
      "c ast",
      "w rench",
      "re l",
      "s que",
      "up date",
      "pl ug",
      "g ir",
      "list en",
      "fect ive",
      "st ri",
      "contro l",
      "c at",
      "reg ular",
      "to day",
      "b ar",
      "ver s",
      "att ic",
      "vol ume",
      "s le",
      "on d",
      "as se",
      "ch en",
      "look ed",
      "n inten",
      "ninten do",
      "r ound",
      "w are",
      "an k",
      "ion ed",
      "ma il",
      "comput er",
      "th in",
      "re sp",
      "ver se",
      "kit chen",
      "fi re",
      "section s",
      "th ick",
      "help ful",
      "writ ten",
      "ma ch",
      "sp ending",
      "experi ence",
      "ro ad",
      "g ri",
      "do ll",
      "work out",
      "dur able",
      "abo ve",
      "pl ac",
      "can not",
      "i red",
      "be ll",
      "ent ire",
      "2 5",
      "de li",
      "turn s",
      "fun ction",
      "var iety",
      "extreme ly",
      "c red",
      "s ounds",
      "or s",
      "y ing",
      "il ar",
      "o h",
      "as ure",
      "ti p",
      "read er",
      "product s",
      "te ch",
      "belie ve",
      "s and",
      "mar vel",
      "bro ken",
      "seem ed",
      "st ep",
      "man u",
      "disappoint ed",
      "an e",
      "ke ts",
      "po or",
      "gu ess",
      "c amer",
      "ple ased",
      "pho to",
      "m oun",
      "im pres",
      "chall eng",
      "manu fact",
      "ho le",
      "screw s",
      "mov ies",
      "le arn",
      "with in",
      "ac cess",
      "su b",
      "cli mb",
      "wee ks",
      "co vered",
      "part s",
      "over priced",
      "o il",
      "at a",
      "t est",
      "what ever",
      "toy s",
      "b ill",
      "ne cess",
      "gu y",
      "l and",
      "ld a",
      "ent er",
      "cr ash",
      "fl at",
      "con d",
      "slow er",
      "t it",
      "en sure",
      "tr ouble",
      "than ks",
      "descri bed",
      "game play",
      "b at",
      "ou d",
      "s chool",
      "americ an",
      "b ase",
      "g id",
      "j am",
      "as ter",
      "ble w",
      "think ing",
      "ad vert",
      "includ ed",
      "spin ning",
      "g one",
      "not iced",
      "z z",
      "tr ans",
      "what s",
      "d ark",
      "re pe",
      "l ing",
      "low est",
      "sto p",
      "tighten ed",
      "exter ior",
      "d ata",
      "h um",
      "k ni",
      "sp ent",
      "bas ically",
      "a ther",
      "h ang",
      "ed ge",
      "adap ter",
      "p c",
      "se par",
      "wh e",
      "bu d",
      "sc r",
      "b or",
      "un screw",
      "ag ed",
      "son y",
      "item s",
      "us ually",
      "cal end",
      "camer a",
      "you n",
      "n ame",
      "pr int",
      "ze lda",
      "ent y",
      "feren ce",
      "appli ance",
      "mo tor",
      "c ab",
      "in it",
      "ta ken",
      "f ill",
      "rot ary",
      "s ides",
      "dry ing",
      "dri es",
      "to tal",
      "ent ion",
      "f ist",
      "se ason",
      "ir d",
      "watch ed",
      "f low",
      "r or",
      "de cent",
      "cut s",
      "pres ident",
      "disconnect ed",
      "p up",
      "st er",
      "so on",
      "comp any",
      "pass able",
      "e v",
      "s co",
      ".. ...",
      "ta ct",
      "in form",
      "le g",
      "me chan",
      "if ic",
      "bu m",
      "im port",
      "sat is",
      "in ed",
      "every one",
      "manufact ure",
      "sing le",
      "ob struction",
      "hold s",
      "l id",
      "gi ves",
      "tap ing",
      "e yes",
      "ex er",
      "bu ild",
      "dis lodged",
      "le ave",
      "rid gid",
      "catch er",
      "e vent",
      "r an",
      "w ads",
      "im passable",
      "clo ds",
      "clutch ed",
      "charg ing",
      "d u",
      "n on",
      "im pro",
      "say s",
      "siz ed",
      "r ating",
      "con struction",
      "ren t",
      "exer c",
      "in cre",
      "h on",
      "z er",
      "st ation",
      "bo ther",
      "act iv",
      "sto pped",
      "dri ving",
      "au di",
      "j un",
      "in v",
      "en s",
      "v ir",
      "colle ction",
      "complete ly",
      "c oun",
      "mi x",
      "terri ble",
      "b t",
      "no ise",
      "wor d",
      "other wise",
      "con tain",
      "ang le",
      "r on",
      "to wn",
      "po se",
      "under stand",
      "ep is",
      "table t",
      "f ail",
      "watch ing",
      "pre ci",
      "sho t",
      "an no",
      "re search",
      "at ic",
      "de p",
      "any more",
      "wo w",
      "b ur",
      "li ve",
      "tr u",
      "str ap",
      "child ren",
      "wi de",
      "char ged",
      "comfor t",
      "dam age",
      "n ur",
      "re ct",
      "clear ly",
      "** **",
      "use ful",
      "iz ed",
      "b ly",
      "ent ial",
      "k ill",
      "big ger",
      "b ased",
      "comp ared",
      "necess ary",
      "g ar",
      "m atter",
      "pl enty",
      "s ent",
      "s ong",
      "v s",
      "ff ic",
      "feel s",
      "\" >",
      "g row",
      "tr aining",
      "wi re",
      "ne ck",
      "hand les",
      "car ds",
      "prov ided",
      "rub ber",
      "cond ition",
      "advert ised",
      "k y",
      "n a",
      "am p",
      "att ention",
      "leav es",
      "e qu",
      "ap preci",
      "ck ed",
      "tr act",
      "memor y",
      "manufacture r",
      "le ts",
      "lo st",
      "min i",
      "sque ak",
      "me an",
      "button s",
      "9 0",
      "r ange",
      "in a",
      "ho t",
      "min im",
      "e at",
      "ur ing",
      "asse m",
      "7 5",
      "any way",
      "bul b",
      "ad es",
      "sit ting",
      "slight ly",
      "j or",
      "t em",
      "pos ition",
      "wait ing",
      "4 0",
      "wor ds",
      "stand ard",
      "mic ro",
      "i ze",
      "pr of",
      "lo o",
      "ffic ient",
      "li p",
      "b urn",
      "b unch",
      "p ad",
      "air s",
      "interest ing",
      "it ies",
      "was te",
      "light weight",
      "b ers",
      "i a",
      "ad vent",
      "he ld",
      "de v",
      "pres ent",
      "cor rect",
      "cheap er",
      "wal t",
      "sor ry",
      "c ure",
      "ma le",
      "ph ys",
      "dr aw",
      "all en",
      "enjoy ed",
      "ar m",
      "happen s",
      "pro per",
      "pl ant",
      "b us",
      "c d",
      "c ats",
      "spe c",
      "last ed",
      "contro ls",
      "lo cal",
      "ac tor",
      "go ld",
      "qu est",
      "ser iously",
      "keep s",
      "video s",
      "f re",
      "s ams",
      "ex c",
      "gl ass",
      "ve lo",
      "de walt",
      "show s",
      "is es",
      "fl ash",
      "design ed",
      "mach ine",
      "\" ,",
      "sim ilar",
      "e ye",
      "l er",
      "me asure",
      "per for",
      "sh ip",
      "s pr",
      "re mo",
      "as ing",
      "ma jor",
      "pr act",
      "bre ath",
      "sams ung",
      "ma id",
      "ev il",
      "st airs",
      "l ack",
      "pos itive",
      "vis it",
      "p lot",
      "r ace",
      "se cure",
      "so le",
      "sup pli",
      "calend ar",
      "n al",
      "po p",
      "r am",
      "si l",
      "install ed",
      "da ily",
      "b ible",
      "ro ss",
      "lam b",
      "doll ars",
      "fo ld",
      "op in",
      "gy m",
      "== ==",
      "a a",
      "perfor man",
      "+ +",
      "m atch",
      "li ft",
      "de fective",
      "sto ck",
      "custom er",
      "re ference",
      "nice ly",
      "cut ting",
      "i an",
      "19 9",
      "n b",
      "r v",
      "zer o",
      "appreci ate",
      "un i",
      "con tr",
      "sto r",
      "conne ctor",
      "headset s",
      "bas ic",
      "sell er",
      "inform ation",
      ". \"",
      "j ack",
      "ex p",
      "fun ny",
      "pri me",
      "imag es",
      "advent ure",
      "s um",
      "on line",
      "too ls",
      "1 8",
      "h ur",
      "me ans",
      "colle ct",
      "enter tain",
      "import ant",
      "4 5",
      ": )",
      "l u",
      "p aren",
      "ch op",
      "go og",
      "kni fe",
      "inv est",
      "i le",
      "in ess",
      "me t",
      "con tact",
      "act ing",
      "gr ade",
      "dire ct",
      "dir ty",
      "separ ate",
      "f abr",
      "sa ving",
      "gi ving",
      "ad v",
      "pack age",
      "nb sp",
      "we igh",
      "cook er",
      "g an",
      "p ain",
      "tr ay",
      "pull ed",
      "call ed",
      "ri ll",
      "l oud",
      "so ld",
      "cur rent",
      "1 1",
      "b ath",
      "c ing",
      "f ans",
      "s po",
      "ve h",
      "ion al",
      "con st",
      "cl um",
      "want ing",
      "gg le",
      "beg an",
      "anno ying",
      "g un",
      "li br",
      "prev iously",
      "opin ion",
      "for ced",
      "clean er",
      "miss ed",
      "follow ed",
      "hon est",
      "loo sen",
      "fac tor",
      "contro ll",
      "youn g",
      "ri es",
      "pl ain",
      "ag ing",
      "sh arp",
      "ist s",
      "minim al",
      "b on",
      "pe t",
      "ele ments",
      "dr ag",
      "g b",
      "be come",
      "str a",
      "_ _",
      "we t",
      "mar ket",
      "part y",
      "stu d",
      "prote ct",
      "l ay",
      "p atch",
      "li kes",
      "not ice",
      "replac ed",
      "veh ic",
      "d est",
      "f y",
      "f ing",
      "th row",
      "re ci",
      "play station",
      "allow s",
      "surpr ise",
      "f ic",
      "for th",
      "po l",
      "set s",
      "down load",
      "pa id",
      "pay ing",
      "ef fect",
      "includ ing",
      "b ust",
      "s us",
      "tal k",
      "incre ase",
      "< /",
      "pre fer",
      "cl a",
      "fl aw",
      "fabr ic",
      "s ou",
      "re in",
      "ch es",
      "he art",
      "ap pro",
      "ie ld",
      "ul ts",
      "cr af",
      "ni ke",
      "19 7",
      "gre en",
      "ist ic",
      "m il",
      "am ple",
      "de ad",
      "wash ing",
      "1 4",
      "a h",
      "c ir",
      "near ly",
      "ac ross",
      "smooth ly",
      "mark ers",
      "f 8",
      "m it",
      "m ing",
      "ent ly",
      "cho ice",
      "bud get",
      "libr ary",
      "d p",
      "et s",
      "call s",
      "scr atch",
      "for ward",
      "ac cur",
      "doesn t",
      "mas ter",
      "s qu",
      "satis fied",
      "is ter",
      "back up",
      "should er",
      "port ion",
      "wal k",
      "2 1",
      "n am",
      "r ac",
      "r ant",
      "s es",
      "di al",
      "plant ron",
      "b ble",
      "bo ss",
      "per form",
      "el s",
      "a ver",
      "h i",
      "po st",
      "vi br",
      "writ ing",
      "lad y",
      "init ial",
      "c m",
      "n one",
      "bo w",
      "ta ge",
      "h p",
      "s me",
      "pl ic",
      "ma ins",
      "ear s",
      "bl ing",
      "pot ential",
      "ris on",
      "har rison",
      "audi o",
      "stra ight",
      "dri ve",
      "loc ation",
      "j ane",
      "wal king",
      "surpr ised",
      "prev ious",
      "re mains",
      "ut f8",
      "fe male",
      "vac ation",
      "conf using",
      "certain ly",
      "plantron ics",
      "h all",
      "tru ly",
      "th ird",
      "re turned",
      "? \"",
      "b ab",
      "e fficient",
      "ll y",
      "you tube",
      "link ed",
      "3 2",
      "b en",
      "k no",
      "fe ar",
      "peri od",
      "lim ited",
      "t ch",
      "ck ing",
      "d re",
      "hold ing",
      "compla int",
      "se qu",
      "for get",
      "mo bi",
      "ass um",
      "war ning",
      "t iny",
      "fr ust",
      "h un",
      "o s",
      "off ice",
      "mar ked",
      "tor n",
      "multi ple",
      "m p",
      "p ink",
      "le ad",
      "man ner",
      "var ious",
      "ris k",
      "wrap ped",
      "bat tle",
      "repe at",
      "grow ing",
      "in cred",
      "he ard",
      "fin al",
      "gir l",
      "i i",
      "j u",
      "l ap",
      "im medi",
      "cover s",
      "compla ints",
      "f ut",
      "t ack",
      "to we",
      "block s",
      "impres sed",
      "n es",
      "are ly",
      "su c",
      "oc cas",
      "f lim",
      "tw ice",
      "g es",
      "t xt",
      "play s",
      "bl ades",
      "ot ed",
      "thread s",
      "stor age",
      "f ur",
      "p atter",
      "clo sing",
      "00 0",
      "cm _",
      "mobi le",
      "b al",
      "to t",
      "cr _",
      "cr ack",
      "stand ing",
      "window s",
      "performan ce",
      "cm_ cr_",
      "1 3",
      "d _",
      "l ines",
      "we ap",
      "put ting",
      "c um",
      "d ut",
      "h ref",
      "sto res",
      "scen es",
      "_ txt",
      "_ d_",
      "w _txt",
      "id ence",
      "ent ry",
      "pro s",
      "=\" /",
      "ob v",
      "arp _d_",
      "rv w_txt",
      "cm_cr_ arp_d_",
      "cm_cr_arp_d_ rvw_txt",
      "on to",
      "mo ves",
      "pro gr",
      "de velo",
      "tr ick",
      "sh ift",
      "pup py",
      "dev ices",
      "k ick",
      "s we",
      "x y",
      "z ard",
      "ar ds",
      "st ren",
      "run s",
      "-- --",
      "idd le",
      "d im",
      "s ne",
      "re verse",
      "se cre",
      "not es",
      "bu ds",
      "person al",
      "thank fully",
      "epis od",
      "suppli ed",
      "sh iny",
      "sp ir",
      "don t",
      "ger y",
      "tot ally",
      "episod es",
      "i li",
      "of fe",
      "tr uck",
      "sp end",
      "contin u",
      "pu zz",
      "flim sy",
      "l uck",
      "we ak",
      "vent s",
      "sh ir",
      "d ie",
      "is m",
      "en em",
      "ro y",
      "si x",
      "some what",
      "cro ss",
      "oper ating",
      "fut ure",
      "patter n",
      "g all",
      "ha ps",
      "ear ly",
      "push ing",
      "cord less",
      "sn ap",
      "enem ies",
      "al a",
      "us er",
      "con cer",
      "pur pose",
      "bro ther",
      "stren g",
      "e ld",
      "need les",
      "tor que",
      "eng ine",
      "dust er",
      "ste el",
      "conf ident",
      "sne ak",
      "per haps",
      "te ach",
      "got ten",
      "think s",
      "j um",
      "n ut",
      "s uction",
      "je ans",
      "mag net",
      "pe el",
      "sc ared",
      "his tory",
      "compl aining",
      "rele ased",
      "s ort",
      "pl u",
      "ul ated",
      "ant s",
      "bu cket",
      "che w",
      "fr ame",
      "war ned",
      "medi um",
      "an im",
      "ple ase",
      "war rant",
      "al bum",
      "bl an",
      "su cked",
      "mess y",
      "bust er",
      "3 d",
      "7 00",
      "b lo",
      "an ch",
      "id i",
      "br ing",
      "off er",
      "last ly",
      "sur gery",
      "fig uring",
      "listen ed",
      "k not",
      "to ld",
      "le ak",
      "ti er",
      "pres s",
      "rele ase",
      "sme ll",
      "r az",
      "id ing",
      "co py",
      "em p",
      "high er",
      "form at",
      "cab les",
      "impro ve",
      "immedi ately",
      "dut y",
      "d ig",
      "re li",
      "jo ints",
      "min us",
      "attach ing",
      "sur face",
      "tal king",
      "lam in",
      "extension s",
      "proper ly",
      "m iddle",
      "sa ke",
      "op tim",
      "chang ed",
      "e mail",
      "g a",
      "l in",
      "s ad",
      "se le",
      "des p",
      "screw ed",
      "heav ily",
      "descri ption",
      "appe ar",
      "jam med",
      "le ather",
      "ro ck",
      "we b",
      "pro du",
      "cho ose",
      "h es",
      "un like",
      "tw are",
      "sof tware",
      "g or",
      "p al",
      "wo re",
      "200 1",
      "thread ed",
      "idd en",
      "assum ed",
      "h idden",
      "bab y",
      "lo gy",
      "br is",
      "jo ined",
      "review ing",
      "purch asing",
      "compl ain",
      "reach ed",
      "hor ri",
      "stri pped",
      "gall on",
      "l ately",
      "r ated",
      "s end",
      "it al",
      "wi ggle",
      "dis aster",
      "win s",
      "begin ning",
      "c am",
      "j our",
      "s d",
      "dis assem",
      "stre et",
      "aver age",
      "l au",
      "m or",
      "n est",
      "re pair",
      "al th",
      "pro m",
      "bu bble",
      "sign ed",
      "option s",
      "flow ing",
      "c il",
      "h y",
      "m m",
      "be y",
      "ne g",
      "ce pt",
      "ex ample",
      "clo gged",
      "through out",
      "stay s",
      "streng th",
      "b ends",
      "re connect",
      "de bris",
      "tre o",
      "care ful",
      "desp ite",
      "s pot",
      "wi eld",
      "mo tion",
      "back ed",
      "pi pes",
      "stu ck",
      "por ts",
      "rein force",
      "t ough",
      "is ing",
      "hand ful",
      "200 5",
      "plan e",
      "tap ed",
      "consist s",
      "challeng ed",
      "event ually",
      "phys ics",
      "saving s",
      "h d",
      "h at",
      "r ul",
      "drill ing",
      "short cuts",
      "sha pe",
      "miss ing",
      "jun ction",
      "bus iness",
      "idi ot",
      "p ine",
      "s un",
      "t ab",
      "in sur",
      "com fy",
      "setting s",
      "gener al",
      "insur ance",
      "un ge",
      "sc iss",
      "car p",
      "car s",
      "last s",
      "climb ing",
      "warrant y",
      "lau gh",
      "p at",
      "t ext",
      "he at",
      "ex it",
      "sto pping",
      "low er",
      "bir th",
      "loosen ed",
      "towe ls",
      "n ar",
      "um in",
      "dis c",
      "cr ay",
      "oc to",
      "deli very",
      "b arn",
      "d ated",
      "h ate",
      "ha zard",
      "are as",
      "au thor",
      "consider ing",
      "bur st",
      "optim al",
      "octo ber",
      "b its",
      "d d",
      "st ain",
      "bl end",
      "prof ess",
      "d ist",
      "m ill",
      "ho ping",
      "um b",
      "most ly",
      "ment ion",
      "know n",
      "litter maid",
      "fantastic ally",
      "const antly",
      "sho cking",
      "conne ction",
      "efficient ly",
      "tack le",
      "f ield",
      "k ink",
      "o ween",
      "or gan",
      "se ph",
      "wor n",
      "pl at",
      "pl ate",
      "gre e",
      "gr ou",
      "oo oo",
      "stre tch",
      "progr am",
      "j ump",
      "mo ther",
      "com ment",
      "light ing",
      "hard ware",
      "lock er",
      "mis sion",
      "5 10",
      "l on",
      "r ate",
      "w ad",
      "en vis",
      "ter ror",
      "av o",
      "sim pli",
      "por ter",
      "fight ing",
      "hall oween",
      "e y",
      "s al",
      "sho o",
      "coll ar",
      "ins ulated",
      "mechan ically",
      "coun ter",
      "warning s",
      "l abr",
      "ter n",
      "un wield",
      "clean ers",
      "jo seph",
      "mar ks",
      "rout ed",
      "bend y",
      "dir tier",
      "lad der",
      "unwield y",
      "h vac",
      "in ward",
      "en ge",
      "en sur",
      "no vel",
      "id ol",
      "ap tion",
      "ag er",
      "see ing",
      "war ds",
      "contr aption",
      "w ind",
      "br it",
      "sp ans",
      "gir ls",
      "sciss ors",
      "simpli fied",
      "d ress",
      "p ump",
      "en gl",
      "lo ct",
      "we ve",
      "go bs",
      "he ll",
      "qu oted",
      "res idence",
      "cleaning s",
      "20 2",
      "ye llow",
      "activ ating",
      "sum mer",
      "dest roy",
      "carp entry",
      "ensur ing",
      "loct ite",
      "g est",
      "us ual",
      "block age",
      "unscrew ing",
      "exerc ises",
      "197 7",
      "blan kets",
      "disassem bling",
      "envis ioned",
      "k nur",
      "t end",
      "ad ult",
      "qu ie",
      "clo d",
      "consist ing",
      "thorough ness",
      "clum si",
      "knot ted",
      "* ?",
      "6 hp",
      "i ally",
      "r 8",
      "t t",
      "mo der",
      "ir ator",
      "up s",
      "ap plic",
      "bo o",
      "vel cro",
      "pen cil",
      "must y",
      "sl ats",
      "mount ed",
      "sign al",
      "chall enge",
      "resp irator",
      "accur ate",
      "barn es",
      "kink ed",
      "d ou",
      "h s",
      "r le",
      "z ip",
      "re signed",
      "ri ch",
      "po ke",
      "des k",
      "comfor ters",
      "dr am",
      "face lift",
      "project s",
      "scen e",
      "mac ram",
      "goog les",
      "weap ons",
      "secre t",
      "labr um",
      "knur led",
      "clod buster",
      "clumsi est",
      "r8 2005",
      "rle 202",
      "d ouble",
      "p per",
      "se al",
      "un lock",
      "box es",
      "rece ption",
      "inter net",
      "sit u",
      "controll er",
      "plu gged",
      "en vir",
      "be ar",
      "pro vide",
      "act ual",
      "product ion",
      "te am",
      "plac es",
      "envir on",
      "? ?",
      "c ry",
      "cl ick",
      "feel ing",
      "song s",
      "s an",
      "s wi",
      "cli ps",
      "b arely",
      "ri ed",
      "solut ion",
      "dro p",
      "whe ther",
      "b ility",
      "v in",
      "at tract",
      "se at",
      "bo at",
      "ment ioned",
      "min or",
      "sel ves",
      "comp act",
      "suc cess",
      "g s",
      "r ad",
      "be lt",
      "any where",
      "tr ad",
      "ation al",
      "dis play",
      "add ress",
      "power ful",
      "cal i",
      ", \"",
      "l g",
      "l ate",
      "as es",
      "no ble",
      "com bin",
      "bag s",
      "norm ally",
      "gri p",
      "vehic le",
      "washing ton",
      "review ers",
      "find ing",
      "say ing",
      "bin oc",
      "speak er",
      "trans fer",
      "ti es",
      "eas e",
      "want s",
      "sm art",
      "version s",
      "resp on",
      "tit le",
      "adv an",
      "bon us",
      "a le",
      "t ear",
      "th rill",
      "her o",
      "comp ar",
      "requ ire",
      "moun ting",
      "hur t",
      "h n",
      "k er",
      "key board",
      "sle ep",
      "photo s",
      "r p",
      "t ly",
      "in expensive",
      "lo l",
      "pack aging",
      "shi pped",
      "actor s",
      "exp lo",
      "d in",
      "it ing",
      "is on",
      "de ep",
      "exce ption",
      "mode ls",
      "7 0",
      "ch ance",
      "wor st",
      "use less",
      "ans wer",
      "appe ars",
      "lap top",
      "iz on",
      "fight er",
      "plat form",
      "r us",
      "book mark",
      "back ground",
      "str uct",
      "res ults",
      "sl ide",
      "inch es",
      "addition al",
      "pu bl",
      "gold en",
      "shir t",
      "f requ",
      "le ar",
      "ro o",
      "prov ides",
      "c ity",
      "d ing",
      "d ed",
      "h ub",
      "i ves",
      "to e",
      "ro id",
      "clo sed",
      "jo hn",
      "origin ally",
      "sk in",
      "fall ing",
      "challeng ing",
      "5 00",
      "a ven",
      "b ing",
      "f aster",
      "st al",
      "fore ver",
      "cent er",
      "order ing",
      "door s",
      "siz es",
      "uni que",
      "g ala",
      "l ts",
      "l bs",
      "m es",
      "li er",
      "them selves",
      "tr ain",
      "sp ice",
      "sk ill",
      "requ ired",
      "i phone",
      "in ds",
      "it es",
      "or ange",
      "sp ac",
      "gam ing",
      "num bers",
      "minut e",
      "; <",
      "b an",
      "i res",
      "en ces",
      "ut ion",
      "ho od",
      "sc ri",
      "sy n",
      "g as",
      "th us",
      "res ident",
      "start s",
      "vis ion",
      "break ing",
      "sle e",
      "birth day",
      "poke mon",
      "lear ning",
      "re co",
      "wor ry",
      "gu ys",
      "cre ate",
      "fa ult",
      "access or",
      "bor ing",
      "cla im",
      "y ard",
      "an ces",
      "lo g",
      "up on",
      "ind iv",
      "difficul ty",
      "rel ative",
      "sho wn",
      "ser ious",
      "carry ing",
      "b es",
      "b ri",
      "j ab",
      "s had",
      "ic o",
      "ti e",
      "add ing",
      "comp are",
      "brand s",
      "fa ther",
      "effect s",
      "fur ther",
      "s ch",
      "s pl",
      "st ates",
      "lo op",
      "co ld",
      "li ves",
      "fe ll",
      "gr ad",
      "connect ed",
      "cook ing",
      "dro pped",
      "indiv id",
      "! )",
      "h en",
      "ser v",
      "plan ner",
      "fac tory",
      "tech no",
      "sand er",
      "moun tain",
      "obv iously",
      "ad mit",
      "ul ars",
      "happen ed",
      "sneak ers",
      "raz r",
      "s lip",
      "and roid",
      "ha ir",
      "wor se",
      "de ath",
      "fo am",
      "fir m",
      "bro w",
      "att ack",
      "film s",
      "horri ble",
      "binoc ulars",
      "gala xy",
      "n d",
      "go d",
      "up per",
      "lit er",
      "sc roll",
      "chang es",
      "pal m",
      "1 7",
      "i ed",
      "l f",
      "n ers",
      "ce p",
      "ma x",
      "real ize",
      "ch art",
      "ro le",
      "go al",
      "great est",
      "tr ust",
      "every where",
      "new er",
      "bul ky",
      "install ation",
      "hum or",
      "fo cus",
      "sp y",
      "cr azy",
      "reg ard",
      "n at",
      "wo men",
      "ish ed",
      "big gest",
      "enjoy able",
      "avo id",
      "in fl",
      "lo red",
      "bl es",
      "imag ine",
      "count ry",
      "al one",
      "ous ly",
      "requ ires",
      "bey ond",
      "profess ional",
      "d ic",
      "al tern",
      "exerc ise",
      "magnet ic",
      "c ident",
      "c kets",
      "n it",
      "in vol",
      "sh ar",
      "light er",
      "di v",
      "electr on",
      "grou p",
      "m id",
      "p ical",
      "r ay",
      "r ain",
      "st ate",
      "au tom",
      "expect ing",
      "gl ue",
      "exc ited",
      "s li",
      "w ing",
      "al ot",
      "he alth",
      "up grade",
      "point s",
      "pen s",
      "la be",
      "reason able",
      "cab in",
      "puzz les",
      "r and",
      "co lored",
      "im possible",
      "te en",
      "ber ry",
      "color ing",
      "tra il",
      "open ed",
      "vi a",
      "entertain ing",
      "p ac",
      "ad or",
      "we bs",
      "un its",
      "tr an",
      "ear lier",
      "te le",
      "ind ic",
      "su it",
      "fr id",
      "dire ctor",
      "chang ing",
      "jab ra",
      "c up",
      "ur al",
      "up stairs",
      "con verse",
      "every day",
      "down stairs",
      "expect ations",
      "person ally",
      "detail s",
      "detail ed",
      "equ ip",
      "i ence",
      "ty pical",
      "gr ab",
      "design s",
      "lam p",
      "ef fective",
      "attract ive",
      "c offe",
      "o pp",
      "s now",
      "li ving",
      "ty pes",
      "turn ing",
      "war m",
      "season s",
      "spec ific",
      "glass es",
      "pract ice",
      "j es",
      "be low",
      "ne y",
      "car ina",
      "coffe e",
      "f ash",
      "if ts",
      "af ford",
      "off ers",
      "know s",
      "bir d",
      "grand son",
      "ext ended",
      "gar age",
      "reci pes",
      "g ain",
      "l aw",
      "es e",
      "ch ick",
      "int e",
      "int ended",
      "tom b",
      "b 00",
      "i bly",
      "o carina",
      "ti ve",
      "ap paren",
      "sh ut",
      "less ly",
      "paint s",
      "multi player",
      "quie t",
      "ed ition",
      "li f",
      "mo m",
      "ti ps",
      "ap ps",
      "con cept",
      "our ce",
      "res ult",
      "real istic",
      "cu be",
      "**** ****",
      "fre sh",
      "remo ved",
      "craf t",
      "rac ing",
      "nar row",
      "2 nd",
      "th ur",
      "as pect",
      "ar c",
      "br ings",
      "start ing",
      "ste ed",
      "fix ed",
      "lamb chop",
      "direct ly",
      "dou bt",
      "c ush",
      "l ic",
      "is ion",
      "out standing",
      "do om",
      "do cum",
      "ho lid",
      "has n",
      "play ers",
      "ton s",
      "ra ider",
      "win ter",
      "fam ili",
      "leav ing",
      "==== ====",
      "neg ative",
      "trad ition",
      "holid ay",
      "g ing",
      "ti red",
      "cl us",
      "ra ke",
      "water color",
      "bi ke",
      "dir t",
      "track s",
      "jun k",
      "occas ion",
      "equip ment",
      "jes us",
      "9 9",
      "er ing",
      "mo ved",
      "ex plain",
      "read ers",
      "mar y",
      "inclu des",
      "return ing",
      "fing ers",
      "s ite",
      "v ic",
      "w rest",
      "be comes",
      "de ter",
      "tri es",
      "cr it",
      "port able",
      "tell ing",
      "brit ish",
      "c art",
      "s am",
      "ut e",
      "ex ist",
      "fo x",
      "color ful",
      "heav ier",
      "workout s",
      "plac ed",
      "quest ion",
      "honest ly",
      "relative ly",
      "a head",
      "s ister",
      "t ic",
      "t ast",
      "er ous",
      "st age",
      "ad o",
      "ac ket",
      "spe ct",
      "ob ject",
      "wire less",
      "techno logy",
      "g on",
      "g ers",
      "g ifts",
      "m ou",
      "t ex",
      "in fo",
      "we ird",
      "ri p",
      "love ly",
      "sto ries",
      "fil es",
      "cord ing",
      "adjust able",
      "americ a",
      "__ __",
      "f ro",
      "f li",
      "n ie",
      "z en",
      "ro pe",
      "pre vent",
      "sa ved",
      "cont ent",
      "tre ats",
      "tit les",
      "leg end",
      "anch or",
      "jour nal",
      "mor ning",
      "p in",
      "r ide",
      "u ne",
      "u ff",
      "as ked",
      "ac count",
      "ps 2",
      "tri m",
      "pack ed",
      "tre at",
      "particular ly",
      "frust rating",
      "a my",
      "i ma",
      "w w",
      "as y",
      "ar ms",
      "am ps",
      "ap p",
      "si ght",
      "ip ad",
      "dire ction",
      "squ are",
      "incred ibly",
      "f lip",
      "o de",
      "w ink",
      "ro ches",
      "ha m",
      "tr af",
      "head phones",
      "des er",
      "di ed",
      "help ed",
      "por tray",
      "sco op",
      "epis ode",
      "ador able",
      "g ro",
      "l at",
      "al umin",
      "us a",
      "po ckets",
      "key s",
      "cas es",
      "strap s",
      "alumin um",
      "h h",
      "t ar",
      "st up",
      "ac cident",
      "pre c",
      "ef fort",
      "adjust ment",
      "fac es",
      "hum an",
      "paren ts",
      "dig ital",
      "environ ment",
      "spy ro",
      "webs ite",
      "roches ter",
      "d f",
      "re vol",
      "le y",
      "st itch",
      "pl es",
      "con sole",
      "od d",
      "ul a",
      "cr ap",
      "might y",
      "cool er",
      "appro pri",
      "a gree",
      "m ir",
      "m ort",
      "r d",
      "t ent",
      "we l",
      "my ster",
      "band ico",
      "comp li",
      "bright ness",
      "function al",
      "jam es",
      "fill ed",
      "pop ular",
      "bandico ot",
      "d ash",
      "k ia",
      "n ic",
      "y r",
      "me ant",
      "ic y",
      "ver izon",
      "co l",
      "per s",
      "fo l",
      "brush es",
      "hel met",
      "pack aged",
      "weight s",
      "fall s",
      "hang ing",
      "flash light",
      "current ly",
      "a ke",
      "n av",
      "r it",
      "v ill",
      "th re",
      "be came",
      "br ought",
      "fi le",
      "learn ed",
      "contain er",
      "drag on",
      "stain less",
      "pencil s",
      "stup id",
      "re charge",
      "en e",
      "ed ges",
      "sup ply",
      "list ed",
      "inter face",
      "finish ed",
      "cred it",
      "sil ver",
      "san ta",
      "mou th",
      "is y",
      "un comfortable",
      "em pt",
      "ull y",
      "sur vi",
      "sk y",
      "interest ed",
      "individ ual",
      "3 5",
      "3 00",
      "p ans",
      "w ars",
      "en ced",
      "le ash",
      "no kia",
      "pr in",
      "sa le",
      "hard er",
      "surpr ising",
      "kno ck",
      "blo od",
      "famili ar",
      "d ers",
      "e red",
      "g low",
      "g ps",
      "g ni",
      "k ong",
      "ch ina",
      "if f",
      "pur ple",
      "ps 1",
      "mag ic",
      "world s",
      "rad io",
      "! \"",
      "3 rd",
      "i th",
      "i bility",
      "r are",
      "co de",
      "we red",
      "ge or",
      "mo ment",
      "de fe",
      "bu ll",
      "set up",
      "ade qu",
      "att empt",
      "charg es",
      "whe el",
      "terror ists",
      ". ,",
      ": /",
      "l cd",
      "kind a",
      "pair s",
      "electr ic",
      "dep th",
      "comfort ably",
      "pattern s",
      "improve ment",
      "bes ides",
      "st atic",
      "so c",
      "ple as",
      "wo man",
      "str u",
      "story line",
      "real ized",
      "hal o",
      "tell s",
      "black berry",
      "wood y",
      "possi bly",
      "hope fully",
      "d ang",
      "e u",
      "j ap",
      "t as",
      "ac cep",
      "ir on",
      "ear piece",
      "sp are",
      "bl ed",
      "om b",
      "him self",
      "pick ed",
      "incred ible",
      "engl ish",
      "reco gni",
      "rand om",
      "k art",
      "er y",
      "ad ds",
      "com ed",
      "ex pan",
      "em ma",
      "cre ative",
      "vo y",
      "sign ific",
      "mis take",
      "travel ing",
      "fing er",
      "cabin et",
      "wink ler",
      "d an",
      "d en",
      "d unge",
      "f at",
      "the me",
      "in de",
      "ver sat",
      "we ather",
      "bo ot",
      "ex tr",
      "ide as",
      "nur sing",
      "remo te",
      "cush ion",
      "jap an",
      "h ilar",
      "r al",
      "t one",
      "u d",
      "re ly",
      "st ages",
      "act ive",
      "sh or",
      "comp an",
      "super ior",
      "val u",
      "replac ing",
      "sell ing",
      "spr ing",
      "arc ade",
      "6 50",
      "b rill",
      "c ul",
      "h tt",
      "l b",
      "in put",
      "st ated",
      "ke e",
      "he ight",
      "bo b",
      "bl ast",
      "ish ing",
      "ton es",
      "hear ing",
      "test ed",
      "impro ved",
      "liter ally",
      "t ro",
      "re gre",
      "re main",
      "wi fi",
      "qu il",
      "sp or",
      "rece ive",
      "stick y",
      "reason s",
      "cap ac",
      "sty l",
      "paint ing",
      "follow ing",
      "beautif ully",
      "print ed",
      "fail ed",
      "++ ++",
      "swe et",
      "ey re",
      "m at",
      "u ght",
      "z ed",
      "old man",
      "super b",
      "youn ger",
      "build ing",
      "lamin ated",
      "shoo ting",
      "aven gers",
      ":/ /",
      "i ant",
      "z omb",
      "ch ap",
      "com pe",
      "bo om",
      "el astic",
      "str ange",
      "cre ated",
      "class room",
      "pri or",
      "ball s",
      "deli vered",
      "dre am",
      "chick en",
      "b ound",
      "b ond",
      "k nit",
      "t ick",
      "an ti",
      "re tail",
      "game cube",
      "bl u",
      "pur se",
      "review er",
      "sen sit",
      "ye ah",
      "spr ay",
      "goog le",
      "mp 3",
      "prom pt",
      "rp g",
      "apparen tly",
      "voy ager",
      "s pre",
      "w ine",
      "ne at",
      "he y",
      "pre p",
      "lit e",
      "red u",
      "fun ctions",
      "load ed",
      "aa a",
      "moder n",
      "frid ge",
      "fol ks",
      "b ass",
      "p ure",
      "p df",
      "re fun",
      "me et",
      "con vers",
      "game boy",
      "te e",
      "ni a",
      "sque e",
      "init ially",
      "correct ly",
      "stud ents",
      "blend er",
      "scri pt",
      "appropri ate",
      "expan sion",
      "1 st",
      "d ad",
      "g au",
      "j ig",
      "v able",
      "ch em",
      "ch ose",
      "ne ts",
      "new s",
      "men u",
      "spec if",
      "hen ry",
      "tele vision",
      "ima ge",
      "ene my",
      "p ants",
      "re c",
      "for nia",
      "so les",
      "ter ms",
      "ex per",
      "when ever",
      "ant ic",
      "sho ot",
      "cost s",
      "vi ol",
      "lim it",
      "sn ug",
      "kni ves",
      "dep ending",
      "reli able",
      "sele ct",
      "situ ation",
      "capac ity",
      "g lo",
      "g ary",
      "l ab",
      "l ens",
      "t all",
      "le x",
      "ic ated",
      "bo lts",
      "ex e",
      "art ist",
      "hard ly",
      "wa x",
      "colle ctor",
      "fly ing",
      "terri fic",
      "event s",
      "sele ction",
      "i ke",
      "p ads",
      "re cord",
      "ri pped",
      "ap ply",
      "po ol",
      "cl ar",
      "comm and",
      "pa ired",
      "mb ly",
      "squeak er",
      "ben e",
      "mission s",
      "cali fornia",
      "rus si",
      "revol ution",
      "geor ge",
      "t ur",
      "v an",
      "is k",
      "en na",
      "ac cording",
      "il ities",
      "te l",
      "car ol",
      "favor ites",
      "chr is",
      "beat les",
      "asse mbly",
      "vibr ant",
      "l ang",
      "m al",
      "s ource",
      "re play",
      "st iff",
      "ro me",
      "no v",
      "we ars",
      "pro of",
      "de cor",
      "dis h",
      "char m",
      "pair ing",
      "gener ally",
      "gener ation",
      "ank le",
      "nut s",
      "cray ons",
      "hilar ious",
      "6 00",
      "ed it",
      "ap s",
      "fit ting",
      "gu ides",
      "gg ing",
      "dec ide",
      "mess age",
      "friend ly",
      "prote ction",
      "ru le",
      "applic ation",
      "m art",
      "en er",
      "pr is",
      "stuff ing",
      "fant asy",
      "poor ly",
      "sco re",
      "vehic les",
      "tradition al",
      "tex ture",
      "d istance",
      "re min",
      "co p",
      "ul tim",
      "su ff",
      "stu di",
      "rece pt",
      "sl iding",
      "mr s",
      "reci pe",
      "dial og",
      "bal ance",
      "frequ ently",
      "accep table",
      "brill iant",
      "b age",
      "p ig",
      "ed u",
      "we ren",
      "int rod",
      "mar sh",
      "comp at",
      "ra id",
      "plan ning",
      "rid icul",
      "sus pect",
      "struct ed",
      "adequ ate",
      "2 2",
      "b one",
      "e li",
      "p ounds",
      "s ket",
      "to es",
      "st able",
      "no isy",
      "us ers",
      "dri ver",
      "sup pose",
      "know ing",
      "cor ner",
      "gen re",
      "exter nal",
      "thick er",
      "extr as",
      "gau ge",
      "introd u",
      "2 50",
      "n ail",
      "s lot",
      "w ed",
      "w ers",
      "an ced",
      "is land",
      "he el",
      "ma ker",
      "son ic",
      "bro s",
      "form er",
      "vis ual",
      "bed room",
      "par k",
      "process or",
      "fix ture",
      "entire ly",
      "mix ed",
      "gar bage",
      "entertain ment",
      "---- ----",
      "concer n",
      "hes it",
      "bri ef",
      "nav ig",
      "- )",
      "y o",
      "as ide",
      "me ter",
      "co t",
      "com ments",
      "de f",
      "ex change",
      "aw are",
      "stick s",
      "bell amy",
      "sus pen",
      "dram a",
      "h ay",
      "th ru",
      "to ps",
      "st un",
      "us age",
      "am ong",
      "ur y",
      "pro gre",
      "cl amp",
      "im p",
      "pp y",
      "experi enced",
      "cast le",
      "impres sive",
      "micro phone",
      "exc iting",
      "regre t",
      "c ate",
      "e books",
      "h ous",
      "l as",
      "r ation",
      "ing red",
      "tr ash",
      "add ic",
      "mem bers",
      "mag nets",
      "check ed",
      "spo ts",
      "sou l",
      "brother s",
      "docum ent",
      "pris ma",
      "n ational",
      "r ings",
      "s lim",
      "w ings",
      "er a",
      "at ically",
      "be ach",
      "us able",
      "bo ards",
      "some where",
      "dis covered",
      "car ri",
      "ak ing",
      "stand s",
      "bul k",
      "system s",
      "iv ity",
      "tech n",
      "sub st",
      "sou th",
      "destroy ed",
      "compli ments",
      "sensit ive",
      "recept ac",
      "e ight",
      "f ence",
      "k ers",
      "an n",
      "st at",
      "not ch",
      "bo ys",
      "um es",
      "jo bs",
      "ind ust",
      "aw k",
      "dr ain",
      "dam aged",
      "memor ies",
      "contain s",
      "cing ular",
      "mil es",
      "concer ned",
      "explo re",
      "lat est",
      "halo gen",
      "ingred ient",
      "d ick",
      "o em",
      "r ic",
      "an a",
      "ad vice",
      "com pet",
      "ant enna",
      "sto ve",
      "off ic",
      "hold er",
      "pa ul",
      "card board",
      "rid ge",
      "cap ture",
      "oper ation",
      "occasion ally",
      "d ies",
      "t read",
      "re sc",
      "is in",
      "ch a",
      "wor ried",
      "pe pper",
      "pre gn",
      "ear buds",
      "hand ed",
      "his tor",
      "tri ps",
      "gam ers",
      "map s",
      "phys ical",
      "pract ical",
      "offe red",
      "organ iz",
      "publ ic",
      "ban jo",
      "clus ion",
      "spre ad",
      "hay nes",
      "b ay",
      "m c",
      "r ust",
      "s sing",
      "to wards",
      "ble ed",
      "te red",
      "book marks",
      "str ate",
      "view ing",
      "bro wn",
      "own er",
      "rout ers",
      "comple x",
      "main ly",
      "grand daughter",
      "flaw s",
      "scratch es",
      "nam ed",
      "golden eye",
      "skill s",
      "tar get",
      "shor ter",
      "awk ward",
      "> &",
      "a im",
      "d res",
      "in em",
      "mo des",
      "ri ve",
      "am ing",
      "de light",
      "em er",
      "pr ices",
      "sa ves",
      "gr ain",
      "man age",
      "sol ved",
      "move ment",
      "200 0",
      "reason ably",
      "var i",
      "disappoint ing",
      "belie vable",
      "spl it",
      "a while",
      "j et",
      "p ak",
      "r ack",
      "re port",
      "con structed",
      "te a",
      "ak es",
      "last ing",
      "di ag",
      "fl ick",
      "let ter",
      "material s",
      "quest ions",
      "sequ el",
      "develo ped",
      "afford able",
      "tast e",
      "tee th",
      "b un",
      "l ers",
      "p ins",
      "at ives",
      "ll ing",
      "me th",
      "wi i",
      "ce ed",
      "br ain",
      "sp an",
      "comm un",
      "sm ash",
      "sion s",
      "she et",
      "should n",
      "class es",
      "picture d",
      "mag az",
      "bin der",
      "listen ing",
      "craf ts",
      "combin ation",
      "altern ative",
      "surprising ly",
      "versat ile",
      "b b",
      "b ars",
      "b ree",
      "d w",
      "d ull",
      "g ent",
      "s word",
      "t in",
      "y a",
      "re ar",
      "lo sing",
      "ne ither",
      "if y",
      "po wered",
      "had n",
      "si lly",
      "ide al",
      "fin ds",
      "there fore",
      "af raid",
      "av id",
      "ind ing",
      "aw ful",
      "dr ink",
      "show ing",
      "spo il",
      "spir it",
      "compar ison",
      "spac ing",
      "prisma color",
      "d ates",
      "k o",
      "l en",
      "en cy",
      "wi der",
      "ti re",
      "ti ll",
      "pe ter",
      "bu ff",
      "ca pe",
      "ca ught",
      "enjoy ing",
      "strong er",
      "note book",
      "oper ate",
      "moun ts",
      "leg s",
      "exp and",
      "vibr ation",
      "rul er",
      "tab s",
      "zip per",
      "refun d",
      "sket ch",
      "isin art",
      "h inds",
      "j er",
      "is her",
      "me l",
      "ge ms",
      "gre es",
      "res pect",
      "part ment",
      "-- -",
      "pa th",
      "respon se",
      "accessor ies",
      "fash ion",
      "prin cess",
      "htt ps",
      "styl ish",
      "specif ically",
      "1 20",
      "to ri",
      "en velo",
      "se am",
      "ic ing",
      "wi pe",
      "ge ar",
      "com bat",
      "cl es",
      "dis cover",
      "she ets",
      "stuff ed",
      "child hood",
      "cu isinart",
      "bar gain",
      "thre w",
      "1 50",
      "k az",
      "l un",
      "m and",
      "p ha",
      "t un",
      "in j",
      "se ven",
      "my st",
      "bo lt",
      "con ner",
      "some how",
      "ep ub",
      "bas es",
      "appe al",
      "pan el",
      "scr ap",
      "vir t",
      "nam es",
      "lead er",
      "syn c",
      "accessor y",
      "electron ic",
      "opp on",
      "lif ting",
      "meth od",
      "c and",
      "d ual",
      "e book",
      "k a",
      "n ature",
      "th umb",
      "ch rome",
      "wi ld",
      "wi red",
      "ab les",
      "ho lly",
      "ne e",
      "ne l",
      "po ps",
      "cl ub",
      "man aged",
      "sup por",
      "sur faces",
      "cor ds",
      "num erous",
      "sil ic",
      "boss es",
      "occas ional",
      "comed y",
      "clar ity",
      "lang u",
      "suspen se",
      "conner y",
      "? )",
      "b ent",
      "b att",
      "d ance",
      "g t",
      "p un",
      "p unch",
      "v 3",
      "x traf",
      "he ck",
      "com end",
      "will ing",
      "back s",
      "clo th",
      "put s",
      "pa let",
      "coll et",
      "bright er",
      "mechan ism",
      "tem per",
      "nat ural",
      "russi an",
      "dialog ue",
      "holly wood",
      "xtraf lex",
      "b a",
      "b 000",
      "c amp",
      "g ang",
      "u de",
      "re fle",
      "al pha",
      "ri gg",
      "ess ential",
      "ue l",
      "af fect",
      "stu dy",
      "show ed",
      "la unch",
      "wonder fully",
      "adap t",
      "chuck s",
      "dim en",
      "teach er",
      "hs 8",
      "bree ze",
      "e reader",
      "f ab",
      "r af",
      "t ay",
      "al ign",
      "ad ults",
      "no se",
      "mo ments",
      "ur l",
      "up dated",
      "per man",
      "br id",
      "she lf",
      "su fficient",
      "own ers",
      "cover age",
      "sound track",
      "ref ill",
      "hor ror",
      "contact s",
      "obv ious",
      "advan tage",
      "inde ed",
      "b by",
      "s its",
      "u ma",
      "th ro",
      "er as",
      "es cape",
      "ch ines",
      "co re",
      "bu zz",
      "ca used",
      "res ist",
      "lock ing",
      "manual s",
      "sha me",
      "switch ed",
      "squeak ers",
      "collect ing",
      "emp ty",
      "applic ations",
      "tay lor",
      "chines e",
      "e motion",
      "g ue",
      "h ip",
      "t ree",
      "in ver",
      "en h",
      "st ers",
      "st ere",
      "ro cks",
      "ge m",
      "pe ar",
      "de grees",
      "con clusion",
      "int u",
      "po ly",
      "bu ck",
      "ass ume",
      "op pos",
      "fl u",
      "pass ed",
      "sk i",
      "allow ed",
      "sn es",
      "tech ni",
      "secure ly",
      "const ant",
      "notice able",
      "develo p",
      "gor ge",
      "engl and",
      "f u",
      "g ig",
      "h ated",
      "v hs",
      "me ga",
      "lo ving",
      "no stal",
      "ab ilities",
      "ter m",
      "ti v",
      "com bo",
      "can ner",
      "sto ps",
      "clo ser",
      "gi ant",
      "let ters",
      "net work",
      "else where",
      "mark er",
      "wood en",
      "medi a",
      "regular ly",
      "sub ject",
      "jum ping",
      "shad ow",
      "zomb ies",
      "progre ss",
      "stere o",
      "gorge ous",
      "h ill",
      "or din",
      "se x",
      "se an",
      "ch ain",
      "mo dif",
      "ap ple",
      "ta g",
      "pre sto",
      "ill ust",
      "ol a",
      "down side",
      "cr is",
      "19 6",
      "bot tle",
      "break s",
      "mi um",
      "pick y",
      "hor se",
      "plug s",
      "bor row",
      "assem ble",
      "adv ance",
      "continu es",
      "situ ations",
      "autom atic",
      "soc cer",
      "exe cut",
      "ener gy",
      "ingredient s",
      "! ).",
      "d arn",
      "j aw",
      "p he",
      "p ound",
      "ch i",
      "do zen",
      "but ter",
      "ap ers",
      "con side",
      "will i",
      "sh ine",
      "ple ment",
      "br acket",
      "ph er",
      "sp ort",
      "ach ie",
      "she ll",
      "mon it",
      "cheap ly",
      "dur ability",
      "ss l",
      "=\" \"",
      "install ing",
      "stick ing",
      "ste al",
      "week end",
      "inten se",
      "fa ith",
      "speak ing",
      "deli ver",
      "stud ent",
      "dist ur",
      "rich ard",
      "conside red",
      "e gg",
      "g in",
      "l ou",
      "s ess",
      "to ss",
      "en ed",
      "ar my",
      "se cur",
      "no oooo",
      "ne igh",
      "ex pl",
      "pr ison",
      "has sle",
      "sho pping",
      "dis count",
      "ort ex",
      "car to",
      "pi p",
      "aw l",
      "bad ly",
      "cons um",
      "led s",
      "rout ine",
      "wa ist",
      "dec ision",
      "ug ly",
      "sha ped",
      "bi bl",
      "search ing",
      "thin ner",
      "doll ar",
      "function ality",
      "tru th",
      "cla us",
      "appro ach",
      "puzz le",
      "deter min",
      "japan ese",
      "convers ation",
      "dick ens",
      "a id",
      "a pe",
      "s ending",
      "t our",
      "ed ward",
      "wi res",
      "lo y",
      "ri ver",
      "gre w",
      "sup ports",
      "head s",
      "su cks",
      "happ ier",
      "pres sing",
      "inter ior",
      "consist ent",
      "calend ars",
      "mean ing",
      "burn ed",
      "bath room",
      "pol ice",
      "sad ly",
      "cam ping",
      "thrill ed",
      "gas ket",
      "thur man",
      "myster y",
      "intu itive",
      "$ $",
      "g love",
      "h ung",
      "k i",
      "k inds",
      "s gt",
      "t es",
      "w it",
      "z ing",
      "z es",
      "the less",
      "en n",
      "se wing",
      "lo ss",
      "ge l",
      "ne ath",
      "ex ha",
      "pre dic",
      "over ly",
      "su ck",
      "sol ve",
      "under neath",
      "led ge",
      "vis ible",
      "ident ical",
      "bas ket",
      "apart ment",
      "past els",
      "cu it",
      "dep end",
      "prof ile",
      "gun s",
      "crack ed",
      "anim als",
      "dan ie",
      "techn ical",
      "temper ature",
      "4 00",
      "e cho",
      "f if",
      "m ber",
      "n u",
      "w ro",
      "in spir",
      "re moving",
      "ac y",
      "com b",
      "qu it",
      "cl amps",
      "str ic",
      "comm er",
      "su dd",
      "gu ard",
      "sur round",
      "saw s",
      "sha re",
      "har ness",
      "land sc",
      "bus y",
      "ben ch",
      "prom ised",
      "cry st",
      "trail er",
      "nie ce",
      "col our",
      "chap ter",
      "bene fit",
      "compat ible",
      "cate gor",
      "resc ue",
      "silic one",
      "palet te",
      "exha ust",
      "sudd en",
      ", ,",
      "b oun",
      "i est",
      "t ank",
      "se ed",
      "ch est",
      "out door",
      "ac cept",
      "do m",
      "ti an",
      "pe ace",
      "pl ush",
      "de pot",
      "ap ped",
      "ma inten",
      "cle ver",
      "ill umin",
      "im ent",
      "ser ve",
      "bro om",
      "life time",
      "speed s",
      "worth y",
      "graph ic",
      "stay ed",
      "ext end",
      "stri ps",
      "repe ated",
      "mix ing",
      "continu ed",
      "cry stal",
      "brow ser",
      "shar pen",
      "carri er",
      "wro te",
      "mainten ance",
      "c ular",
      "h ide",
      "s print",
      "t ends",
      "me at",
      "be ans",
      "he ater",
      "up grad",
      "si ble",
      "il ing",
      "fo ol",
      "ph en",
      "gam er",
      "lock ed",
      "form ula",
      "til t",
      ".... ..",
      "dro ps",
      "memor able",
      "master piece",
      "swe at",
      "regard less",
      "inte ll",
      "nic er",
      "ridicul ous",
      "imp act",
      "receptac le",
      "' .",
      "c ortex",
      "h t",
      "l ent",
      "m ur",
      "p end",
      "an th",
      "re set",
      "so ap",
      "so cket",
      "ne wh",
      "ap o",
      "po lit",
      "ist ry",
      "sto red",
      "gr ay",
      "mar ily",
      "high est",
      "table ts",
      "fr u",
      "cho ices",
      "fam ous",
      "lam ps",
      "tu ne",
      "cap com",
      "wash ed",
      "adjust ing",
      "prote ctor",
      "resp ond",
      "present ed",
      "flaw lessly",
      "bow ser",
      "swi vel",
      "electron ics",
      "autom atically",
      "accident ally",
      "prec ise",
      "defe at",
      "compan ies",
      "studi o",
      "tread mill",
      "oppos ite",
      "9 5",
      "g ad",
      "j ar",
      "m ad",
      "p it",
      "an al",
      "re ve",
      "re mind",
      "it ary",
      "me al",
      "wi d",
      "be ats",
      "gre y",
      "fo c",
      "af f",
      "clo set",
      "!! !!!",
      "price y",
      "bro ad",
      "amaz ed",
      "pos es",
      "pres sion",
      "class ics",
      "ra ised",
      "ele ment",
      "pack s",
      "unit ed",
      "star ter",
      "colle ge",
      "oo o",
      "allow ing",
      "care fully",
      "thorough ly",
      "stri p",
      "step s",
      "download ed",
      "mil w",
      "bal anced",
      "produ ced",
      "rul ers",
      "tas ks",
      "strate gy",
      "commer cial",
      "newh art",
      "r ab",
      "r ap",
      "ing ly",
      "ar ily",
      "wi g",
      "so ck",
      "ta le",
      "ag ent",
      "sc ary",
      "te k",
      "who se",
      "ser ves",
      "inst ant",
      "month ly",
      "cre te",
      "hook s",
      "19 8",
      "follow s",
      "replacement s",
      "cas ual",
      "charg ers",
      "whe els",
      "contain ers",
      "fail s",
      "fail ure",
      "advan ced",
      "labe l",
      "inte gr",
      "prompt ly",
      "antic ip",
      "marsh all",
      "kaz oo",
      "lun ar",
      "langu age",
      ": (",
      ": -)",
      "f al",
      "f ish",
      "i us",
      "ar ies",
      "be red",
      "not ed",
      "ast y",
      "don key",
      "au kee",
      "pres sed",
      "fr am",
      "lock s",
      "ni kes",
      "room s",
      "wall s",
      "compl icated",
      "beg ins",
      "stick ers",
      "inter nal",
      "pri marily",
      "ator s",
      "performan ces",
      "199 8",
      "cir cular",
      "ju d",
      "luck y",
      "leak s",
      "cart ridge",
      "survi val",
      "gent le",
      "xtraflex 2",
      "phe w",
      "cryst als",
      "milw aukee",
      "4 2",
      "[ ...",
      "a er",
      "f light",
      "k in",
      "p od",
      "r ang",
      "w itch",
      "z one",
      "in ing",
      "or k",
      "se ga",
      "me ets",
      "un k",
      "de ck",
      "sho ts",
      "wr ist",
      "tal ent",
      "graph y",
      "sat ur",
      "finish ing",
      "check ing",
      "loc ated",
      "rel ation"
    ]
  }
}