{
  "version": "1.0",
  "truncation": null,
  "padding": null,
  "added_tokens": [
    {
      "id": 0,
      "content": "<PAD>",
      "single_word": false,
      "lstrip": false,
      "rstrip": false,
      "normalized": false,
      "special": true
    }
  ],
  "normalizer": {
    "type": "Lowercase"
  },
  "pre_tokenizer": {
    "type": "Whitespace"
  },
  "post_processor": null,
  "decoder": null,
  "model": {
    "type": "BPE",
    "dropout": null,
    "unk_token": null,
    "continuing_subword_prefix": null,
    "end_of_word_suffix": null,
    "fuse_unk": false,
    "vocab": {
      "<PAD>": 0,
      "\u001b": 1,
      "\u001d": 2,
      "!": 3,
      "\"": 4,
      "#": 5,
      "$": 6,
      "%": 7,
      "&": 8,
      "'": 9,
      "(": 10,
      ")": 11,
      "*": 12,
      "+": 13,
      ",": 14,
      "-": 15,
      ".": 16,
      "/": 17,
      "0": 18,
      "1": 19,
      "2": 20,
      "3": 21,
      "4": 22,
      "5": 23,
      "6": 24,
      "7": 25,
      "8": 26,
      "9": 27,
      ":": 28,
      ";": 29,
      "<": 30,
      "=": 31,
      ">": 32,
      "?": 33,
      "@": 34,
      "[": 35,
      "\\": 36,
      "]": 37,
      "^": 38,
      "_": 39,
      "`": 40,
      "a": 41,
      "b": 42,
      "c": 43,
      "d": 44,
      "e": 45,
      "f": 46,
      "g": 47,
      "h": 48,
      "i": 49,
      "j": 50,
      "k": 51,
      "l": 52,
      "m": 53,
      "n": 54,
      "o": 55,
      "p": 56,
      "q": 57,
      "r": 58,
      "s": 59,
      "t": 60,
      "u": 61,
      "v": 62,
      "w": 63,
      "x": 64,
      "y": 65,
      "z": 66,
      "{": 67,
      "|": 68,
      "}": 69,
      "~": 70,
      "th": 71,
      "in": 72,
      "the": 73,
      "an": 74,
      "re": 75,
      "er": 76,
      "on": 77,
      "is": 78,
      "ou": 79,
      "it": 80,
      "at": 81,
      "or": 82,
      "to": 83,
      "and": 84,
      "en": 85,
      "as": 86,
      "al": 87,
      "ing": 88,
      "es": 89,
      "ed": 90,
      "ar": 91,
      "st": 92,
      "of": 93,
      "le": 94,
      "se": 95,
      "ic": 96,
      "ly": 97,
      "me": 98,
      "ve": 99,
      "ro": 100,
      "ch": 101,
      "for": 102,
      "this": 103,
      "ad": 104,
      "be": 105,
      "ll": 106,
      "wi": 107,
      "you": 108,
      "no": 109,
      "ver": 110,
      "lo": 111,
      "ct": 112,
      "ut": 113,
      "wh": 114,
      "so": 115,
      "co": 116,
      "gh": 117,
      "that": 118,
      "li": 119,
      "ay": 120,
      "ion": 121,
      "ha": 122,
      "with": 123,
      "we": 124,
      "my": 125,
      "ke": 126,
      "id": 127,
      "oo": 128,
      "ent": 129,
      "ld": 130,
      "us": 131,
      "ge": 132,
      "are": 133,
      "mo": 134,
      "ab": 135,
      "ac": 136,
      "one": 137,
      "out": 138,
      "all": 139,
      "he": 140,
      "but": 141,
      "do": 142,
      "am": 143,
      "was": 144,
      "ter": 145,
      "fe": 146,
      "ne": 147,
      "pro": 148,
      "un": 149,
      "ri": 150,
      "not": 151,
      "have": 152,
      "ho": 153,
      "if": 154,
      "ce": 155,
      "ght": 156,
      "ir": 157,
      "pl": 158,
      "ti": 159,
      "wor": 160,
      "de": 161,
      "su": 162,
      "pe": 163,
      "com": 164,
      "very": 165,
      "..": 166,
      "ap": 167,
      "ther": 168,
      "gre": 169,
      "ex": 170,
      "ally": 171,
      "con": 172,
      "ur": 173,
      "ma": 174,
      "ust": 175,
      "use": 176,
      "ould": 177,
      "up": 178,
      "per": 179,
      "great": 180,
      "ga": 181,
      "can": 182,
      "po": 183,
      "ul": 184,
      "tr": 185,
      "end": 186,
      "go": 187,
      "ood": 188,
      "ta": 189,
      "ice": 190,
      "ks": 191,
      "oun": 192,
      "il": 193,
      "qu": 194,
      "they": 195,
      "like": 196,
      "te": 197,
      "any": 198,
      "ts": 199,
      "ie": 200,
      "ess": 201,
      "good": 202,
      "du": 203,
      "some": 204,
      "act": 205,
      "just": 206,
      "im": 207,
      "rom": 208,
      "ard": 209,
      "bo": 210,
      "res": 211,
      "from": 212,
      "ong": 213,
      "ack": 214,
      "thing": 215,
      "get": 216,
      "ast": 217,
      "other": 218,
      "ant": 219,
      "way": 220,
      "ough": 221,
      "ers": 222,
      "able": 223,
      "est": 224,
      "ound": 225,
      "will": 226,
      "your": 227,
      "ate": 228,
      "pr": 229,
      "when": 230,
      "bu": 231,
      "sh": 232,
      "fin": 233,
      "ok": 234,
      "ple": 235,
      "more": 236,
      "ig": 237,
      "ca": 238,
      "art": 239,
      "has": 240,
      "ite": 241,
      "gr": 242,
      "duct": 243,
      "ide": 244,
      "had": 245,
      "time": 246,
      "ation": 247,
      "ive": 248,
      "sa": 249,
      "boo": 250,
      "read": 251,
      "them": 252,
      "now": 253,
      "ye": 254,
      "well": 255,
      "would": 256,
      "ill": 257,
      "what": 258,
      "than": 259,
      "ven": 260,
      "product": 261,
      "work": 262,
      "ist": 263,
      "there": 264,
      "our": 265,
      "these": 266,
      "red": 267,
      "wn": 268,
      "love": 269,
      "game": 270,
      "about": 271,
      "int": 272,
      "um": 273,
      "cl": 274,
      "ity": 275,
      "ble": 276,
      "em": 277,
      "pp": 278,
      "play": 279,
      "av": 280,
      "ck": 281,
      "ars": 282,
      "too": 283,
      "ick": 284,
      "by": 285,
      "der": 286,
      "ine": 287,
      "sc": 288,
      "did": 289,
      "ink": 290,
      "sp": 291,
      "el": 292,
      "really": 293,
      "itt": 294,
      "ra": 295,
      "eas": 296,
      "ich": 297,
      "does": 298,
      "how": 299,
      "ren": 300,
      "cle": 301,
      "only": 302,
      "over": 303,
      "vie": 304,
      "tw": 305,
      "mu": 306,
      "pre": 307,
      "book": 308,
      "need": 309,
      "fo": 310,
      "ty": 311,
      "ry": 312,
      "bl": 313,
      "af": 314,
      "its": 315,
      "don": 316,
      "who": 317,
      "much": 318,
      "ment": 319,
      "br": 320,
      "which": 321,
      "ies": 322,
      "inst": 323,
      "...": 324,
      "ade": 325,
      "jo": 326,
      "ction": 327,
      "off": 328,
      "man": 329,
      "most": 330,
      "bet": 331,
      "her": 332,
      "ought": 333,
      "also": 334,
      "ous": 335,
      "ort": 336,
      "ure": 337,
      "every": 338,
      "set": 339,
      "fir": 340,
      "used": 341,
      "even": 342,
      "ep": 343,
      "ight": 344,
      "new": 345,
      "back": 346,
      "low": 347,
      "ind": 348,
      "ful": 349,
      "cause": 350,
      "ass": 351,
      "first": 352,
      "ittle": 353,
      "dis": 354,
      "!!": 355,
      "little": 356,
      "fect": 357,
      "age": 358,
      "then": 359,
      "his": 360,
      "day": 361,
      "she": 362,
      "ace": 363,
      "00": 364,
      "put": 365,
      "because": 366,
      "after": 367,
      "been": 368,
      "comm": 369,
      "ting": 370,
      "works": 371,
      "ase": 372,
      "ile": 373,
      "iz": 374,
      "ps": 375,
      "sm": 376,
      "vent": 377,
      "want": 378,
      "ph": 379,
      "ved": 380,
      "light": 381,
      "look": 382,
      "ory": 383,
      "were": 384,
      "into": 385,
      "gu": 386,
      "col": 387,
      "sion": 388,
      "buy": 389,
      "clean": 390,
      "still": 391,
      "ves": 392,
      "less": 393,
      "des": 394,
      "pt": 395,
      "ser": 396,
      "ds": 397,
      "ag": 398,
      "hi": 399,
      "make": 400,
      "char": 401,
      "long": 402,
      "ach": 403,
      "their": 404,
      "ish": 405,
      "better": 406,
      "ving": 407,
      "kes": 408,
      "ci": 409,
      "au": 410,
      "got": 411,
      "di": 412,
      "view": 413,
      "les": 414,
      "old": 415,
      "could": 416,
      "best": 417,
      "right": 418,
      "hand": 419,
      "fun": 420,
      "side": 421,
      "easy": 422,
      "urn": 423,
      "dif": 424,
      "price": 425,
      "nice": 426,
      "using": 427,
      "lot": 428,
      "ue": 429,
      "aga": 430,
      "az": 431,
      "ms": 432,
      "ality": 433,
      "pur": 434,
      "years": 435,
      "ily": 436,
      "high": 437,
      "down": 438,
      "ber": 439,
      "whe": 440,
      "ater": 441,
      "know": 442,
      "dri": 443,
      "str": 444,
      "tim": 445,
      "perfect": 446,
      "dry": 447,
      "thr": 448,
      "fl": 449,
      "et": 450,
      "many": 451,
      "king": 452,
      "see": 453,
      "commend": 454,
      ").": 455,
      "spe": 456,
      "think": 457,
      "recommend": 458,
      "--": 459,
      "pen": 460,
      "wr": 461,
      "fore": 462,
      "two": 463,
      "bought": 464,
      "min": 465,
      "while": 466,
      "ush": 467,
      "son": 468,
      "mar": 469,
      "atch": 470,
      "ated": 471,
      "pres": 472,
      "tri": 473,
      "through": 474,
      "sure": 475,
      "add": 476,
      "che": 477,
      "made": 478,
      "turn": 479,
      "feren": 480,
      "quality": 481,
      "lf": 482,
      "find": 483,
      "pa": 484,
      "ree": 485,
      "sto": 486,
      "ance": 487,
      "say": 488,
      "keep": 489,
      "try": 490,
      "review": 491,
      "ol": 492,
      "song": 493,
      "mon": 494,
      "bit": 495,
      "sof": 496,
      "though": 497,
      "amaz": 498,
      "ually": 499,
      "ious": 500,
      "ans": 501,
      "clo": 502,
      "didn": 503,
      "cre": 504,
      "seem": 505,
      "vel": 506,
      "ways": 507,
      "purch": 508,
      "hard": 509,
      "ased": 510,
      "ition": 511,
      "ning": 512,
      "sho": 513,
      "sim": 514,
      "where": 515,
      "cor": 516,
      "won": 517,
      "again": 518,
      "part": 519,
      "never": 520,
      "exce": 521,
      "sound": 522,
      "proble": 523,
      "cut": 524,
      "ose": 525,
      "story": 526,
      "differen": 527,
      "small": 528,
      "stu": 529,
      "run": 530,
      "last": 531,
      "ss": 532,
      "times": 533,
      "before": 534,
      "self": 535,
      "feel": 536,
      "comp": 537,
      "may": 538,
      "car": 539,
      "happ": 540,
      "sin": 541,
      "color": 542,
      "ak": 543,
      "ff": 544,
      "ang": 545,
      "win": 546,
      "version": 547,
      "avor": 548,
      "few": 549,
      "pect": 550,
      "cr": 551,
      "head": 552,
      "aw": 553,
      "should": 554,
      "ise": 555,
      "come": 556,
      "sk": 557,
      "hel": 558,
      "stand": 559,
      "ain": 560,
      "form": 561,
      "start": 562,
      "another": 563,
      "ical": 564,
      "ull": 565,
      "phone": 566,
      "always": 567,
      "wer": 568,
      "since": 569,
      "cont": 570,
      "ize": 571,
      "each": 572,
      "ever": 573,
      "joy": 574,
      "mus": 575,
      "own": 576,
      "going": 577,
      "found": 578,
      "class": 579,
      "take": 580,
      "doesn": 581,
      "tu": 582,
      "ating": 583,
      "ign": 584,
      "without": 585,
      "fil": 586,
      "ild": 587,
      "pret": 588,
      "tain": 589,
      "sing": 590,
      "gl": 591,
      "peo": 592,
      "vide": 593,
      "big": 594,
      "people": 595,
      "enough": 596,
      "ws": 597,
      "cer": 598,
      "om": 599,
      "ger": 600,
      "ence": 601,
      "gam": 602,
      "same": 603,
      "quick": 604,
      "cess": 605,
      "fi": 606,
      "around": 607,
      "sy": 608,
      "ru": 609,
      "fa": 610,
      "10": 611,
      "scre": 612,
      "ary": 613,
      "dryer": 614,
      "charact": 615,
      "came": 616,
      "ics": 617,
      "enjoy": 618,
      "dy": 619,
      "pretty": 620,
      "line": 621,
      "those": 622,
      "band": 623,
      "ably": 624,
      "point": 625,
      "ten": 626,
      "install": 627,
      "ces": 628,
      "tal": 629,
      "card": 630,
      "real": 631,
      "makes": 632,
      "cent": 633,
      "music": 634,
      "here": 635,
      "different": 636,
      "fort": 637,
      "top": 638,
      "year": 639,
      "rest": 640,
      "life": 641,
      "show": 642,
      "being": 643,
      "atter": 644,
      "ible": 645,
      "video": 646,
      "howe": 647,
      "inter": 648,
      "clu": 649,
      "however": 650,
      "bro": 651,
      "gg": 652,
      "both": 653,
      "something": 654,
      "far": 655,
      "sur": 656,
      "gi": 657,
      "cond": 658,
      "gram": 659,
      "under": 660,
      "expect": 661,
      "things": 662,
      "him": 663,
      "ton": 664,
      "tra": 665,
      "fit": 666,
      "ouse": 667,
      "inte": 668,
      "movie": 669,
      "mic": 670,
      "ial": 671,
      "help": 672,
      "pi": 673,
      "mis": 674,
      "par": 675,
      "vis": 676,
      "),": 677,
      "games": 678,
      "na": 679,
      "mem": 680,
      "worth": 681,
      "cur": 682,
      "power": 683,
      "favor": 684,
      "tom": 685,
      "app": 686,
      "amazon": 687,
      "mas": 688,
      "astic": 689,
      "lar": 690,
      "feat": 691,
      "size": 692,
      "let": 693,
      "give": 694,
      "ual": 695,
      "box": 696,
      "inclu": 697,
      "fact": 698,
      "program": 699,
      "excell": 700,
      "ls": 701,
      "ular": 702,
      "ash": 703,
      "cover": 704,
      "house": 705,
      "bad": 706,
      "ear": 707,
      "once": 708,
      "ption": 709,
      "actually": 710,
      "ason": 711,
      "=\"": 712,
      "hold": 713,
      "kind": 714,
      "ations": 715,
      "excellent": 716,
      "sed": 717,
      "loo": 718,
      "fam": 719,
      "ange": 720,
      "att": 721,
      "fr": 722,
      "ount": 723,
      "drill": 724,
      "ip": 725,
      "pack": 726,
      "problem": 727,
      "link": 728,
      "med": 729,
      "xt": 730,
      "fri": 731,
      "brush": 732,
      "kid": 733,
      "ft": 734,
      "war": 735,
      "lint": 736,
      "ow": 737,
      "port": 738,
      "month": 739,
      "cal": 740,
      "200": 741,
      "vo": 742,
      "windo": 743,
      "ens": 744,
      "ref": 745,
      "dv": 746,
      "place": 747,
      "looking": 748,
      "home": 749,
      "watch": 750,
      "defin": 751,
      "prob": 752,
      "list": 753,
      "such": 754,
      "pic": 755,
      "oney": 756,
      "sol": 757,
      "books": 758,
      "comes": 759,
      "ones": 760,
      "ings": 761,
      "pie": 762,
      "face": 763,
      "20": 764,
      "probably": 765,
      "gif": 766,
      "issu": 767,
      "ef": 768,
      "ked": 769,
      "io": 770,
      "mag": 771,
      "gen": 772,
      "job": 773,
      "sha": 774,
      "stem": 775,
      "thought": 776,
      "softw": 777,
      "software": 778,
      "fine": 779,
      "might": 780,
      "happy": 781,
      "case": 782,
      "money": 783,
      "cook": 784,
      "ste": 785,
      "system": 786,
      "seems": 787,
      "val": 788,
      "friend": 789,
      "open": 790,
      "star": 791,
      "must": 792,
      "bre": 793,
      "la": 794,
      "je": 795,
      "favorite": 796,
      "super": 797,
      "dvd": 798,
      "quite": 799,
      "wonder": 800,
      "why": 801,
      "mal": 802,
      "tre": 803,
      "lect": 804,
      "child": 805,
      "arn": 806,
      "person": 807,
      "comple": 808,
      "itch": 809,
      "vice": 810,
      "albu": 811,
      "ctions": 812,
      "call": 813,
      "getting": 814,
      "water": 815,
      "free": 816,
      "ghter": 817,
      "orig": 818,
      "ult": 819,
      "19": 820,
      "wa": 821,
      "stuff": 822,
      "having": 823,
      "plac": 824,
      "origin": 825,
      "mi": 826,
      "ately": 827,
      "ors": 828,
      "dog": 829,
      "worked": 830,
      "ner": 831,
      "comput": 832,
      "conne": 833,
      "fast": 834,
      "hour": 835,
      "needed": 836,
      "gift": 837,
      "dur": 838,
      "ia": 839,
      "cheap": 840,
      "tried": 841,
      "nor": 842,
      "world": 843,
      "ket": 844,
      "cons": 845,
      "....": 846,
      "aph": 847,
      "reading": 848,
      "sever": 849,
      "saw": 850,
      "ments": 851,
      "second": 852,
      "windows": 853,
      "away": 854,
      "order": 855,
      "skin": 856,
      "characters": 857,
      "air": 858,
      "several": 859,
      "everything": 860,
      "bs": 861,
      "ys": 862,
      "ures": 863,
      "loved": 864,
      "lt": 865,
      "definite": 866,
      "cou": 867,
      "bot": 868,
      "wee": 869,
      "iting": 870,
      "heav": 871,
      "supp": 872,
      "ents": 873,
      "purchased": 874,
      "said": 875,
      "move": 876,
      "soft": 877,
      "reason": 878,
      "almost": 879,
      "ier": 880,
      "days": 881,
      "cap": 882,
      "net": 883,
      "cy": 884,
      "plan": 885,
      "ute": 886,
      "hal": 887,
      "interest": 888,
      "micro": 889,
      "live": 890,
      "fic": 891,
      "dec": 892,
      "loves": 893,
      "ready": 894,
      "definitely": 895,
      "load": 896,
      "aut": 897,
      "yes": 898,
      "graph": 899,
      "row": 900,
      "isn": 901,
      "rods": 902,
      "full": 903,
      "family": 904,
      "ced": 905,
      "exper": 906,
      "num": 907,
      "ative": 908,
      "tach": 909,
      "easily": 910,
      "purchase": 911,
      "ween": 912,
      "toge": 913,
      "highly": 914,
      "hoo": 915,
      "together": 916,
      "ates": 917,
      "mode": 918,
      "cri": 919,
      "tell": 920,
      "reg": 921,
      "album": 922,
      "ding": 923,
      "done": 924,
      "ions": 925,
      "op": 926,
      "ward": 927,
      "vol": 928,
      "til": 929,
      "beaut": 930,
      "aren": 931,
      "attach": 932,
      "kids": 933,
      "wanted": 934,
      "spr": 935,
      "yet": 936,
      "main": 937,
      "vac": 938,
      "ility": 939,
      "sive": 940,
      "bas": 941,
      "large": 942,
      "ire": 943,
      "stars": 944,
      "sub": 945,
      "comfort": 946,
      "anything": 947,
      "fully": 948,
      "fan": 949,
      "series": 950,
      "wear": 951,
      "cially": 952,
      "batter": 953,
      "original": 954,
      "ob": 955,
      "pping": 956,
      "computer": 957,
      "design": 958,
      "until": 959,
      "mp": 960,
      "ages": 961,
      "ically": 962,
      "three": 963,
      "film": 964,
      "rod": 965,
      "rece": 966,
      "hair": 967,
      "short": 968,
      "eng": 969,
      "dr": 970,
      "products": 971,
      "bed": 972,
      "dire": 973,
      "board": 974,
      "espe": 975,
      "dra": 976,
      "beg": 977,
      "care": 978,
      "between": 979,
      "making": 980,
      "couple": 981,
      "looks": 982,
      "inside": 983,
      "lock": 984,
      "chr": 985,
      "especially": 986,
      "vid": 987,
      "amer": 988,
      "roll": 989,
      "songs": 990,
      "compl": 991,
      "clear": 992,
      "que": 993,
      "pped": 994,
      "cour": 995,
      "level": 996,
      "cus": 997,
      "simple": 998,
      "tas": 999,
      "wise": 1000,
      "pull": 1001,
      "lie": 1002,
      "playing": 1003,
      "next": 1004,
      "etc": 1005,
      "working": 1006,
      "reviews": 1007,
      "connect": 1008,
      "gets": 1009,
      "least": 1010,
      "mer": 1011,
      "ience": 1012,
      "classic": 1013,
      "led": 1014,
      "cks": 1015,
      "wish": 1016,
      "night": 1017,
      "pri": 1018,
      "vious": 1019,
      "nothing": 1020,
      "foo": 1021,
      "cial": 1022,
      "ome": 1023,
      "overall": 1024,
      "went": 1025,
      "gaz": 1026,
      "strong": 1027,
      "slow": 1028,
      "requ": 1029,
      "llow": 1030,
      "iful": 1031,
      "ded": 1032,
      "gy": 1033,
      "problems": 1034,
      "cho": 1035,
      "concer": 1036,
      "ath": 1037,
      "takes": 1038,
      "vi": 1039,
      "push": 1040,
      "brand": 1041,
      "plastic": 1042,
      "sw": 1043,
      "magaz": 1044,
      "upd": 1045,
      "rele": 1046,
      "ither": 1047,
      "heavy": 1048,
      "ness": 1049,
      "allow": 1050,
      "complete": 1051,
      "amazing": 1052,
      "beautiful": 1053,
      "exact": 1054,
      "mot": 1055,
      "fant": 1056,
      "ats": 1057,
      "utes": 1058,
      "expected": 1059,
      "ject": 1060,
      "store": 1061,
      "coun": 1062,
      "esome": 1063,
      "extra": 1064,
      "mind": 1065,
      "hu": 1066,
      "black": 1067,
      "descri": 1068,
      "wal": 1069,
      "ken": 1070,
      "fig": 1071,
      "rel": 1072,
      "tape": 1073,
      "anyone": 1074,
      "ago": 1075,
      "others": 1076,
      "minutes": 1077,
      "appe": 1078,
      "wonderful": 1079,
      "deal": 1080,
      "awesome": 1081,
      "took": 1082,
      "sme": 1083,
      "cleaning": 1084,
      "arch": 1085,
      "dered": 1086,
      "ending": 1087,
      "tru": 1088,
      "pay": 1089,
      "pos": 1090,
      "var": 1091,
      "pick": 1092,
      "screen": 1093,
      "mac": 1094,
      "half": 1095,
      "pu": 1096,
      "shi": 1097,
      "sty": 1098,
      "cd": 1099,
      "played": 1100,
      "months": 1101,
      "already": 1102,
      "cli": 1103,
      "vir": 1104,
      "aughter": 1105,
      "hours": 1106,
      "choo": 1107,
      "ted": 1108,
      "pot": 1109,
      "ines": 1110,
      "amp": 1111,
      "guit": 1112,
      "expen": 1113,
      "comfortable": 1114,
      "appoint": 1115,
      "else": 1116,
      "ient": 1117,
      "body": 1118,
      "stick": 1119,
      "fle": 1120,
      "fer": 1121,
      "thor": 1122,
      "rock": 1123,
      "ense": 1124,
      "ters": 1125,
      "cost": 1126,
      "maybe": 1127,
      "poss": 1128,
      "daughter": 1129,
      "room": 1130,
      "word": 1131,
      "although": 1132,
      "inste": 1133,
      "features": 1134,
      "quickly": 1135,
      "perfor": 1136,
      "pan": 1137,
      "during": 1138,
      "bar": 1139,
      "vers": 1140,
      "piece": 1141,
      "instead": 1142,
      "learn": 1143,
      "ming": 1144,
      "outside": 1145,
      "turned": 1146,
      "unit": 1147,
      "item": 1148,
      "belie": 1149,
      "ident": 1150,
      "lid": 1151,
      "action": 1152,
      "wood": 1153,
      "smell": 1154,
      "ata": 1155,
      "blow": 1156,
      "lu": 1157,
      "goes": 1158,
      "blue": 1159,
      "either": 1160,
      "replac": 1161,
      "weight": 1162,
      "trying": 1163,
      "ories": 1164,
      "pair": 1165,
      "expensive": 1166,
      "pho": 1167,
      "ins": 1168,
      "gener": 1169,
      "whole": 1170,
      "office": 1171,
      "acks": 1172,
      "ply": 1173,
      "!!!": 1174,
      "longer": 1175,
      "50": 1176,
      "wasn": 1177,
      "magazine": 1178,
      "iced": 1179,
      "battery": 1180,
      "support": 1181,
      "true": 1182,
      "absol": 1183,
      "cable": 1184,
      "left": 1185,
      "bag": 1186,
      "itive": 1187,
      "smoo": 1188,
      "ared": 1189,
      "ordered": 1190,
      "pass": 1191,
      "ider": 1192,
      "buying": 1193,
      "key": 1194,
      "ized": 1195,
      "stay": 1196,
      "wash": 1197,
      "past": 1198,
      "tail": 1199,
      "doing": 1200,
      "type": 1201,
      "contin": 1202,
      "character": 1203,
      "hear": 1204,
      "listen": 1205,
      "close": 1206,
      "absolute": 1207,
      "ib": 1208,
      "ons": 1209,
      "arp": 1210,
      "lit": 1211,
      "perfectly": 1212,
      "tool": 1213,
      "ny": 1214,
      "recei": 1215,
      "cas": 1216,
      "coming": 1217,
      "\",": 1218,
      "ball": 1219,
      "data": 1220,
      "pes": 1221,
      "kit": 1222,
      "exactly": 1223,
      "\".": 1224,
      "disappoint": 1225,
      "someone": 1226,
      "speed": 1227,
      "table": 1228,
      "ark": 1229,
      "lea": 1230,
      "setting": 1231,
      "youn": 1232,
      "12": 1233,
      "wall": 1234,
      "**": 1235,
      "cool": 1236,
      "number": 1237,
      "arri": 1238,
      "van": 1239,
      "ail": 1240,
      "ised": 1241,
      "prote": 1242,
      "stru": 1243,
      "guitar": 1244,
      "pipe": 1245,
      "photo": 1246,
      "near": 1247,
      "along": 1248,
      "contro": 1249,
      "lots": 1250,
      "dio": 1251,
      "ited": 1252,
      "tight": 1253,
      "cards": 1254,
      "aper": 1255,
      "finally": 1256,
      "fair": 1257,
      "four": 1258,
      "ture": 1259,
      "upgr": 1260,
      "change": 1261,
      "mess": 1262,
      "christ": 1263,
      "against": 1264,
      "started": 1265,
      "running": 1266,
      "flo": 1267,
      "performan": 1268,
      "member": 1269,
      "fall": 1270,
      "py": 1271,
      "ends": 1272,
      "ended": 1273,
      "thank": 1274,
      "normal": 1275,
      "graphics": 1276,
      "hope": 1277,
      "issue": 1278,
      "easier": 1279,
      "diffic": 1280,
      "grand": 1281,
      "ped": 1282,
      "lection": 1283,
      "effect": 1284,
      "certain": 1285,
      "rather": 1286,
      "seen": 1287,
      "ability": 1288,
      "recor": 1289,
      "chang": 1290,
      "smooth": 1291,
      "als": 1292,
      "ists": 1293,
      "plus": 1294,
      "pc": 1295,
      "search": 1296,
      "screw": 1297,
      "course": 1298,
      "week": 1299,
      "imag": 1300,
      "foot": 1301,
      "children": 1302,
      "hit": 1303,
      "mix": 1304,
      "sell": 1305,
      "uses": 1306,
      "cra": 1307,
      "plic": 1308,
      "begin": 1309,
      "surpr": 1310,
      "zz": 1311,
      "gar": 1312,
      ".\"": 1313,
      "rout": 1314,
      "ju": 1315,
      "mater": 1316,
      "hor": 1317,
      "switch": 1318,
      "follow": 1319,
      "interesting": 1320,
      "scen": 1321,
      "hot": 1322,
      "mach": 1323,
      "simply": 1324,
      "issues": 1325,
      "bing": 1326,
      "often": 1327,
      "flavor": 1328,
      "tures": 1329,
      "30": 1330,
      "nat": 1331,
      "shoes": 1332,
      "ices": 1333,
      "experience": 1334,
      "ground": 1335,
      "hook": 1336,
      "liked": 1337,
      "ware": 1338,
      "pressure": 1339,
      "ouch": 1340,
      "elect": 1341,
      "save": 1342,
      "note": 1343,
      "thin": 1344,
      "bul": 1345,
      "due": 1346,
      "headset": 1347,
      "por": 1348,
      "instru": 1349,
      "haven": 1350,
      "avail": 1351,
      "absolutely": 1352,
      "player": 1353,
      "hum": 1354,
      "da": 1355,
      "dre": 1356,
      "dro": 1357,
      "ided": 1358,
      "amount": 1359,
      "bor": 1360,
      "ross": 1361,
      "pop": 1362,
      "sli": 1363,
      "tv": 1364,
      "everyone": 1365,
      "addition": 1366,
      "tle": 1367,
      "sal": 1368,
      "partic": 1369,
      "special": 1370,
      "ni": 1371,
      "option": 1372,
      "couldn": 1373,
      "check": 1374,
      "paper": 1375,
      "christmas": 1376,
      "later": 1377,
      "shop": 1378,
      "hands": 1379,
      "itten": 1380,
      "process": 1381,
      "import": 1382,
      "tech": 1383,
      "ird": 1384,
      "value": 1385,
      "recommended": 1386,
      "needs": 1387,
      "ank": 1388,
      "15": 1389,
      "gs": 1390,
      "finish": 1391,
      "break": 1392,
      "glad": 1393,
      "plu": 1394,
      "sometimes": 1395,
      "oc": 1396,
      "istance": 1397,
      "gave": 1398,
      "remember": 1399,
      "hose": 1400,
      "jor": 1401,
      "solid": 1402,
      "ional": 1403,
      "wo": 1404,
      "ian": 1405,
      "sou": 1406,
      "available": 1407,
      "sup": 1408,
      "material": 1409,
      "electr": 1410,
      "sat": 1411,
      "understand": 1412,
      "itself": 1413,
      "huge": 1414,
      "written": 1415,
      "cast": 1416,
      "build": 1417,
      "trans": 1418,
      "wrong": 1419,
      "friends": 1420,
      "concert": 1421,
      "received": 1422,
      "track": 1423,
      "impro": 1424,
      "myself": 1425,
      "previous": 1426,
      "food": 1427,
      "voice": 1428,
      "recent": 1429,
      "mul": 1430,
      "sl": 1431,
      "prof": 1432,
      "colors": 1433,
      "men": 1434,
      "sun": 1435,
      "consider": 1436,
      "vert": 1437,
      "80": 1438,
      "believe": 1439,
      "hist": 1440,
      "fill": 1441,
      "happen": 1442,
      "americ": 1443,
      "enjoyed": 1444,
      "unch": 1445,
      "ific": 1446,
      "adjust": 1447,
      "update": 1448,
      "medi": 1449,
      "inform": 1450,
      "thick": 1451,
      "beat": 1452,
      "ints": 1453,
      "return": 1454,
      "sn": 1455,
      "mine": 1456,
      "particular": 1457,
      "land": 1458,
      "likely": 1459,
      "cute": 1460,
      "custom": 1461,
      "cum": 1462,
      "rid": 1463,
      "blade": 1464,
      "spray": 1465,
      "cred": 1466,
      "resh": 1467,
      "ades": 1468,
      "resu": 1469,
      "ilt": 1470,
      "bright": 1471,
      "gir": 1472,
      "64": 1473,
      "touch": 1474,
      "ster": 1475,
      "ont": 1476,
      "iness": 1477,
      "present": 1478,
      "arrived": 1479,
      "ator": 1480,
      "given": 1481,
      "ured": 1482,
      "nb": 1483,
      "style": 1484,
      "wouldn": 1485,
      "button": 1486,
      "lic": 1487,
      "detail": 1488,
      "ship": 1489,
      "fits": 1490,
      ".)": 1491,
      "feature": 1492,
      "ilar": 1493,
      "fantastic": 1494,
      "sign": 1495,
      "taste": 1496,
      "performance": 1497,
      "older": 1498,
      "100": 1499,
      "idea": 1500,
      "enter": 1501,
      "ses": 1502,
      "flex": 1503,
      "microsoft": 1504,
      "clock": 1505,
      "entire": 1506,
      "posed": 1507,
      "white": 1508,
      "user": 1509,
      "feet": 1510,
      "safe": 1511,
      "young": 1512,
      "dark": 1513,
      "bottom": 1514,
      "novel": 1515,
      "multi": 1516,
      "oper": 1517,
      "possible": 1518,
      "difficult": 1519,
      "mail": 1520,
      "drive": 1521,
      "pictures": 1522,
      "decided": 1523,
      "tit": 1524,
      "ities": 1525,
      "service": 1526,
      "provid": 1527,
      "usually": 1528,
      "ze": 1529,
      "ouble": 1530,
      "bon": 1531,
      "words": 1532,
      "added": 1533,
      "uni": 1534,
      "ged": 1535,
      "attached": 1536,
      "name": 1537,
      "wife": 1538,
      "five": 1539,
      "os": 1540,
      "standard": 1541,
      "test": 1542,
      "pieces": 1543,
      "sounds": 1544,
      "collection": 1545,
      "fortun": 1546,
      "metal": 1547,
      "rent": 1548,
      "broke": 1549,
      "ying": 1550,
      "iny": 1551,
      "section": 1552,
      "hus": 1553,
      "built": 1554,
      "handle": 1555,
      "direct": 1556,
      "leav": 1557,
      "ling": 1558,
      "antly": 1559,
      "mean": 1560,
      "thanks": 1561,
      "ement": 1562,
      "applic": 1563,
      "----": 1564,
      "installed": 1565,
      "complain": 1566,
      "ustr": 1567,
      "swe": 1568,
      "sum": 1569,
      "yourself": 1570,
      "today": 1571,
      "space": 1572,
      "kept": 1573,
      "bus": 1574,
      "sor": 1575,
      "ext": 1576,
      "smaller": 1577,
      "project": 1578,
      "nbsp": 1579,
      "husband": 1580,
      "ads": 1581,
      "cannot": 1582,
      "fire": 1583,
      "page": 1584,
      "download": 1585,
      "dep": 1586,
      "mid": 1587,
      "tem": 1588,
      "device": 1589,
      "regular": 1590,
      "tooth": 1591,
      "contain": 1592,
      "gives": 1593,
      "iv": 1594,
      "author": 1595,
      "vista": 1596,
      "pages": 1597,
      "single": 1598,
      "ites": 1599,
      "felt": 1600,
      "extre": 1601,
      "fra": 1602,
      "event": 1603,
      "dust": 1604,
      "ides": 1605,
      "company": 1606,
      "area": 1607,
      "included": 1608,
      "impres": 1609,
      "\">": 1610,
      "rv": 1611,
      "remo": 1612,
      "disappointed": 1613,
      "sco": 1614,
      "feels": 1615,
      "kill": 1616,
      "stra": 1617,
      "bal": 1618,
      "60": 1619,
      "vil": 1620,
      "xp": 1621,
      "based": 1622,
      "heart": 1623,
      "ky": 1624,
      "ired": 1625,
      "guess": 1626,
      "front": 1627,
      "ump": 1628,
      "mil": 1629,
      "extreme": 1630,
      "control": 1631,
      "slight": 1632,
      "tract": 1633,
      "sil": 1634,
      "inch": 1635,
      "writing": 1636,
      "clockwise": 1637,
      "lan": 1638,
      "den": 1639,
      "rub": 1640,
      "toy": 1641,
      "stur": 1642,
      "ned": 1643,
      "mb": 1644,
      "scent": 1645,
      "cu": 1646,
      "sense": 1647,
      "tax": 1648,
      "resistance": 1649,
      "ital": 1650,
      "step": 1651,
      "pet": 1652,
      "upgrade": 1653,
      "condition": 1654,
      "hy": 1655,
      "ging": 1656,
      "picture": 1657,
      "ili": 1658,
      "cab": 1659,
      "si": 1660,
      "heard": 1661,
      "ution": 1662,
      "train": 1663,
      "stre": 1664,
      "non": 1665,
      "access": 1666,
      "catch": 1667,
      "difference": 1668,
      "fortunately": 1669,
      "machine": 1670,
      "apart": 1671,
      "information": 1672,
      "completely": 1673,
      "online": 1674,
      "quest": 1675,
      "aster": 1676,
      "nook": 1677,
      "motor": 1678,
      "fix": 1679,
      "!!!!": 1680,
      "aged": 1681,
      "ils": 1682,
      "mark": 1683,
      "shipping": 1684,
      "clut": 1685,
      "chool": 1686,
      "exp": 1687,
      "function": 1688,
      "==": 1689,
      "lim": 1690,
      "paint": 1691,
      "anti": 1692,
      "cm": 1693,
      "sugg": 1694,
      "map": 1695,
      "leg": 1696,
      "knew": 1697,
      "conf": 1698,
      "leave": 1699,
      "</": 1700,
      "comb": 1701,
      "travel": 1702,
      "dream": 1703,
      "velo": 1704,
      "within": 1705,
      "lish": 1706,
      "ress": 1707,
      "hind": 1708,
      "exam": 1709,
      "count": 1710,
      "charge": 1711,
      "dp": 1712,
      "says": 1713,
      "advert": 1714,
      "sle": 1715,
      "ict": 1716,
      "ume": 1717,
      "terri": 1718,
      "pper": 1719,
      "lts": 1720,
      "remove": 1721,
      "plain": 1722,
      "bir": 1723,
      "serious": 1724,
      "linked": 1725,
      "sturdy": 1726,
      "unless": 1727,
      "recently": 1728,
      "audio": 1729,
      "rill": 1730,
      ",\"": 1731,
      "bers": 1732,
      "ot": 1733,
      "stories": 1734,
      "tern": 1735,
      "f8": 1736,
      "mention": 1737,
      "parts": 1738,
      "dam": 1739,
      "deli": 1740,
      "matter": 1741,
      "reli": 1742,
      "base": 1743,
      "ler": 1744,
      "lin": 1745,
      "lost": 1746,
      "fresh": 1747,
      "iety": 1748,
      "arr": 1749,
      "utf8": 1750,
      "leng": 1751,
      "hon": 1752,
      "tast": 1753,
      "soon": 1754,
      "scri": 1755,
      "length": 1756,
      "described": 1757,
      "aking": 1758,
      "txt": 1759,
      "copy": 1760,
      "clutch": 1761,
      "cm_": 1762,
      "suggest": 1763,
      "d_": 1764,
      "zer": 1765,
      "chall": 1766,
      "cr_": 1767,
      "extremely": 1768,
      "cm_cr_": 1769,
      "gard": 1770,
      "grou": 1771,
      "except": 1772,
      "stop": 1773,
      "vacu": 1774,
      "ior": 1775,
      "reci": 1776,
      "loc": 1777,
      "similar": 1778,
      "24": 1779,
      "tage": 1780,
      "exc": 1781,
      "href": 1782,
      "oud": 1783,
      "nam": 1784,
      "_txt": 1785,
      "od": 1786,
      "sand": 1787,
      "_d_": 1788,
      "w_txt": 1789,
      "=\"/": 1790,
      "arp_d_": 1791,
      "rvw_txt": 1792,
      "cm_cr_arp_d_": 1793,
      "cm_cr_arp_d_rvw_txt": 1794,
      "force": 1795,
      "chan": 1796,
      "fans": 1797,
      "11": 1798,
      "cket": 1799,
      "natur": 1800,
      "handy": 1801,
      "instructions": 1802,
      "ror": 1803,
      "round": 1804,
      "school": 1805,
      "package": 1806,
      "vacuum": 1807,
      "rect": 1808,
      "including": 1809,
      "reader": 1810,
      "mor": 1811,
      "shows": 1812,
      "model": 1813,
      "boy": 1814,
      "scr": 1815,
      "sit": 1816,
      "edition": 1817,
      "become": 1818,
      "itting": 1819,
      "plot": 1820,
      "taking": 1821,
      "eye": 1822,
      "heal": 1823,
      "pose": 1824,
      "supposed": 1825,
      "conven": 1826,
      "docum": 1827,
      "poor": 1828,
      "phones": 1829,
      "burn": 1830,
      "ien": 1831,
      "dig": 1832,
      "write": 1833,
      "looked": 1834,
      "replace": 1835,
      "wait": 1836,
      "ges": 1837,
      "ben": 1838,
      "apply": 1839,
      "kindle": 1840,
      "opin": 1841,
      "speak": 1842,
      "ism": 1843,
      "helps": 1844,
      "behind": 1845,
      "videos": 1846,
      "equ": 1847,
      "ove": 1848,
      "pleased": 1849,
      "door": 1850,
      "fairly": 1851,
      "satis": 1852,
      "truly": 1853,
      "profess": 1854,
      "gn": 1855,
      "cooker": 1856,
      "replacement": 1857,
      "seemed": 1858,
      "asy": 1859,
      "important": 1860,
      "programs": 1861,
      "items": 1862,
      "dan": 1863,
      "ond": 1864,
      "edge": 1865,
      "lose": 1866,
      "green": 1867,
      "tools": 1868,
      "inv": 1869,
      "business": 1870,
      "25": 1871,
      "mount": 1872,
      "fee": 1873,
      "protect": 1874,
      "fly": 1875,
      "hun": 1876,
      "history": 1877,
      "ants": 1878,
      "carry": 1879,
      "flexible": 1880,
      "rain": 1881,
      "usb": 1882,
      "bottle": 1883,
      "files": 1884,
      "develo": 1885,
      "prefer": 1886,
      "gged": 1887,
      "unfortunately": 1888,
      "print": 1889,
      "internet": 1890,
      "sent": 1891,
      "final": 1892,
      "bands": 1893,
      "versions": 1894,
      "fight": 1895,
      "oh": 1896,
      "larger": 1897,
      "major": 1898,
      "sets": 1899,
      "manual": 1900,
      "oil": 1901,
      "proper": 1902,
      "release": 1903,
      "spo": 1904,
      "publ": 1905,
      "adap": 1906,
      "useful": 1907,
      "advent": 1908,
      "enty": 1909,
      "means": 1910,
      "weeks": 1911,
      "sweet": 1912,
      "reach": 1913,
      "rich": 1914,
      "perform": 1915,
      "ield": 1916,
      "personal": 1917,
      "orton": 1918,
      "ado": 1919,
      "asing": 1920,
      "lay": 1921,
      "sam": 1922,
      "current": 1923,
      "gri": 1924,
      "40": 1925,
      "include": 1926,
      "dir": 1927,
      "artic": 1928,
      "called": 1929,
      "lead": 1930,
      "preci": 1931,
      "correct": 1932,
      "16": 1933,
      "decent": 1934,
      "master": 1935,
      "basic": 1936,
      "okay": 1937,
      "thinking": 1938,
      "tact": 1939,
      "resp": 1940,
      "forward": 1941,
      "tea": 1942,
      "local": 1943,
      "necess": 1944,
      "trip": 1945,
      "draw": 1946,
      "gun": 1947,
      "chu": 1948,
      "continue": 1949,
      "cing": 1950,
      "omen": 1951,
      "dogs": 1952,
      "american": 1953,
      "tension": 1954,
      "las": 1955,
      "atic": 1956,
      "lap": 1957,
      "ison": 1958,
      "log": 1959,
      "mov": 1960,
      "early": 1961,
      "entertain": 1962,
      "met": 1963,
      "keeps": 1964,
      "feed": 1965,
      "eyes": 1966,
      "anno": 1967,
      "mother": 1968,
      "leaves": 1969,
      "gone": 1970,
      "ele": 1971,
      "cept": 1972,
      "guide": 1973,
      "flat": 1974,
      "spec": 1975,
      "stri": 1976,
      "fli": 1977,
      "ister": 1978,
      "giving": 1979,
      "vered": 1980,
      "opinion": 1981,
      "guy": 1982,
      "cat": 1983,
      "lights": 1984,
      "camer": 1985,
      "movies": 1986,
      "flow": 1987,
      "gan": 1988,
      "suc": 1989,
      "batt": 1990,
      "cream": 1991,
      "shoe": 1992,
      "ring": 1993,
      "ently": 1994,
      "feeling": 1995,
      "arning": 1996,
      "players": 1997,
      "fing": 1998,
      "pow": 1999,
      "pract": 2000,
      "example": 2001,
      "keeping": 2002,
      "ential": 2003,
      "ran": 2004,
      "learning": 2005,
      "cell": 2006,
      "norton": 2007,
      "inser": 2008,
      "fut": 2009,
      "tube": 2010,
      "b00": 2011,
      "ues": 2012,
      "compared": 2013,
      "notice": 2014,
      "ined": 2015,
      "appro": 2016,
      "icks": 2017,
      "covered": 2018,
      "straight": 2019,
      "incred": 2020,
      "bab": 2021,
      "span": 2022,
      "above": 2023,
      "thread": 2024,
      "verse": 2025,
      "watching": 2026,
      "199": 2027,
      "memory": 2028,
      "opening": 2029,
      "secur": 2030,
      "otherwise": 2031,
      "disc": 2032,
      "bi": 2033,
      "eat": 2034,
      "ane": 2035,
      "anyway": 2036,
      "appreci": 2037,
      "produ": 2038,
      "virus": 2039,
      "sus": 2040,
      "separ": 2041,
      "aim": 2042,
      "bluetooth": 2043,
      "sel": 2044,
      "market": 2045,
      "dead": 2046,
      "istic": 2047,
      "cuts": 2048,
      "priced": 2049,
      "wire": 2050,
      "gon": 2051,
      "struction": 2052,
      "slightly": 2053,
      "sens": 2054,
      "released": 2055,
      "certainly": 2056,
      "ping": 2057,
      "tighten": 2058,
      "plug": 2059,
      "throw": 2060,
      "volume": 2061,
      "doll": 2062,
      "spir": 2063,
      "group": 2064,
      "flu": 2065,
      "file": 2066,
      "pli": 2067,
      "taken": 2068,
      "create": 2069,
      "security": 2070,
      "match": 2071,
      "pas": 2072,
      "fail": 2073,
      "block": 2074,
      "tt": 2075,
      "grow": 2076,
      "thats": 2077,
      "choice": 2078,
      "improve": 2079,
      "rum": 2080,
      "mr": 2081,
      "health": 2082,
      "advan": 2083,
      "season": 2084,
      "fied": 2085,
      "post": 2086,
      "floor": 2087,
      "haps": 2088,
      "teach": 2089,
      "pleas": 2090,
      "cord": 2091,
      "tap": 2092,
      "moving": 2093,
      "ah": 2094,
      "bend": 2095,
      "road": 2096,
      "stor": 2097,
      "installation": 2098,
      "noticed": 2099,
      "bud": 2100,
      "male": 2101,
      "perhaps": 2102,
      "levels": 2103,
      "tor": 2104,
      "cheaper": 2105,
      "nearly": 2106,
      "told": 2107,
      "intro": 2108,
      "appear": 2109,
      "ention": 2110,
      "remain": 2111,
      "bring": 2112,
      "allows": 2113,
      "bell": 2114,
      "obvious": 2115,
      "ender": 2116,
      "variety": 2117,
      "roy": 2118,
      "figure": 2119,
      "mit": 2120,
      "loose": 2121,
      "results": 2122,
      "various": 2123,
      "honest": 2124,
      "convenient": 2125,
      "cant": 2126,
      "dle": 2127,
      "basically": 2128,
      "sold": 2129,
      "durable": 2130,
      "ford": 2131,
      "trouble": 2132,
      "manu": 2133,
      "auto": 2134,
      "luck": 2135,
      "spend": 2136,
      "woman": 2137,
      "future": 2138,
      "state": 2139,
      "deep": 2140,
      "wearing": 2141,
      "bt": 2142,
      "hang": 2143,
      "third": 2144,
      "logy": 2145,
      "fac": 2146,
      "tot": 2147,
      "dest": 2148,
      "hole": 2149,
      "immedi": 2150,
      "turns": 2151,
      ";<": 2152,
      "advertised": 2153,
      "girl": 2154,
      "gro": 2155,
      "const": 2156,
      "twist": 2157,
      "range": 2158,
      "powerful": 2159,
      "langu": 2160,
      "camera": 2161,
      "cro": 2162,
      "aging": 2163,
      "fre": 2164,
      "fold": 2165,
      "die": 2166,
      "sex": 2167,
      "appli": 2168,
      "uce": 2169,
      "natural": 2170,
      "plenty": 2171,
      "holes": 2172,
      "pink": 2173,
      "flaw": 2174,
      "stock": 2175,
      "town": 2176,
      "beginning": 2177,
      "totally": 2178,
      "mpoo": 2179,
      "ric": 2180,
      "vin": 2181,
      "squ": 2182,
      "shampoo": 2183,
      "backup": 2184,
      "web": 2185,
      "helpful": 2186,
      "ax": 2187,
      "lines": 2188,
      "rad": 2189,
      "nicely": 2190,
      "trad": 2191,
      "rench": 2192,
      "owned": 2193,
      "activ": 2194,
      "ination": 2195,
      "tic": 2196,
      "polish": 2197,
      "tubing": 2198,
      "alone": 2199,
      "pulling": 2200,
      "ibly": 2201,
      "scenes": 2202,
      "whate": 2203,
      "figured": 2204,
      "directions": 2205,
      "whatever": 2206,
      "women": 2207,
      "holds": 2208,
      "accur": 2209,
      "nut": 2210,
      "users": 2211,
      "common": 2212,
      "professional": 2213,
      "across": 2214,
      "funny": 2215,
      "known": 2216,
      "dist": 2217,
      "jack": 2218,
      "thes": 2219,
      "anim": 2220,
      "repe": 2221,
      "subscri": 2222,
      "wide": 2223,
      "adventure": 2224,
      "jam": 2225,
      "scan": 2226,
      "blades": 2227,
      "vocal": 2228,
      "multiple": 2229,
      "din": 2230,
      "mat": 2231,
      "sort": 2232,
      "crash": 2233,
      "points": 2234,
      "sque": 2235,
      "moist": 2236,
      "18": 2237,
      "lad": 2238,
      "soap": 2239,
      "sharp": 2240,
      "spent": 2241,
      "none": 2242,
      "offer": 2243,
      "manufact": 2244,
      "uss": 2245,
      "asse": 2246,
      "har": 2247,
      "sad": 2248,
      "70": 2249,
      "ising": 2250,
      "lack": 2251,
      "rating": 2252,
      "bath": 2253,
      "aver": 2254,
      "router": 2255,
      "unique": 2256,
      "ban": 2257,
      "images": 2258,
      "init": 2259,
      "dial": 2260,
      "cutting": 2261,
      "spanish": 2262,
      "rul": 2263,
      "baby": 2264,
      ":)": 2265,
      "uri": 2266,
      "rot": 2267,
      "heat": 2268,
      "plays": 2269,
      "consist": 2270,
      "daily": 2271,
      "ley": 2272,
      "connected": 2273,
      "organ": 2274,
      "ask": 2275,
      "lets": 2276,
      "gree": 2277,
      "noise": 2278,
      "unk": 2279,
      "incre": 2280,
      "total": 2281,
      "cir": 2282,
      "designed": 2283,
      "research": 2284,
      "spect": 2285,
      "bur": 2286,
      "tion": 2287,
      "tur": 2288,
      "brother": 2289,
      "stain": 2290,
      "fantasy": 2291,
      "sequ": 2292,
      "14": 2293,
      "success": 2294,
      "ana": 2295,
      "hero": 2296,
      "sec": 2297,
      "moder": 2298,
      "dev": 2299,
      "pain": 2300,
      "zy": 2301,
      "collect": 2302,
      "position": 2303,
      "safety": 2304,
      "bes": 2305,
      "ina": 2306,
      "language": 2307,
      "blo": 2308,
      "conds": 2309,
      "mini": 2310,
      "sen": 2311,
      "90": 2312,
      "mingway": 2313,
      "delic": 2314,
      "seconds": 2315,
      "annoying": 2316,
      "reco": 2317,
      "pushed": 2318,
      "charger": 2319,
      "broken": 2320,
      ".....": 2321,
      "occas": 2322,
      "station": 2323,
      "gold": 2324,
      "interface": 2325,
      "attention": 2326,
      "dou": 2327,
      "human": 2328,
      "customer": 2329,
      "likes": 2330,
      "spin": 2331,
      "elf": 2332,
      "13": 2333,
      "gue": 2334,
      "bill": 2335,
      "wind": 2336,
      "camp": 2337,
      "format": 2338,
      "extension": 2339,
      "cycle": 2340,
      "immediately": 2341,
      "fur": 2342,
      "rubber": 2343,
      "bucks": 2344,
      "faster": 2345,
      "waste": 2346,
      "laptop": 2347,
      "glue": 2348,
      "fab": 2349,
      "choose": 2350,
      "paren": 2351,
      "contact": 2352,
      "title": 2353,
      "summer": 2354,
      "gas": 2355,
      "apped": 2356,
      "email": 2357,
      "ii": 2358,
      "moun": 2359,
      "sch": 2360,
      "somewhat": 2361,
      "changed": 2362,
      "necessary": 2363,
      "chuck": 2364,
      "hn": 2365,
      "tun": 2366,
      "death": 2367,
      "avo": 2368,
      "igh": 2369,
      "weak": 2370,
      "battle": 2371,
      "secre": 2372,
      "insert": 2373,
      "evil": 2374,
      "stores": 2375,
      "hes": 2376,
      "steel": 2377,
      "cup": 2378,
      "lam": 2379,
      "shot": 2380,
      "screws": 2381,
      "aring": 2382,
      "clearly": 2383,
      "description": 2384,
      "perio": 2385,
      "ational": 2386,
      "clip": 2387,
      "ray": 2388,
      "held": 2389,
      "gameplay": 2390,
      "mostly": 2391,
      "standing": 2392,
      "quicken": 2393,
      "cooking": 2394,
      "stud": 2395,
      "explo": 2396,
      "forget": 2397,
      "jour": 2398,
      "please": 2399,
      "gb": 2400,
      "putting": 2401,
      "stage": 2402,
      "anger": 2403,
      "wow": 2404,
      "hemingway": 2405,
      "bigger": 2406,
      "claim": 2407,
      "surprised": 2408,
      "desp": 2409,
      "ference": 2410,
      "pal": 2411,
      "mechan": 2412,
      "application": 2413,
      "neg": 2414,
      "options": 2415,
      "fragr": 2416,
      "goo": 2417,
      "liter": 2418,
      "ker": 2419,
      "pat": 2420,
      "mario": 2421,
      "higher": 2422,
      "seller": 2423,
      "thorough": 2424,
      "six": 2425,
      "explain": 2426,
      "twice": 2427,
      "wheel": 2428,
      "seeing": 2429,
      "living": 2430,
      "press": 2431,
      "click": 2432,
      "record": 2433,
      "impressed": 2434,
      "throughout": 2435,
      "covers": 2436,
      "onto": 2437,
      "party": 2438,
      "filter": 2439,
      "document": 2440,
      "frustr": 2441,
      "famili": 2442,
      "kets": 2443,
      "whether": 2444,
      "tracks": 2445,
      "lat": 2446,
      "arm": 2447,
      "background": 2448,
      "sions": 2449,
      "invest": 2450,
      "powder": 2451,
      "ola": 2452,
      "vision": 2453,
      "arely": 2454,
      "protection": 2455,
      "mes": 2456,
      "wants": 2457,
      "bel": 2458,
      "articles": 2459,
      "pocket": 2460,
      "minim": 2461,
      "selves": 2462,
      "isk": 2463,
      "litter": 2464,
      "john": 2465,
      "challeng": 2466,
      "commun": 2467,
      "paid": 2468,
      "god": 2469,
      "bri": 2470,
      "cables": 2471,
      "shower": 2472,
      "notes": 2473,
      "anymore": 2474,
      "ances": 2475,
      "lier": 2476,
      "smells": 2477,
      "bass": 2478,
      "ica": 2479,
      "gotten": 2480,
      "delivery": 2481,
      "ham": 2482,
      "myster": 2483,
      "idge": 2484,
      "aint": 2485,
      "controll": 2486,
      "rate": 2487,
      "clothes": 2488,
      "treat": 2489,
      "unlike": 2490,
      "despite": 2491,
      "lau": 2492,
      "libr": 2493,
      "webs": 2494,
      "washer": 2495,
      "strate": 2496,
      "missing": 2497,
      "counter": 2498,
      "kno": 2499,
      "mask": 2500,
      "experien": 2501,
      "ener": 2502,
      "batteries": 2503,
      "blower": 2504,
      "??": 2505,
      "yard": 2506,
      "chance": 2507,
      "craft": 2508,
      "field": 2509,
      "usual": 2510,
      "middle": 2511,
      "pup": 2512,
      "task": 2513,
      "recogn": 2514,
      "nie": 2515,
      "starts": 2516,
      "cleaned": 2517,
      "father": 2518,
      "general": 2519,
      "talk": 2520,
      "ties": 2521,
      "recipes": 2522,
      "ches": 2523,
      "positive": 2524,
      "lod": 2525,
      "includes": 2526,
      "waiting": 2527,
      "electrical": 2528,
      "crit": 2529,
      "adapter": 2530,
      "sky": 2531,
      "studio": 2532,
      "date": 2533,
      "nal": 2534,
      "tiny": 2535,
      "flash": 2536,
      "chi": 2537,
      "bother": 2538,
      "ises": 2539,
      "engl": 2540,
      "tip": 2541,
      "puzz": 2542,
      "spot": 2543,
      "nu": 2544,
      "solution": 2545,
      "effects": 2546,
      "happens": 2547,
      "ese": 2548,
      "greatest": 2549,
      "makeup": 2550,
      "wards": 2551,
      "rend": 2552,
      "appreciate": 2553,
      "youve": 2554,
      "glass": 2555,
      "ially": 2556,
      "kitch": 2557,
      "lives": 2558,
      "changes": 2559,
      "secure": 2560,
      "invol": 2561,
      "purpose": 2562,
      "late": 2563,
      "desk": 2564,
      "tab": 2565,
      "ied": 2566,
      "loud": 2567,
      "tough": 2568,
      "walk": 2569,
      "iss": 2570,
      "hooked": 2571,
      "bags": 2572,
      "law": 2573,
      "edit": 2574,
      "meas": 2575,
      "runs": 2576,
      "terrible": 2577,
      "seal": 2578,
      "regard": 2579,
      "effective": 2580,
      "places": 2581,
      "limited": 2582,
      "solo": 2583,
      "core": 2584,
      "uring": 2585,
      "average": 2586,
      "mom": 2587,
      "walt": 2588,
      "cross": 2589,
      "mou": 2590,
      "tone": 2591,
      "exist": 2592,
      "window": 2593,
      "sized": 2594,
      "linte": 2595,
      "rit": 2596,
      "nic": 2597,
      "poo": 2598,
      "morning": 2599,
      "sole": 2600,
      "actual": 2601,
      "magic": 2602,
      "linteater": 2603,
      "laz": 2604,
      "engine": 2605,
      "hate": 2606,
      "spl": 2607,
      "hol": 2608,
      "kitchen": 2609,
      "ases": 2610,
      "teen": 2611,
      "saying": 2612,
      "appears": 2613,
      "inten": 2614,
      "ulous": 2615,
      "sorry": 2616,
      "dreamcast": 2617,
      "satisfied": 2618,
      "areas": 2619,
      "dut": 2620,
      "stopped": 2621,
      "complaints": 2622,
      "sides": 2623,
      "mad": 2624,
      "ram": 2625,
      "thus": 2626,
      "provide": 2627,
      "emp": 2628,
      "tradition": 2629,
      "ultim": 2630,
      "angle": 2631,
      "writ": 2632,
      "public": 2633,
      "tch": 2634,
      "hd": 2635,
      "photos": 2636,
      "cof": 2637,
      "period": 2638,
      "provides": 2639,
      "stren": 2640,
      "upon": 2641,
      "spending": 2642,
      "text": 2643,
      "comment": 2644,
      "horri": 2645,
      "mill": 2646,
      "def": 2647,
      "assu": 2648,
      "bey": 2649,
      "complaint": 2650,
      "kni": 2651,
      "compat": 2652,
      "ibility": 2653,
      "wing": 2654,
      "yarn": 2655,
      "mary": 2656,
      "storage": 2657,
      "site": 2658,
      "toys": 2659,
      "dewalt": 2660,
      "temp": 2661,
      "indi": 2662,
      "expan": 2663,
      "shoo": 2664,
      "watched": 2665,
      "mouth": 2666,
      "ame": 2667,
      "apple": 2668,
      "ffic": 2669,
      "lor": 2670,
      "neck": 2671,
      "intu": 2672,
      "guys": 2673,
      "emot": 2674,
      "themselves": 2675,
      "replaced": 2676,
      "modern": 2677,
      "pump": 2678,
      "ney": 2679,
      "exception": 2680,
      "hur": 2681,
      "lab": 2682,
      "illustr": 2683,
      "strings": 2684,
      "miss": 2685,
      "arent": 2686,
      "__": 2687,
      "bulbs": 2688,
      "offers": 2689,
      "delicious": 2690,
      "sauce": 2691,
      "secret": 2692,
      "bunch": 2693,
      "laugh": 2694,
      "cry": 2695,
      "construction": 2696,
      "enjoyable": 2697,
      "particularly": 2698,
      "popular": 2699,
      "library": 2700,
      "streng": 2701,
      "tex": 2702,
      "rober": 2703,
      "question": 2704,
      "ives": 2705,
      "tour": 2706,
      "orge": 2707,
      "izes": 2708,
      "coffee": 2709,
      "audi": 2710,
      "--------": 2711,
      "lasts": 2712,
      "ride": 2713,
      "talking": 2714,
      "require": 2715,
      "manufacture": 2716,
      "stuck": 2717,
      "provided": 2718,
      "wel": 2719,
      "forever": 2720,
      "hardware": 2721,
      "ba": 2722,
      "country": 2723,
      "scene": 2724,
      "illa": 2725,
      "earlier": 2726,
      "scratch": 2727,
      "fragrance": 2728,
      "phys": 2729,
      "ried": 2730,
      "brands": 2731,
      "considering": 2732,
      "properly": 2733,
      "sour": 2734,
      "++": 2735,
      "holding": 2736,
      "drop": 2737,
      "hood": 2738,
      "usion": 2739,
      "sony": 2740,
      "operating": 2741,
      "pad": 2742,
      "tered": 2743,
      "driving": 2744,
      "himself": 2745,
      "birth": 2746,
      "prime": 2747,
      "knows": 2748,
      "buttons": 2749,
      "motorola": 2750,
      "damage": 2751,
      "lazy": 2752,
      "eventually": 2753,
      "seriously": 2754,
      "individ": 2755,
      "double": 2756,
      "remind": 2757,
      "happened": 2758,
      "medium": 2759,
      "ders": 2760,
      "frequ": 2761,
      "acting": 2762,
      "production": 2763,
      "lower": 2764,
      "lasted": 2765,
      "separate": 2766,
      "surface": 2767,
      "listening": 2768,
      "complex": 2769,
      "loss": 2770,
      "gress": 2771,
      "situ": 2772,
      "duty": 2773,
      "tend": 2774,
      "settings": 2775,
      "boring": 2776,
      "handles": 2777,
      "====": 2778,
      "!)": 2779,
      "aks": 2780,
      "finding": 2781,
      "garden": 2782,
      "icated": 2783,
      "purchasing": 2784,
      "applications": 2785,
      "ima": 2786,
      "tray": 2787,
      "roo": 2788,
      "cleaner": 2789,
      "minor": 2790,
      "patch": 2791,
      "sections": 2792,
      "ires": 2793,
      "nail": 2794,
      "ples": 2795,
      "strap": 2796,
      "sensitive": 2797,
      "moisturi": 2798,
      "hid": 2799,
      "setup": 2800,
      "continu": 2801,
      "digital": 2802,
      "familiar": 2803,
      "kick": 2804,
      "radio": 2805,
      "gest": 2806,
      "female": 2807,
      "mentioned": 2808,
      "ets": 2809,
      "content": 2810,
      "send": 2811,
      "leaf": 2812,
      "cked": 2813,
      "elements": 2814,
      "city": 2815,
      "foundation": 2816,
      "connection": 2817,
      "spring": 2818,
      "learned": 2819,
      "crazy": 2820,
      "hill": 2821,
      "dollars": 2822,
      "instrum": 2823,
      "additional": 2824,
      "electric": 2825,
      "calend": 2826,
      "website": 2827,
      "fficient": 2828,
      "lyr": 2829,
      "bonus": 2830,
      "effort": 2831,
      "pical": 2832,
      "account": 2833,
      "warm": 2834,
      "pliers": 2835,
      "vs": 2836,
      "coll": 2837,
      "exer": 2838,
      "missed": 2839,
      "skill": 2840,
      "mm": 2841,
      "ingred": 2842,
      "paste": 2843,
      "ature": 2844,
      "syn": 2845,
      "fault": 2846,
      "45": 2847,
      "manufacturer": 2848,
      "via": 2849,
      "compe": 2850,
      "packaging": 2851,
      "2007": 2852,
      "controls": 2853,
      "fash": 2854,
      "ideas": 2855,
      "favorites": 2856,
      "message": 2857,
      "sitting": 2858,
      "deser": 2859,
      "further": 2860,
      "ilities": 2861,
      "readers": 2862,
      "****": 2863,
      "stone": 2864,
      "rp": 2865,
      "chap": 2866,
      "entertaining": 2867,
      "angles": 2868,
      "surprise": 2869,
      "devices": 2870,
      "incredible": 2871,
      "75": 2872,
      "trust": 2873,
      "tee": 2874,
      "cold": 2875,
      "dim": 2876,
      "hs": 2877,
      "cin": 2878,
      "thrill": 2879,
      "hoping": 2880,
      "crack": 2881,
      "strength": 2882,
      "visit": 2883,
      "interested": 2884,
      "accurate": 2885,
      "eu": 2886,
      "worse": 2887,
      "imagine": 2888,
      "ease": 2889,
      "center": 2890,
      "norm": 2891,
      "n64": 2892,
      "tran": 2893,
      "izing": 2894,
      "compar": 2895,
      "required": 2896,
      "exerc": 2897,
      "adding": 2898,
      "slower": 2899,
      "assem": 2900,
      "rules": 2901,
      "altern": 2902,
      "brought": 2903,
      "aspect": 2904,
      "bow": 2905,
      "dram": 2906,
      "becomes": 2907,
      "beyond": 2908,
      "became": 2909,
      "lovely": 2910,
      "inde": 2911,
      "scal": 2912,
      "result": 2913,
      "pros": 2914,
      "drying": 2915,
      "bits": 2916,
      "lon": 2917,
      "nel": 2918,
      "nails": 2919,
      "wet": 2920,
      "prevent": 2921,
      "balls": 2922,
      "nan": 2923,
      "minute": 2924,
      "attachment": 2925,
      "anywhere": 2926,
      "careful": 2927,
      "opp": 2928,
      "starting": 2929,
      "albums": 2930,
      "chris": 2931,
      "fighting": 2932,
      "max": 2933,
      "types": 2934,
      "relative": 2935,
      "depth": 2936,
      "parents": 2937,
      "jump": 2938,
      "born": 2939,
      "fru": 2940,
      "hits": 2941,
      "ato": 2942,
      "training": 2943,
      "shape": 2944,
      "avoid": 2945,
      "sister": 2946,
      "saving": 2947,
      "stume": 2948,
      "apparent": 2949,
      "sleep": 2950,
      "boot": 2951,
      "tune": 2952,
      "computers": 2953,
      "sung": 2954,
      "costume": 2955,
      "contr": 2956,
      "mir": 2957,
      "brings": 2958,
      "wanting": 2959,
      "coverage": 2960,
      "twisted": 2961,
      "fashion": 2962,
      "ners": 2963,
      "theme": 2964,
      "techno": 2965,
      "playstation": 2966,
      "orable": 2967,
      "2008": 2968,
      "previously": 2969,
      "accept": 2970,
      "reviewers": 2971,
      "members": 2972,
      "relation": 2973,
      "tive": 2974,
      "chick": 2975,
      "charging": 2976,
      "stays": 2977,
      "respon": 2978,
      "doubt": 2979,
      "cam": 2980,
      "obviously": 2981,
      "pure": 2982,
      "instruction": 2983,
      "ith": 2984,
      "suite": 2985,
      "typical": 2986,
      "bra": 2987,
      "000": 2988,
      "realize": 2989,
      "excited": 2990,
      "compare": 2991,
      "filled": 2992,
      "budget": 2993,
      "ults": 2994,
      "lightweight": 2995,
      "dries": 2996,
      "created": 2997,
      "lyrics": 2998,
      "san": 2999,
      "envir": 3000,
      "worst": 3001,
      "umin": 3002,
      "manage": 3003,
      "birds": 3004,
      "among": 3005,
      "autom": 3006,
      "personally": 3007,
      "struct": 3008,
      "introdu": 3009,
      "mart": 3010,
      "weap": 3011,
      "rated": 3012,
      "recording": 3013,
      "ns": 3014,
      "adult": 3015,
      "environ": 3016,
      "rough": 3017,
      "adds": 3018,
      "belt": 3019,
      "mob": 3020,
      "answer": 3021,
      "milk": 3022,
      "32": 3023,
      "negative": 3024,
      "smart": 3025,
      "subscription": 3026,
      "hell": 3027,
      "tired": 3028,
      "aa": 3029,
      "gps": 3030,
      "ager": 3031,
      "cident": 3032,
      "image": 3033,
      "trick": 3034,
      "winter": 3035,
      "cats": 3036,
      "compan": 3037,
      "constantly": 3038,
      "normally": 3039,
      "17": 3040,
      "hic": 3041,
      "bear": 3042,
      "moment": 3043,
      "agree": 3044,
      "gel": 3045,
      "lodged": 3046,
      "news": 3047,
      "cookies": 3048,
      "pers": 3049,
      "boss": 3050,
      "expansion": 3051,
      "ninten": 3052,
      "followed": 3053,
      "nintendo": 3054,
      "3d": 3055,
      "prom": 3056,
      "spy": 3057,
      "helped": 3058,
      "drum": 3059,
      "eli": 3060,
      "revol": 3061,
      "role": 3062,
      "wild": 3063,
      "frank": 3064,
      "attract": 3065,
      "details": 3066,
      "tempt": 3067,
      "fy": 3068,
      "nav": 3069,
      "marvel": 3070,
      "improved": 3071,
      "growing": 3072,
      "repair": 3073,
      "ries": 3074,
      "ify": 3075,
      "intended": 3076,
      "began": 3077,
      "requires": 3078,
      "signific": 3079,
      "zero": 3080,
      "calls": 3081,
      "building": 3082,
      "goog": 3083,
      "grab": 3084,
      "cult": 3085,
      "worry": 3086,
      "bles": 3087,
      "smoothly": 3088,
      "events": 3089,
      "99": 3090,
      "rob": 3091,
      "forced": 3092,
      "vocals": 3093,
      "latest": 3094,
      "ury": 3095,
      "gain": 3096,
      "gardus": 3097,
      "ests": 3098,
      "soul": 3099,
      "gent": 3100,
      "wrench": 3101,
      "select": 3102,
      "indust": 3103,
      "microphone": 3104,
      "following": 3105,
      "pac": 3106,
      "delight": 3107,
      "bloo": 3108,
      "workout": 3109,
      "lessly": 3110,
      "rant": 3111,
      "ports": 3112,
      "ians": 3113,
      "admit": 3114,
      "moves": 3115,
      "raz": 3116,
      "potential": 3117,
      "inexpensive": 3118,
      "finished": 3119,
      "street": 3120,
      "develop": 3121,
      "returned": 3122,
      "onic": 3123,
      "breath": 3124,
      "younger": 3125,
      "opened": 3126,
      "ught": 3127,
      "stal": 3128,
      "matt": 3129,
      "thro": 3130,
      "tips": 3131,
      "share": 3132,
      "keyboard": 3133,
      "turbo": 3134,
      "ali": 3135,
      "ups": 3136,
      "active": 3137,
      "fu": 3138,
      "gil": 3139,
      "iphone": 3140,
      "asked": 3141,
      "lls": 3142,
      "lift": 3143,
      "avid": 3144,
      "charged": 3145,
      "strange": 3146,
      "afford": 3147,
      "wrap": 3148,
      "paying": 3149,
      "individual": 3150,
      "bible": 3151,
      "zen": 3152,
      "enge": 3153,
      "projects": 3154,
      "practice": 3155,
      "ands": 3156,
      "visual": 3157,
      "tablet": 3158,
      "pound": 3159,
      "scar": 3160,
      "tells": 3161,
      "washing": 3162,
      "upgrad": 3163,
      "?\"": 3164,
      "terms": 3165,
      "calendar": 3166,
      "singing": 3167,
      "fighter": 3168,
      "numbers": 3169,
      "histor": 3170,
      "strategy": 3171,
      "rac": 3172,
      "installing": 3173,
      "ggle": 3174,
      "factor": 3175,
      "warning": 3176,
      "telling": 3177,
      "object": 3178,
      "energy": 3179,
      "english": 3180,
      "antic": 3181,
      "firm": 3182,
      "ships": 3183,
      "finger": 3184,
      "initial": 3185,
      "editing": 3186,
      "impossible": 3187,
      "yellow": 3188,
      "focus": 3189,
      "vehic": 3190,
      "snow": 3191,
      "ionally": 3192,
      "mower": 3193,
      "units": 3194,
      "trim": 3195,
      "attack": 3196,
      "gig": 3197,
      "blu": 3198,
      "picked": 3199,
      "dirty": 3200,
      "fear": 3201,
      "specific": 3202,
      "trend": 3203,
      "edu": 3204,
      "ula": 3205,
      "grass": 3206,
      "drink": 3207,
      "talent": 3208,
      "outstanding": 3209,
      "reasonable": 3210,
      "sprink": 3211,
      "fas": 3212,
      "rup": 3213,
      "blew": 3214,
      "overpriced": 3215,
      "expecting": 3216,
      "birthday": 3217,
      "nis": 3218,
      "concept": 3219,
      "ished": 3220,
      "transfer": 3221,
      "location": 3222,
      "honestly": 3223,
      "ients": 3224,
      "patter": 3225,
      "chor": 3226,
      "audience": 3227,
      "une": 3228,
      "reference": 3229,
      "originally": 3230,
      "remains": 3231,
      "cul": 3232,
      "orts": 3233,
      "fered": 3234,
      "fol": 3235,
      "network": 3236,
      "dred": 3237,
      "nd": 3238,
      "defect": 3239,
      "sugar": 3240,
      "spac": 3241,
      "dance": 3242,
      "gid": 3243,
      "thre": 3244,
      "quie": 3245,
      "prep": 3246,
      "brown": 3247,
      "lady": 3248,
      "vable": 3249,
      "yd": 3250,
      "onics": 3251,
      "contains": 3252,
      "gal": 3253,
      "wed": 3254,
      "biggest": 3255,
      "horrible": 3256,
      "vibr": 3257,
      "jud": 3258,
      "advantage": 3259,
      "systems": 3260,
      "beautifully": 3261,
      "improvement": 3262,
      ">&": 3263,
      "kn": 3264,
      "forth": 3265,
      "irrit": 3266,
      "bub": 3267,
      "hidden": 3268,
      "egg": 3269,
      "za": 3270,
      "deter": 3271,
      "cases": 3272,
      "tastes": 3273,
      "ery": 3274,
      "almon": 3275,
      "measure": 3276,
      "directly": 3277,
      "hundred": 3278,
      "squeak": 3279,
      "rely": 3280,
      "ams": 3281,
      "newer": 3282,
      "updates": 3283,
      "ency": 3284,
      "cking": 3285,
      "barely": 3286,
      "era": 3287,
      "path": 3288,
      "lif": 3289,
      "artist": 3290,
      "pleasant": 3291,
      "destroy": 3292,
      "ahead": 3293,
      "zard": 3294,
      "butter": 3295,
      "romance": 3296,
      "monit": 3297,
      "ai": 3298,
      "brill": 3299,
      "redu": 3300,
      "ering": 3301,
      "lighter": 3302,
      "cape": 3303,
      "ordering": 3304,
      "grandson": 3305,
      "knife": 3306,
      "sonic": 3307,
      "detailed": 3308,
      "everyday": 3309,
      "197": 3310,
      "america": 3311,
      "minimal": 3312,
      "mobile": 3313,
      "gall": 3314,
      "gum": 3315,
      "display": 3316,
      "junk": 3317,
      "walking": 3318,
      "resid": 3319,
      "soup": 3320,
      "fat": 3321,
      "iso": 3322,
      "ences": 3323,
      "rope": 3324,
      "doesnt": 3325,
      "earth": 3326,
      "girls": 3327,
      "robert": 3328,
      "disk": 3329,
      "mixed": 3330,
      "signal": 3331,
      "boxes": 3332,
      "mystery": 3333,
      "holi": 3334,
      "musical": 3335,
      "amy": 3336,
      "ensure": 3337,
      "actions": 3338,
      "confusing": 3339,
      "narr": 3340,
      "iron": 3341,
      "gging": 3342,
      "floyd": 3343,
      ".,": 3344,
      "friendly": 3345,
      "livered": 3346,
      "puzzles": 3347,
      "gly": 3348,
      "lend": 3349,
      "chem": 3350,
      "died": 3351,
      "techn": 3352,
      "delivered": 3353,
      "reasons": 3354,
      "shipped": 3355,
      "slash": 3356,
      "resour": 3357,
      "hasn": 3358,
      "challenge": 3359,
      "grip": 3360,
      "brilli": 3361,
      "weird": 3362,
      "deck": 3363,
      "breaking": 3364,
      "technology": 3365,
      "fro": 3366,
      "arms": 3367,
      "shar": 3368,
      "ingredients": 3369,
      "odd": 3370,
      "samsung": 3371,
      "lling": 3372,
      "shut": 3373,
      "lotion": 3374,
      "driver": 3375,
      "salt": 3376,
      "questions": 3377,
      "serv": 3378,
      "cali": 3379,
      "yum": 3380,
      "respect": 3381,
      "saved": 3382,
      "compact": 3383,
      "relatively": 3384,
      "seuss": 3385,
      "superb": 3386,
      "weigh": 3387,
      "essential": 3388,
      "equip": 3389,
      "adults": 3390,
      "shine": 3391,
      "media": 3392,
      "reliable": 3393,
      "increase": 3394,
      "bling": 3395,
      "---": 3396,
      "suppli": 3397,
      "fabric": 3398,
      "fell": 3399,
      "unge": 3400,
      "tele": 3401,
      "pulled": 3402,
      "fingers": 3403,
      "21": 3404,
      "lol": 3405,
      "aware": 3406,
      "gaming": 3407,
      "subst": 3408,
      "promis": 3409,
      "useless": 3410,
      "park": 3411,
      "controller": 3412,
      "dar": 3413,
      "tries": 3414,
      "attic": 3415,
      "jane": 3416,
      "beauty": 3417,
      "surprising": 3418,
      "ather": 3419,
      "risk": 3420,
      "ultimate": 3421,
      "grade": 3422,
      "portion": 3423,
      "trips": 3424,
      "menu": 3425,
      "experienced": 3426,
      "dru": 3427,
      "hp": 3428,
      "jer": 3429,
      "moved": 3430,
      "whats": 3431,
      "leaving": 3432,
      "df": 3433,
      "vhs": 3434,
      "stable": 3435,
      "tured": 3436,
      "nature": 3437,
      "states": 3438,
      "soc": 3439,
      "lip": 3440,
      "marks": 3441,
      "relig": 3442,
      "usa": 3443,
      "imm": 3444,
      "flims": 3445,
      "danger": 3446,
      "alot": 3447,
      "sticks": 3448,
      "plate": 3449,
      "lowest": 3450,
      "films": 3451,
      "mission": 3452,
      "generally": 3453,
      "race": 3454,
      "pepper": 3455,
      "ral": 3456,
      "swi": 3457,
      "tree": 3458,
      "camping": 3459,
      "changing": 3460,
      "plugged": 3461,
      "spinning": 3462,
      "humor": 3463,
      "stainless": 3464,
      "ake": 3465,
      "ek": 3466,
      "rd": 3467,
      "meant": 3468,
      "coat": 3469,
      "bulb": 3470,
      "jes": 3471,
      "oz": 3472,
      "alumin": 3473,
      "shelf": 3474,
      "truck": 3475,
      "reo": 3476,
      "loaded": 3477,
      "incredibly": 3478,
      "nancy": 3479,
      "cand": 3480,
      "ene": 3481,
      "outlook": 3482,
      "premi": 3483,
      "packed": 3484,
      "2009": 3485,
      "airs": 3486,
      "documents": 3487,
      "wireless": 3488,
      "foam": 3489,
      "healthy": 3490,
      "square": 3491,
      "chicken": 3492,
      "eper": 3493,
      "compet": 3494,
      "credit": 3495,
      "meaning": 3496,
      "writer": 3497,
      "rand": 3498,
      "sd": 3499,
      "icy": 3500,
      "subject": 3501,
      "possibly": 3502,
      "removed": 3503,
      "consu": 3504,
      "memories": 3505,
      "guns": 3506,
      "tar": 3507,
      "science": 3508,
      "shave": 3509,
      "sant": 3510,
      "shiny": 3511,
      "colle": 3512,
      "realistic": 3513,
      "snap": 3514,
      "balance": 3515,
      "meet": 3516,
      "resident": 3517,
      "spread": 3518,
      "excel": 3519,
      "prior": 3520,
      "difficul": 3521,
      "equipment": 3522,
      "ron": 3523,
      "polit": 3524,
      "integr": 3525,
      "spirit": 3526,
      "mab": 3527,
      "footage": 3528,
      "suit": 3529,
      "instrument": 3530,
      "flimsy": 3531,
      "aluminum": 3532,
      "peel": 3533,
      "team": 3534,
      "berg": 3535,
      "inches": 3536,
      "tightened": 3537,
      "exter": 3538,
      "container": 3539,
      "source": 3540,
      "meal": 3541,
      "vet": 3542,
      "acy": 3543,
      "cris": 3544,
      "superior": 3545,
      "direction": 3546,
      "dragon": 3547,
      "literally": 3548,
      "santana": 3549,
      "quid": 3550,
      "warrant": 3551,
      "hearing": 3552,
      "vanilla": 3553,
      "combination": 3554,
      "atically": 3555,
      "models": 3556,
      "speaker": 3557,
      "insu": 3558,
      "lda": 3559,
      "conce": 3560,
      "dermab": 3561,
      "chips": 3562,
      "cars": 3563,
      "whom": 3564,
      "creative": 3565,
      "performances": 3566,
      "grad": 3567,
      "discovered": 3568,
      "mp3": 3569,
      "frame": 3570,
      "dirt": 3571,
      "apparently": 3572,
      "sne": 3573,
      "boys": 3574,
      "berry": 3575,
      "president": 3576,
      "magazines": 3577,
      "appeal": 3578,
      "currently": 3579,
      "desktop": 3580,
      "quiet": 3581,
      "mour": 3582,
      "regre": 3583,
      "headphones": 3584,
      "apping": 3585,
      "exterior": 3586,
      "ision": 3587,
      "worn": 3588,
      "slide": 3589,
      "environment": 3590,
      "kin": 3591,
      "sar": 3592,
      "zing": 3593,
      "unscrew": 3594,
      "198": 3595,
      "attempt": 3596,
      "corel": 3597,
      "clips": 3598,
      "rein": 3599,
      "rip": 3600,
      "episo": 3601,
      "address": 3602,
      "plane": 3603,
      "cate": 3604,
      "headsets": 3605,
      "genre": 3606,
      "pin": 3607,
      "rocks": 3608,
      "advice": 3609,
      "raid": 3610,
      "indic": 3611,
      "interview": 3612,
      "dialo": 3613,
      "sizes": 3614,
      "iel": 3615,
      "puts": 3616,
      "fixed": 3617,
      "selling": 3618,
      "maps": 3619,
      "!\"": 3620,
      "enh": 3621,
      "aside": 3622,
      "blues": 3623,
      "orange": 3624,
      "eds": 3625,
      "manner": 3626,
      "2000": 3627,
      "sale": 3628,
      "rotary": 3629,
      "youtube": 3630,
      "boat": 3631,
      "listened": 3632,
      "dermablend": 3633,
      "below": 3634,
      "ctor": 3635,
      "resto": 3636,
      "horror": 3637,
      "packaged": 3638,
      "magnet": 3639,
      "jan": 3640,
      "wered": 3641,
      "accident": 3642,
      "maid": 3643,
      "imp": 3644,
      "applied": 3645,
      "journal": 3646,
      "jesus": 3647,
      "econ": 3648,
      "keys": 3649,
      "extr": 3650,
      "shif": 3651,
      "brow": 3652,
      "lawn": 3653,
      "launch": 3654,
      "anced": 3655,
      "sega": 3656,
      "colo": 3657,
      "ified": 3658,
      "thinks": 3659,
      "failed": 3660,
      "repeat": 3661,
      "challenging": 3662,
      "efficient": 3663,
      "pdf": 3664,
      "smo": 3665,
      "forms": 3666,
      "progress": 3667,
      "prin": 3668,
      "ously": 3669,
      "tho": 3670,
      "stup": 3671,
      "nozz": 3672,
      "proof": 3673,
      "wave": 3674,
      "placed": 3675,
      "decide": 3676,
      "granddaughter": 3677,
      "stretch": 3678,
      "tin": 3679,
      "code": 3680,
      "ization": 3681,
      "compli": 3682,
      "bird": 3683,
      "encoun": 3684,
      "zelda": 3685,
      "stands": 3686,
      "35": 3687,
      "david": 3688,
      "nes": 3689,
      "brit": 3690,
      "2010": 3691,
      "involved": 3692,
      "traditional": 3693,
      "weapons": 3694,
      "dict": 3695,
      "mca": 3696,
      "ya": 3697,
      "guard": 3698,
      "string": 3699,
      "spots": 3700,
      "appliance": 3701,
      "texture": 3702,
      "spice": 3703,
      "disconnected": 3704,
      "turning": 3705,
      "tale": 3706,
      "approach": 3707,
      "eve": 3708,
      "loy": 3709,
      "abilities": 3710,
      "speaking": 3711,
      "bone": 3712,
      "mc": 3713,
      "dete": 3714,
      "dropped": 3715,
      "tan": 3716,
      "seat": 3717,
      "meat": 3718,
      "fiction": 3719,
      "correctly": 3720,
      "va": 3721,
      "vam": 3722,
      "llo": 3723,
      "refresh": 3724,
      "exciting": 3725,
      "taping": 3726,
      "faces": 3727,
      "warranty": 3728,
      "fist": 3729,
      "fish": 3730,
      "jap": 3731,
      "anal": 3732,
      "cop": 3733,
      "gifts": 3734,
      "falling": 3735,
      "folks": 3736,
      "mur": 3737,
      "ude": 3738,
      "enga": 3739,
      "tribut": 3740,
      "ridgid": 3741,
      "tasty": 3742,
      "metall": 3743,
      "tear": 3744,
      "wrapped": 3745,
      "stereo": 3746,
      "rpg": 3747,
      "bby": 3748,
      "fence": 3749,
      "ining": 3750,
      "fruit": 3751,
      "aven": 3752,
      "stairs": 3753,
      "rote": 3754,
      "passable": 3755,
      "blood": 3756,
      "2nd": 3757,
      "bin": 3758,
      "soph": 3759,
      "server": 3760,
      "ledge": 3761,
      "mountain": 3762,
      "alternative": 3763,
      "mass": 3764,
      "closed": 3765,
      "vacation": 3766,
      "stupid": 3767,
      "japan": 3768,
      "capital": 3769,
      "wheels": 3770,
      "frustrating": 3771,
      "lux": 3772,
      "animals": 3773,
      "gers": 3774,
      "rhy": 3775,
      "icing": 3776,
      "expectations": 3777,
      "depending": 3778,
      "catcher": 3779,
      "sander": 3780,
      "ann": 3781,
      "tie": 3782,
      "shir": 3783,
      "duction": 3784,
      "bled": 3785,
      "everywhere": 3786,
      "legend": 3787,
      "puppy": 3788,
      "vampi": 3789,
      "dish": 3790,
      "lasting": 3791,
      "realized": 3792,
      "leather": 3793,
      "historical": 3794,
      "eating": 3795,
      "mood": 3796,
      "mistake": 3797,
      "random": 3798,
      "erman": 3799,
      "shown": 3800,
      "2005": 3801,
      "pedal": 3802,
      "gentle": 3803,
      "perf": 3804,
      "whenever": 3805,
      "harder": 3806,
      "truth": 3807,
      "sticky": 3808,
      "hopefully": 3809,
      "defective": 3810,
      "monitor": 3811,
      "dated": 3812,
      "reve": 3813,
      "stated": 3814,
      "loving": 3815,
      "doors": 3816,
      "garage": 3817,
      "colored": 3818,
      "entry": 3819,
      "comments": 3820,
      "impressive": 3821,
      "advanced": 3822,
      "teeth": 3823,
      "leak": 3824,
      "lyn": 3825,
      "raw": 3826,
      "connector": 3827,
      "appropri": 3828,
      "indeed": 3829,
      "gilmour": 3830,
      "finds": 3831,
      "prec": 3832,
      "survi": 3833,
      "compatible": 3834,
      "report": 3835,
      "tons": 3836,
      "named": 3837,
      "weren": 3838,
      "yeah": 3839,
      "blend": 3840,
      "knowing": 3841,
      "storyline": 3842,
      "wrote": 3843,
      "factory": 3844,
      "allowed": 3845,
      "edges": 3846,
      "arrow": 3847,
      "liquid": 3848,
      "itted": 3849,
      "updated": 3850,
      "falls": 3851,
      "novels": 3852,
      "ium": 3853,
      "converse": 3854,
      "caught": 3855,
      "ered": 3856,
      "jun": 3857,
      "stic": 3858,
      "tiles": 3859,
      "sport": 3860,
      "developed": 3861,
      "illustrations": 3862,
      "relationship": 3863,
      "pod": 3864,
      "tony": 3865,
      "functionality": 3866,
      "explore": 3867,
      "mcafee": 3868,
      "pred": 3869,
      "neat": 3870,
      "plat": 3871,
      "pol": 3872,
      "igned": 3873,
      "costs": 3874,
      "intuitive": 3875,
      "bust": 3876,
      "bars": 3877,
      "national": 3878,
      "eral": 3879,
      "selection": 3880,
      "famous": 3881,
      "viol": 3882,
      "chapter": 3883,
      "tro": 3884,
      "ordin": 3885,
      "apo": 3886,
      "commer": 3887,
      "former": 3888,
      "presented": 3889,
      "500": 3890,
      "info": 3891,
      "ivity": 3892,
      "dad": 3893,
      "towards": 3894,
      "stove": 3895,
      "navig": 3896,
      "somewhere": 3897,
      "premium": 3898,
      "aur": 3899,
      "hat": 3900,
      "ww": 3901,
      "infl": 3902,
      "iculous": 3903,
      "bee": 3904,
      "spare": 3905,
      "discus": 3906,
      "hurt": 3907,
      "hey": 3908,
      "tier": 3909,
      "emies": 3910,
      "cheese": 3911,
      "receive": 3912,
      "ternal": 3913,
      "b000": 3914,
      "suspect": 3915,
      "nuts": 3916,
      "gear": 3917,
      "director": 3918,
      "silver": 3919,
      "ears": 3920,
      "kink": 3921,
      "enemies": 3922,
      "corpor": 3923,
      "numer": 3924,
      "jordan": 3925,
      "jaw": 3926,
      "error": 3927,
      "dislodged": 3928,
      "brilliant": 3929,
      "difficulty": 3930,
      "ano": 3931,
      "marked": 3932,
      "compon": 3933,
      "mand": 3934,
      "sight": 3935,
      "weather": 3936,
      "conside": 3937,
      "convers": 3938,
      "ounce": 3939,
      "steam": 3940,
      "obstruction": 3941,
      "drag": 3942,
      "conditioner": 3943,
      "spoil": 3944,
      "childhood": 3945,
      "performed": 3946,
      "considered": 3947,
      "rare": 3948,
      "rice": 3949,
      "wads": 3950,
      "shoulder": 3951,
      "sym": 3952,
      "depend": 3953,
      "score": 3954,
      "bound": 3955,
      "moments": 3956,
      "iff": 3957,
      "clods": 3958,
      "suff": 3959,
      "impassable": 3960,
      "presto": 3961,
      "closing": 3962,
      "complicated": 3963,
      "thankfully": 3964,
      "scott": 3965,
      "bubble": 3966,
      "58": 3967,
      "arc": 3968,
      "tiv": 3969,
      "suction": 3970,
      "wore": 3971,
      "clutched": 3972,
      "reviewer": 3973,
      "suspen": 3974,
      "sequel": 3975,
      "besides": 3976,
      "rec": 3977,
      "china": 3978,
      "listed": 3979,
      "graphy": 3980,
      "terrific": 3981,
      "quo": 3982,
      "artists": 3983,
      "limit": 3984,
      "blocks": 3985,
      "situation": 3986,
      "google": 3987,
      "gallon": 3988,
      "offered": 3989,
      "wie": 3990,
      "willing": 3991,
      "clusion": 3992,
      "herself": 3993,
      "vari": 3994,
      "dd": 3995,
      "beans": 3996,
      "accor": 3997,
      "allen": 3998,
      "carrying": 3999,
      "mild": 4000,
      "tles": 4001,
      "clar": 4002,
      "brief": 4003,
      "continued": 4004,
      "tack": 4005,
      "sud": 4006,
      "grew": 4007,
      "shield": 4008,
      "showing": 4009,
      "suppose": 4010,
      "bun": 4011,
      "domin": 4012,
      "cake": 4013,
      "functions": 4014,
      "maintain": 4015,
      "firewall": 4016,
      "split": 4017,
      "somehow": 4018,
      "printer": 4019,
      "pricey": 4020,
      "letters": 4021,
      "loosen": 4022,
      "planning": 4023,
      "gym": 4024,
      "generation": 4025,
      "zed": 4026,
      "oooo": 4027,
      "trail": 4028,
      "comparison": 4029,
      "college": 4030,
      "according": 4031,
      "gorge": 4032,
      "tes": 4033,
      "ening": 4034,
      "marx": 4035,
      "hardly": 4036,
      "entirely": 4037,
      "tire": 4038,
      "ps2": 4039,
      "creating": 4040,
      "colorful": 4041,
      "heavily": 4042,
      "culture": 4043,
      "eggs": 4044,
      "rs": 4045,
      "accoun": 4046,
      "bene": 4047,
      "neither": 4048,
      "discover": 4049,
      "hip": 4050,
      "tested": 4051,
      "mounted": 4052,
      "console": 4053,
      "whose": 4054,
      "awful": 4055,
      "sneak": 4056,
      "sudden": 4057,
      "island": 4058,
      "decor": 4059,
      "cru": 4060,
      "chocol": 4061,
      "seam": 4062,
      "ama": 4063,
      "heads": 4064,
      "ensive": 4065,
      "subtle": 4066,
      "pushing": 4067,
      "occasionally": 4068,
      "rap": 4069,
      "chose": 4070,
      "gau": 4071,
      "therefore": 4072,
      "sheet": 4073,
      "supply": 4074,
      "poses": 4075,
      "offic": 4076,
      "produced": 4077,
      "zip": 4078,
      "actors": 4079,
      "blan": 4080,
      "addic": 4081,
      "heavier": 4082,
      "optim": 4083,
      "threads": 4084,
      "',": 4085,
      "thum": 4086,
      "gery": 4087,
      "recipe": 4088,
      "rack": 4089,
      "vill": 4090,
      "xic": 4091,
      "ened": 4092,
      "till": 4093,
      "concerned": 4094,
      "porter": 4095,
      "silly": 4096,
      "gorgeous": 4097,
      "inno": 4098,
      "exe": 4099,
      "2003": 4100,
      "messy": 4101,
      "prompt": 4102,
      "regret": 4103,
      "distance": 4104,
      "usive": 4105,
      "lighting": 4106,
      "bly": 4107,
      "unlock": 4108,
      "creat": 4109,
      "continues": 4110,
      "bridge": 4111,
      "reviewing": 4112,
      "knock": 4113,
      "mint": 4114,
      "ridiculous": 4115,
      "titles": 4116,
      "educ": 4117,
      "gger": 4118,
      "velcro": 4119,
      "portable": 4120,
      "stevie": 4121,
      "mainly": 4122,
      "categ": 4123,
      "rust": 4124,
      "letter": 4125,
      "kinda": 4126,
      "lather": 4127,
      "downloaded": 4128,
      "golden": 4129,
      "journey": 4130,
      "europe": 4131,
      "solve": 4132,
      "graphic": 4133,
      "south": 4134,
      "extended": 4135,
      "technical": 4136,
      "lou": 4137,
      "antivirus": 4138,
      "frequently": 4139,
      "development": 4140,
      "numerous": 4141,
      "crow": 4142,
      "wars": 4143,
      "clum": 4144,
      "names": 4145,
      "stun": 4146,
      "moon": 4147,
      "height": 4148,
      "intense": 4149,
      "achie": 4150,
      "confident": 4151,
      "chocolate": 4152,
      "roset": 4153,
      "chain": 4154,
      "ppy": 4155,
      "plantr": 4156,
      "//": 4157,
      "bio": 4158,
      "fying": 4159,
      "external": 4160,
      "knowledge": 4161,
      "formula": 4162,
      "singer": 4163,
      "craf": 4164,
      "torn": 4165,
      "vehicle": 4166,
      "george": 4167,
      "adjustment": 4168,
      "input": 4169,
      "del": 4170,
      "charm": 4171,
      "surround": 4172,
      "shame": 4173,
      "recorded": 4174,
      "presentation": 4175,
      "french": 4176,
      "jacks": 4177,
      "iment": 4178,
      "drives": 4179,
      "valu": 4180,
      "label": 4181,
      "hesit": 4182,
      "lamb": 4183,
      "students": 4184,
      "nozzle": 4185,
      "nest": 4186,
      "pine": 4187,
      "onna": 4188,
      "intri": 4189,
      "spiel": 4190,
      "broad": 4191,
      "mounting": 4192,
      "attractive": 4193,
      "command": 4194,
      "enjoying": 4195,
      "opport": 4196,
      "awhile": 4197,
      "jum": 4198,
      "omb": 4199,
      "warned": 4200,
      "thicker": 4201,
      "pig": 4202,
      "rin": 4203,
      "believable": 4204,
      "sprayer": 4205,
      "spective": 4206,
      "chop": 4207,
      "entially": 4208,
      "conver": 4209,
      "scared": 4210,
      "izon": 4211,
      "portray": 4212,
      "functional": 4213,
      "plantronics": 4214,
      "eight": 4215,
      "inspir": 4216,
      "influ": 4217,
      "dull": 4218,
      "caused": 4219,
      "rule": 4220,
      "career": 4221,
      "enemy": 4222,
      "extras": 4223,
      "'.": 4224,
      "95": 4225,
      "harr": 4226,
      "oily": 4227,
      "guitars": 4228,
      "cordless": 4229,
      "appropriate": 4230,
      "social": 4231,
      "psy": 4232,
      "faith": 4233,
      "reminds": 4234,
      "skills": 4235,
      "pattern": 4236,
      "300": 4237,
      "punch": 4238,
      "idol": 4239,
      "shaving": 4240,
      "thoroughly": 4241,
      "detect": 4242,
      "dies": 4243,
      "ius": 4244,
      "ost": 4245,
      "adv": 4246,
      "hael": 4247,
      "bugs": 4248,
      "dont": 4249,
      "adequ": 4250,
      "tones": 4251,
      "automatically": 4252,
      "introduced": 4253,
      "supplied": 4254,
      "oscar": 4255,
      "enna": 4256,
      "plant": 4257,
      "trash": 4258,
      "div": 4259,
      "purple": 4260,
      "machines": 4261,
      "combat": 4262,
      "iest": 4263,
      "wat": 4264,
      "oom": 4265,
      "apps": 4266,
      "wins": 4267,
      "michael": 4268,
      "begins": 4269,
      "expand": 4270,
      "commercial": 4271,
      "3rd": 4272,
      "ud": 4273,
      "leash": 4274,
      "seven": 4275,
      "bob": 4276,
      "ideal": 4277,
      "allowing": 4278,
      "passion": 4279,
      "cabine": 4280,
      "____": 4281,
      "econom": 4282,
      "aries": 4283,
      "dom": 4284,
      "amps": 4285,
      "century": 4286,
      "2001": 4287,
      "virtu": 4288,
      "obs": 4289,
      "anna": 4290,
      "exchange": 4291,
      "soundtrack": 4292,
      "stronger": 4293,
      "entertainment": 4294,
      "spielberg": 4295,
      "len": 4296,
      "stree": 4297,
      "cher": 4298,
      "shouldn": 4299,
      "slowly": 4300,
      "related": 4301,
      "initially": 4302,
      "?)": 4303,
      "solved": 4304,
      "applying": 4305,
      "flying": 4306,
      "noticeable": 4307,
      "turbotax": 4308,
      "jim": 4309,
      "peace": 4310,
      "choices": 4311,
      "poorly": 4312,
      "narrow": 4313,
      "cha": 4314,
      "idio": 4315,
      "photoshop": 4316,
      "rosetta": 4317,
      "obsess": 4318,
      "wine": 4319,
      "cot": 4320,
      "perfume": 4321,
      "arily": 4322,
      "reads": 4323,
      "affect": 4324,
      "picking": 4325,
      "understanding": 4326,
      "complaining": 4327,
      "student": 4328,
      "spyware": 4329,
      "suspense": 4330,
      "bank": 4331,
      "nia": 4332,
      "chart": 4333,
      "gover": 4334,
      "shor": 4335,
      "grain": 4336,
      "dvds": 4337,
      "searching": 4338,
      "streets": 4339,
      "lbs": 4340,
      "retail": 4341,
      "outs": 4342,
      "convin": 4343,
      "cartr": 4344,
      "naturally": 4345,
      "hen": 4346,
      "lately": 4347,
      "alien": 4348,
      "rose": 4349,
      "blast": 4350,
      "lessons": 4351,
      "disappointing": 4352,
      "processor": 4353,
      "traveling": 4354,
      "adobe": 4355,
      "hillerman": 4356,
      "promised": 4357,
      "chip": 4358,
      "locks": 4359,
      "upper": 4360,
      "opard": 4361,
      "assemb": 4362,
      "exercise": 4363,
      "goal": 4364,
      "shad": 4365,
      "drivers": 4366,
      "musicians": 4367,
      "asking": 4368,
      "abra": 4369,
      "peter": 4370,
      "prices": 4371,
      "brac": 4372,
      "skip": 4373,
      "adjustable": 4374,
      "madonna": 4375,
      "dimen": 4376,
      "theat": 4377,
      "meth": 4378,
      "ghost": 4379,
      "construct": 4380,
      "iling": 4381,
      "flor": 4382,
      "pens": 4383,
      "invent": 4384,
      "leads": 4385,
      "dece": 4386,
      "comed": 4387,
      "penc": 4388,
      "tennis": 4389,
      "worthy": 4390,
      "appeared": 4391,
      "occur": 4392,
      "markers": 4393,
      "specif": 4394,
      "tempor": 4395,
      "[...": 4396,
      "dc": 4397,
      "mber": 4398,
      "leopard": 4399,
      "seph": 4400,
      "needles": 4401,
      "cleanser": 4402,
      "steal": 4403,
      "roller": 4404,
      "passed": 4405,
      "reached": 4406,
      "brain": 4407,
      "theless": 4408,
      "istry": 4409,
      "aming": 4410,
      "bum": 4411,
      "pressed": 4412,
      "aked": 4413,
      "industry": 4414,
      "galax": 4415,
      "ko": 4416,
      "neigh": 4417,
      "disconnect": 4418,
      "maria": 4419,
      "classics": 4420,
      "club": 4421,
      "bottles": 4422,
      "response": 4423,
      "shift": 4424,
      "[...]": 4425,
      "aer": 4426,
      "wels": 4427,
      "acou": 4428,
      "paul": 4429,
      "lax": 4430,
      "companies": 4431,
      "reverse": 4432,
      "itty": 4433,
      "basis": 4434,
      "clim": 4435,
      "hilar": 4436,
      "lived": 4437,
      "shade": 4438,
      "hadn": 4439,
      "instant": 4440,
      "sprinkler": 4441,
      "fascin": 4442,
      "assembly": 4443,
      "fed": 4444,
      "illy": 4445,
      "hall": 4446,
      "alive": 4447,
      "resses": 4448,
      "managed": 4449,
      "figuring": 4450,
      "chemical": 4451,
      "htt": 4452,
      "tall": 4453,
      "gry": 4454,
      "tood": 4455,
      "fox": 4456,
      "study": 4457,
      "kinds": 4458,
      "replacing": 4459,
      "insight": 4460,
      "removing": 4461,
      "richard": 4462,
      "orial": 4463,
      "ingly": 4464,
      "escape": 4465,
      "excess": 4466,
      "saves": 4467,
      "backed": 4468,
      "showed": 4469,
      "surprisingly": 4470,
      "lips": 4471,
      "clamp": 4472,
      "curve": 4473,
      "wonderfully": 4474,
      "wordperfect": 4475,
      "snack": 4476,
      "flip": 4477,
      "physical": 4478,
      "ggl": 4479,
      "alle": 4480,
      "losing": 4481,
      "chew": 4482,
      "snu": 4483,
      "thrilled": 4484,
      "razor": 4485,
      "dialogue": 4486,
      "impact": 4487,
      "22": 4488,
      "knot": 4489,
      "pul": 4490,
      "adorable": 4491,
      "terror": 4492,
      "poly": 4493,
      "scient": 4494,
      "joints": 4495,
      "squee": 4496,
      "fabulous": 4497,
      "========": 4498,
      "gate": 4499,
      "og": 4500,
      "yor": 4501,
      "relax": 4502,
      "unity": 4503,
      "maker": 4504,
      "shure": 4505,
      "disaster": 4506,
      "tasks": 4507,
      "printed": 4508,
      "ticket": 4509,
      "glow": 4510,
      "rarely": 4511,
      "refun": 4512,
      "toss": 4513,
      "stops": 4514,
      "stripped": 4515,
      "lucky": 4516,
      "affordable": 4517,
      "://": 4518,
      "phe": 4519,
      "quar": 4520,
      "umes": 4521,
      "fornia": 4522,
      "drilling": 4523,
      "nike": 4524,
      "1st": 4525,
      "360": 4526,
      "bb": 4527,
      "ale": 4528,
      "sake": 4529,
      "aves": 4530,
      "afraid": 4531,
      "capac": 4532,
      "damaged": 4533,
      "santa": 4534,
      "backs": 4535,
      "absor": 4536,
      "corn": 4537,
      "reasonably": 4538,
      "panel": 4539,
      "bike": 4540,
      "california": 4541,
      "!).": 4542,
      "dunge": 4543,
      "flight": 4544,
      "usable": 4545,
      "galaxy": 4546,
      "tian": 4547,
      "demo": 4548,
      "auth": 4549,
      "purposes": 4550,
      "thru": 4551,
      "returning": 4552,
      "miles": 4553,
      "holiday": 4554,
      "target": 4555,
      "buds": 4556,
      "produce": 4557,
      "constant": 4558,
      "british": 4559,
      "sick": 4560,
      "tops": 4561,
      "encounter": 4562,
      "legs": 4563,
      "los": 4564,
      "usage": 4565,
      "handful": 4566,
      "corner": 4567,
      "materials": 4568,
      "james": 4569,
      "yummy": 4570,
      "metallica": 4571,
      "gauge": 4572,
      "authors": 4573,
      "dent": 4574,
      "aler": 4575,
      "scroll": 4576,
      "joined": 4577,
      "closer": 4578,
      "awk": 4579,
      "consists": 4580,
      "carefully": 4581,
      "motion": 4582,
      "burst": 4583,
      "assumed": 4584,
      "jet": 4585,
      "vit": 4586,
      "reality": 4587,
      "missions": 4588,
      "performs": 4589,
      "investment": 4590,
      "regardless": 4591,
      "sharpen": 4592,
      "dress": 4593,
      "pace": 4594,
      "minus": 4595,
      "crap": 4596,
      "sings": 4597,
      "valve": 4598,
      "dice": 4599,
      "~~": 4600,
      "fran": 4601,
      "versat": 4602,
      "casual": 4603,
      "moisturizer": 4604,
      "gor": 4605,
      "attemp": 4606,
      "courage": 4607,
      "potato": 4608,
      "issors": 4609,
      "fon": 4610,
      "jar": 4611,
      "wis": 4612,
      "acle": 4613,
      "repeated": 4614,
      "claims": 4615,
      "shorter": 4616,
      "cit": 4617,
      "sucked": 4618,
      "lastly": 4619,
      "hub": 4620,
      "zzy": 4621,
      "documentary": 4622,
      "insul": 4623,
      "benefit": 4624,
      "700": 4625,
      "bay": 4626,
      "pts": 4627,
      "packs": 4628,
      "zomb": 4629,
      "err": 4630,
      "notch": 4631,
      "powered": 4632,
      "sounded": 4633,
      "hallo": 4634,
      "route": 4635,
      "pleasure": 4636,
      "hanging": 4637,
      "grown": 4638,
      "encounters": 4639,
      "method": 4640,
      "slo": 4641,
      "itary": 4642,
      "sea": 4643,
      "comfy": 4644,
      "owner": 4645,
      "mixing": 4646,
      "slip": 4647,
      "martin": 4648,
      "significant": 4649,
      "awkward": 4650,
      "-)": 4651,
      "mouse": 4652,
      "replay": 4653,
      "edger": 4654,
      "beli": 4655,
      "extract": 4656,
      "scissors": 4657,
      "standards": 4658,
      "killer": 4659,
      "balanced": 4660,
      "layer": 4661,
      "grocer": 4662,
      "emotional": 4663,
      "----------------": 4664,
      "lly": 4665,
      "vend": 4666,
      "stiff": 4667,
      "ables": 4668,
      "presents": 4669,
      "amazed": 4670,
      "treas": 4671,
      "pantry": 4672,
      "drops": 4673,
      "dinner": 4674,
      "consistent": 4675,
      "resources": 4676,
      "specifically": 4677,
      "itude": 4678,
      "stitch": 4679,
      "antenna": 4680,
      "overly": 4681,
      "lifetime": 4682,
      "featured": 4683,
      "bargain": 4684,
      "burning": 4685,
      "intuit": 4686,
      "upgraded": 4687,
      "lover": 4688,
      "whel": 4689,
      "dual": 4690,
      "labe": 4691,
      "checked": 4692,
      "univers": 4693,
      "situations": 4694,
      "opportunity": 4695,
      "36": 4696,
      "fif": 4697,
      "lunch": 4698,
      "conclusion": 4699,
      "civil": 4700,
      "mono": 4701,
      "screwed": 4702,
      "society": 4703,
      "halloween": 4704,
      "lb": 4705,
      "insp": 4706,
      "worried": 4707,
      "cans": 4708,
      "carri": 4709,
      "reception": 4710,
      "bage": 4711,
      "ee": 4712,
      "pour": 4713,
      "perman": 4714,
      "bran": 4715,
      "bris": 4716,
      "gamers": 4717,
      "regularly": 4718,
      "killed": 4719,
      "sadly": 4720,
      "organic": 4721,
      "palm": 4722,
      "elimin": 4723,
      "1977": 4724,
      "junction": 4725,
      "98": 4726,
      "confl": 4727,
      "willi": 4728,
      "partment": 4729,
      "loop": 4730,
      "court": 4731,
      "drew": 4732,
      "filling": 4733,
      "masterpiece": 4734,
      "teacher": 4735,
      "revolution": 4736,
      "television": 4737,
      "acoustic": 4738,
      "hh": 4739,
      "kers": 4740,
      "zone": 4741,
      "meter": 4742,
      "cloth": 4743,
      "elsewhere": 4744,
      "juli": 4745,
      "brothers": 4746,
      "gin": 4747,
      "rush": 4748,
      "wes": 4749,
      "wers": 4750,
      "west": 4751,
      "doctor": 4752,
      "restaur": 4753,
      "reflect": 4754,
      "remote": 4755,
      "shoot": 4756,
      "lord": 4757,
      "physics": 4758,
      "aspects": 4759,
      "govern": 4760,
      ",,": 4761,
      "ku": 4762,
      "tank": 4763,
      "mold": 4764,
      "acqu": 4765,
      "dynam": 4766,
      "memorable": 4767,
      "nights": 4768,
      "bulky": 4769,
      "octo": 4770,
      "appearance": 4771,
      "harrison": 4772,
      "(\"": 4773,
      "zo": 4774,
      "thy": 4775,
      "toward": 4776,
      "aps": 4777,
      "poem": 4778,
      "sheets": 4779,
      "thoughts": 4780,
      "foods": 4781,
      "steps": 4782,
      "logical": 4783,
      "torque": 4784,
      "candy": 4785,
      "japanese": 4786,
      "hilarious": 4787,
      "pun": 4788,
      "stat": 4789,
      "bered": 4790,
      "pets": 4791,
      "reser": 4792,
      "emer": 4793,
      "intell": 4794,
      "brushes": 4795,
      "describe": 4796,
      "80s": 4797,
      "scrab": 4798,
      "leading": 4799,
      "threaded": 4800,
      "almonds": 4801,
      "ilo": 4802,
      "spark": 4803,
      "phr": 4804,
      "shocking": 4805,
      "worlds": 4806,
      "reinforce": 4807,
      "compliments": 4808,
      "hous": 4809,
      "ipod": 4810,
      "geo": 4811,
      "noted": 4812,
      "capable": 4813,
      "darker": 4814,
      "practical": 4815,
      "sexy": 4816,
      "savings": 4817,
      "october": 4818,
      "cs": 4819,
      "dash": 4820,
      "towels": 4821,
      "aran": 4822,
      "term": 4823,
      "enjoys": 4824,
      "cardboard": 4825,
      "holder": 4826,
      "jobs": 4827,
      "breaks": 4828,
      "inese": 4829,
      "bond": 4830,
      "scalp": 4831,
      "ordinary": 4832,
      "lav": 4833,
      "vict": 4834,
      "isy": 4835,
      "chinese": 4836,
      "forces": 4837,
      "cloud": 4838,
      "capture": 4839,
      "designs": 4840,
      "records": 4841,
      "painting": 4842,
      "refreshing": 4843,
      "thir": 4844,
      "sters": 4845,
      "beha": 4846,
      "unable": 4847,
      "debris": 4848,
      "perspective": 4849,
      "bucket": 4850,
      "stopping": 4851,
      "surgery": 4852,
      "script": 4853,
      "empty": 4854,
      "compatibility": 4855,
      "determin": 4856,
      "scrabble": 4857,
      "ris": 4858,
      "hoped": 4859,
      "greasy": 4860,
      "resist": 4861,
      "buff": 4862,
      "simpli": 4863,
      "winner": 4864,
      "garbage": 4865,
      "horse": 4866,
      "sales": 4867,
      "customers": 4868,
      "gloss": 4869,
      "tut": 4870,
      "tel": 4871,
      "sounding": 4872,
      "wolf": 4873,
      "temper": 4874,
      "magnetic": 4875,
      "fav": 4876,
      "sites": 4877,
      "tends": 4878,
      "alco": 4879,
      "static": 4880,
      "icon": 4881,
      "heaven": 4882,
      "gra": 4883,
      "preh": 4884,
      "stickers": 4885,
      "buster": 4886,
      "meets": 4887,
      "hazard": 4888,
      "perfe": 4889,
      "shopping": 4890,
      "beginner": 4891,
      "techni": 4892,
      "element": 4893,
      "exercises": 4894,
      "suddenly": 4895,
      "lers": 4896,
      "viny": 4897,
      "becoming": 4898,
      "modif": 4899,
      "clogged": 4900,
      "flavors": 4901,
      "occasional": 4902,
      "drama": 4903,
      "drug": 4904,
      "adequate": 4905,
      "government": 4906,
      "roses": 4907,
      "timeless": 4908,
      "bruce": 4909,
      "shel": 4910,
      "creep": 4911,
      "cooked": 4912,
      "jeans": 4913,
      "hundreds": 4914,
      "jackson": 4915,
      "mous": 4916,
      "rus": 4917,
      "hoses": 4918,
      "gather": 4919,
      "sports": 4920,
      "evening": 4921,
      "lesson": 4922,
      "......": 4923,
      "planet": 4924,
      "fancy": 4925,
      "drawing": 4926,
      "taped": 4927,
      "beats": 4928,
      "foc": 4929,
      "cleans": 4930,
      "attaching": 4931,
      "messages": 4932,
      "speakers": 4933,
      "article": 4934,
      "extensions": 4935,
      "idiot": 4936,
      "lists": 4937,
      "oring": 4938,
      "ario": 4939,
      "decades": 4940,
      "bulk": 4941,
      "flaws": 4942,
      "xl": 4943,
      "insur": 4944,
      "renew": 4945,
      "peach": 4946,
      "skand": 4947,
      "multiplayer": 4948,
      "curi": 4949,
      "successful": 4950,
      "lamin": 4951,
      "aliens": 4952,
      "washington": 4953,
      "cabinet": 4954,
      "intellig": 4955,
      "dres": 4956,
      "dozen": 4957,
      "uncomfortable": 4958,
      "default": 4959,
      "explan": 4960,
      "essentially": 4961,
      "cles": 4962,
      "196": 4963,
      "acceptable": 4964,
      "pounds": 4965,
      ">.": 4966,
      "pill": 4967,
      "stress": 4968,
      "beef": 4969,
      "cker": 4970,
      "serve": 4971,
      "minis": 4972,
      "marily": 4973,
      "opens": 4974,
      "climb": 4975,
      "flowing": 4976,
      "\")": 4977,
      "yo": 4978,
      "lla": 4979,
      "clever": 4980,
      "checking": 4981,
      "crafts": 4982,
      "dado": 4983,
      "ey": 4984,
      "hint": 4985,
      "rome": 4986,
      "upgrading": 4987,
      "hated": 4988,
      "accompl": 4989,
      "dele": 4990,
      "gray": 4991,
      "diame": 4992,
      "decision": 4993,
      "dangerous": 4994,
      "copies": 4995,
      "vinyl": 4996,
      "vy": 4997,
      "chur": 4998,
      "riff": 4999
    },
    "merges": [
      "t h",
      "i n",
      "th e",
      "a n",
      "r e",
      "e r",
      "o n",
      "i s",
      "o u",
      "i t",
      "a t",
      "o r",
      "t o",
      "an d",
      "e n",
      "a s",
      "a l",
      "in g",
      "e s",
      "e d",
      "a r",
      "s t",
      "o f",
      "l e",
      "s e",
      "i c",
      "l y",
      "m e",
      "v e",
      "r o",
      "c h",
      "f or",
      "th is",
      "a d",
      "b e",
      "l l",
      "w i",
      "y ou",
      "n o",
      "v er",
      "l o",
      "c t",
      "u t",
      "w h",
      "s o",
      "c o",
      "g h",
      "th at",
      "l i",
      "a y",
      "i on",
      "h a",
      "wi th",
      "w e",
      "m y",
      "k e",
      "i d",
      "o o",
      "en t",
      "l d",
      "u s",
      "g e",
      "a re",
      "m o",
      "a b",
      "a c",
      "on e",
      "ou t",
      "al l",
      "h e",
      "b ut",
      "d o",
      "a m",
      "w as",
      "t er",
      "f e",
      "n e",
      "p ro",
      "u n",
      "r i",
      "no t",
      "ha ve",
      "h o",
      "i f",
      "c e",
      "gh t",
      "i r",
      "p l",
      "t i",
      "w or",
      "d e",
      "s u",
      "p e",
      "co m",
      "ver y",
      ". .",
      "a p",
      "the r",
      "g re",
      "e x",
      "al ly",
      "c on",
      "u r",
      "m a",
      "u st",
      "u se",
      "ou ld",
      "u p",
      "p er",
      "gre at",
      "g a",
      "c an",
      "p o",
      "u l",
      "t r",
      "en d",
      "g o",
      "oo d",
      "t a",
      "ic e",
      "k s",
      "ou n",
      "i l",
      "q u",
      "the y",
      "li ke",
      "t e",
      "an y",
      "t s",
      "i e",
      "es s",
      "g ood",
      "d u",
      "so me",
      "a ct",
      "j ust",
      "i m",
      "ro m",
      "ar d",
      "b o",
      "re s",
      "f rom",
      "on g",
      "ac k",
      "th ing",
      "ge t",
      "as t",
      "o ther",
      "an t",
      "w ay",
      "ou gh",
      "er s",
      "ab le",
      "es t",
      "oun d",
      "wi ll",
      "you r",
      "at e",
      "p r",
      "wh en",
      "b u",
      "s h",
      "f in",
      "o k",
      "p le",
      "mo re",
      "i g",
      "c a",
      "ar t",
      "h as",
      "it e",
      "g r",
      "du ct",
      "id e",
      "h ad",
      "ti me",
      "at ion",
      "i ve",
      "s a",
      "b oo",
      "re ad",
      "the m",
      "no w",
      "y e",
      "we ll",
      "w ould",
      "i ll",
      "wh at",
      "th an",
      "v en",
      "pro duct",
      "wor k",
      "is t",
      "the re",
      "ou r",
      "the se",
      "re d",
      "w n",
      "lo ve",
      "ga me",
      "ab out",
      "in t",
      "u m",
      "c l",
      "it y",
      "b le",
      "e m",
      "p p",
      "pl ay",
      "a v",
      "c k",
      "ar s",
      "to o",
      "ic k",
      "b y",
      "d er",
      "in e",
      "s c",
      "d id",
      "in k",
      "s p",
      "e l",
      "re ally",
      "it t",
      "r a",
      "e as",
      "ic h",
      "do es",
      "ho w",
      "re n",
      "c le",
      "on ly",
      "o ver",
      "v ie",
      "t w",
      "m u",
      "p re",
      "boo k",
      "ne ed",
      "f o",
      "t y",
      "r y",
      "b l",
      "a f",
      "it s",
      "d on",
      "wh o",
      "mu ch",
      "m ent",
      "b r",
      "wh ich",
      "i es",
      "in st",
      ".. .",
      "ad e",
      "j o",
      "ct ion",
      "of f",
      "m an",
      "mo st",
      "be t",
      "h er",
      "ou ght",
      "al so",
      "ou s",
      "or t",
      "u re",
      "e very",
      "se t",
      "f ir",
      "us ed",
      "e ven",
      "e p",
      "i ght",
      "ne w",
      "b ack",
      "lo w",
      "in d",
      "f ul",
      "ca use",
      "as s",
      "fir st",
      "itt le",
      "d is",
      "! !",
      "l ittle",
      "fe ct",
      "a ge",
      "the n",
      "h is",
      "d ay",
      "s he",
      "ac e",
      "0 0",
      "p ut",
      "be cause",
      "af ter",
      "be en",
      "com m",
      "t ing",
      "wor ks",
      "as e",
      "i le",
      "i z",
      "p s",
      "s m",
      "v ent",
      "w ant",
      "p h",
      "v ed",
      "li ght",
      "lo ok",
      "or y",
      "we re",
      "in to",
      "g u",
      "co l",
      "s ion",
      "bu y",
      "cle an",
      "st ill",
      "v es",
      "l ess",
      "d es",
      "p t",
      "s er",
      "d s",
      "a g",
      "h i",
      "ma ke",
      "ch ar",
      "l ong",
      "a ch",
      "the ir",
      "is h",
      "bet ter",
      "v ing",
      "k es",
      "c i",
      "a u",
      "go t",
      "d i",
      "vie w",
      "l es",
      "o ld",
      "c ould",
      "b est",
      "ri ght",
      "h and",
      "f un",
      "s ide",
      "eas y",
      "ur n",
      "d if",
      "pr ice",
      "n ice",
      "us ing",
      "lo t",
      "u e",
      "a ga",
      "a z",
      "m s",
      "al ity",
      "p ur",
      "ye ars",
      "i ly",
      "hi gh",
      "do wn",
      "b er",
      "wh e",
      "at er",
      "k now",
      "d ri",
      "st r",
      "ti m",
      "per fect",
      "d ry",
      "th r",
      "f l",
      "e t",
      "m any",
      "k ing",
      "se e",
      "comm end",
      ") .",
      "s pe",
      "th ink",
      "re commend",
      "- -",
      "p en",
      "w r",
      "fo re",
      "tw o",
      "b ought",
      "m in",
      "wh ile",
      "us h",
      "s on",
      "m ar",
      "at ch",
      "at ed",
      "p res",
      "t ri",
      "thr ough",
      "su re",
      "ad d",
      "ch e",
      "m ade",
      "t urn",
      "fe ren",
      "qu ality",
      "l f",
      "fin d",
      "p a",
      "re e",
      "s to",
      "an ce",
      "s ay",
      "ke ep",
      "tr y",
      "re view",
      "o l",
      "s ong",
      "m on",
      "b it",
      "s of",
      "th ough",
      "am az",
      "u ally",
      "i ous",
      "an s",
      "c lo",
      "did n",
      "c re",
      "se em",
      "ve l",
      "way s",
      "pur ch",
      "h ard",
      "as ed",
      "it ion",
      "n ing",
      "s ho",
      "s im",
      "whe re",
      "c or",
      "w on",
      "aga in",
      "p art",
      "ne ver",
      "ex ce",
      "s ound",
      "pro ble",
      "c ut",
      "o se",
      "st ory",
      "dif feren",
      "sm all",
      "st u",
      "r un",
      "l ast",
      "s s",
      "tim es",
      "be fore",
      "se lf",
      "fe el",
      "com p",
      "m ay",
      "c ar",
      "ha pp",
      "s in",
      "col or",
      "a k",
      "f f",
      "an g",
      "w in",
      "ver sion",
      "av or",
      "fe w",
      "pe ct",
      "c r",
      "he ad",
      "a w",
      "sh ould",
      "is e",
      "co me",
      "s k",
      "he l",
      "st and",
      "a in",
      "for m",
      "st art",
      "an other",
      "ic al",
      "u ll",
      "ph one",
      "al ways",
      "w er",
      "sin ce",
      "con t",
      "iz e",
      "e ach",
      "e ver",
      "jo y",
      "m us",
      "o wn",
      "go ing",
      "f ound",
      "cl ass",
      "ta ke",
      "does n",
      "t u",
      "at ing",
      "ig n",
      "with out",
      "f il",
      "i ld",
      "pre t",
      "ta in",
      "s ing",
      "g l",
      "pe o",
      "v ide",
      "b ig",
      "peo ple",
      "en ough",
      "w s",
      "c er",
      "o m",
      "g er",
      "en ce",
      "g am",
      "sa me",
      "qu ick",
      "c ess",
      "f i",
      "ar ound",
      "s y",
      "r u",
      "f a",
      "1 0",
      "sc re",
      "ar y",
      "dry er",
      "char act",
      "ca me",
      "ic s",
      "en joy",
      "d y",
      "pret ty",
      "l ine",
      "th ose",
      "b and",
      "ab ly",
      "po int",
      "t en",
      "inst all",
      "c es",
      "t al",
      "c ard",
      "re al",
      "ma kes",
      "c ent",
      "mus ic",
      "he re",
      "differen t",
      "for t",
      "to p",
      "ye ar",
      "re st",
      "li fe",
      "s how",
      "be ing",
      "at ter",
      "i ble",
      "vide o",
      "ho we",
      "in ter",
      "cl u",
      "howe ver",
      "b ro",
      "g g",
      "bo th",
      "some thing",
      "f ar",
      "su r",
      "g i",
      "con d",
      "gr am",
      "un der",
      "ex pect",
      "thing s",
      "h im",
      "t on",
      "tr a",
      "f it",
      "ou se",
      "in te",
      "mo vie",
      "m ic",
      "i al",
      "hel p",
      "p i",
      "m is",
      "p ar",
      "v is",
      ") ,",
      "gam es",
      "n a",
      "me m",
      "wor th",
      "c ur",
      "po wer",
      "f avor",
      "to m",
      "ap p",
      "amaz on",
      "m as",
      "ast ic",
      "l ar",
      "fe at",
      "s ize",
      "le t",
      "g ive",
      "u al",
      "bo x",
      "in clu",
      "f act",
      "pro gram",
      "exce ll",
      "l s",
      "ul ar",
      "as h",
      "co ver",
      "h ouse",
      "b ad",
      "e ar",
      "on ce",
      "pt ion",
      "act ually",
      "as on",
      "= \"",
      "ho ld",
      "k ind",
      "ation s",
      "excell ent",
      "s ed",
      "lo o",
      "f am",
      "an ge",
      "at t",
      "f r",
      "oun t",
      "dri ll",
      "i p",
      "p ack",
      "proble m",
      "l ink",
      "m ed",
      "x t",
      "f ri",
      "br ush",
      "k id",
      "f t",
      "w ar",
      "l int",
      "o w",
      "p ort",
      "mon th",
      "c al",
      "2 00",
      "v o",
      "win do",
      "en s",
      "re f",
      "d v",
      "pl ace",
      "look ing",
      "ho me",
      "w atch",
      "de fin",
      "pro b",
      "l ist",
      "su ch",
      "p ic",
      "one y",
      "so l",
      "boo ks",
      "com es",
      "on es",
      "ing s",
      "p ie",
      "f ace",
      "2 0",
      "prob ably",
      "g if",
      "is su",
      "e f",
      "k ed",
      "i o",
      "ma g",
      "g en",
      "jo b",
      "s ha",
      "st em",
      "th ought",
      "sof tw",
      "softw are",
      "fin e",
      "m ight",
      "happ y",
      "c ase",
      "m oney",
      "co ok",
      "st e",
      "sy stem",
      "seem s",
      "v al",
      "fri end",
      "o pen",
      "st ar",
      "m ust",
      "b re",
      "l a",
      "j e",
      "favor ite",
      "su per",
      "dv d",
      "qu ite",
      "won der",
      "wh y",
      "m al",
      "t re",
      "le ct",
      "ch ild",
      "ar n",
      "per son",
      "com ple",
      "it ch",
      "v ice",
      "al bu",
      "ction s",
      "c all",
      "get ting",
      "w ater",
      "f ree",
      "gh ter",
      "or ig",
      "ul t",
      "1 9",
      "w a",
      "stu ff",
      "ha ving",
      "pl ac",
      "orig in",
      "m i",
      "ate ly",
      "or s",
      "do g",
      "work ed",
      "n er",
      "com put",
      "con ne",
      "f ast",
      "h our",
      "need ed",
      "gif t",
      "d ur",
      "i a",
      "che ap",
      "tri ed",
      "n or",
      "wor ld",
      "ke t",
      "con s",
      ".. ..",
      "ap h",
      "read ing",
      "se ver",
      "sa w",
      "ment s",
      "se cond",
      "windo ws",
      "a way",
      "or der",
      "sk in",
      "charact ers",
      "a ir",
      "sever al",
      "every thing",
      "b s",
      "y s",
      "u res",
      "lo ved",
      "l t",
      "defin ite",
      "c ou",
      "bo t",
      "we e",
      "it ing",
      "he av",
      "su pp",
      "ent s",
      "purch ased",
      "sa id",
      "mo ve",
      "sof t",
      "re ason",
      "al most",
      "i er",
      "day s",
      "c ap",
      "ne t",
      "c y",
      "pl an",
      "ut e",
      "h al",
      "inte rest",
      "mic ro",
      "li ve",
      "f ic",
      "de c",
      "lo ves",
      "read y",
      "definite ly",
      "lo ad",
      "a ut",
      "y es",
      "gr aph",
      "ro w",
      "is n",
      "ro ds",
      "f ull",
      "fam ily",
      "c ed",
      "ex per",
      "n um",
      "at ive",
      "ta ch",
      "eas ily",
      "purch ase",
      "we en",
      "to ge",
      "high ly",
      "h oo",
      "toge ther",
      "at es",
      "mo de",
      "c ri",
      "te ll",
      "re g",
      "albu m",
      "d ing",
      "d one",
      "ion s",
      "o p",
      "w ard",
      "v ol",
      "ti l",
      "be aut",
      "are n",
      "at tach",
      "kid s",
      "want ed",
      "s pr",
      "ye t",
      "ma in",
      "v ac",
      "il ity",
      "s ive",
      "b as",
      "lar ge",
      "i re",
      "st ars",
      "su b",
      "com fort",
      "any thing",
      "ful ly",
      "f an",
      "ser ies",
      "we ar",
      "ci ally",
      "b atter",
      "origin al",
      "o b",
      "pp ing",
      "comput er",
      "des ign",
      "un til",
      "m p",
      "ag es",
      "ic ally",
      "th ree",
      "fil m",
      "ro d",
      "re ce",
      "ha ir",
      "sh ort",
      "en g",
      "d r",
      "product s",
      "b ed",
      "di re",
      "bo ard",
      "es pe",
      "d ra",
      "be g",
      "c are",
      "bet ween",
      "ma king",
      "cou ple",
      "loo ks",
      "in side",
      "lo ck",
      "ch r",
      "espe cially",
      "v id",
      "am er",
      "ro ll",
      "song s",
      "com pl",
      "cle ar",
      "qu e",
      "pp ed",
      "c our",
      "le vel",
      "c us",
      "sim ple",
      "t as",
      "w ise",
      "p ull",
      "li e",
      "play ing",
      "ne xt",
      "et c",
      "work ing",
      "review s",
      "conne ct",
      "ge ts",
      "le ast",
      "m er",
      "i ence",
      "class ic",
      "l ed",
      "c ks",
      "w ish",
      "n ight",
      "p ri",
      "v ious",
      "no thing",
      "f oo",
      "ci al",
      "o me",
      "over all",
      "w ent",
      "ga z",
      "str ong",
      "s low",
      "re qu",
      "ll ow",
      "if ul",
      "d ed",
      "g y",
      "proble ms",
      "ch o",
      "con cer",
      "a th",
      "ta kes",
      "v i",
      "p ush",
      "br and",
      "pl astic",
      "s w",
      "ma gaz",
      "up d",
      "re le",
      "i ther",
      "heav y",
      "n ess",
      "al low",
      "comple te",
      "amaz ing",
      "beaut iful",
      "ex act",
      "mo t",
      "f ant",
      "at s",
      "ut es",
      "expect ed",
      "je ct",
      "sto re",
      "c oun",
      "es ome",
      "ex tra",
      "m ind",
      "h u",
      "bl ack",
      "des cri",
      "w al",
      "k en",
      "f ig",
      "re l",
      "ta pe",
      "any one",
      "a go",
      "other s",
      "min utes",
      "ap pe",
      "wonder ful",
      "de al",
      "aw esome",
      "to ok",
      "s me",
      "clean ing",
      "ar ch",
      "de red",
      "end ing",
      "tr u",
      "p ay",
      "po s",
      "v ar",
      "p ick",
      "scre en",
      "m ac",
      "hal f",
      "p u",
      "sh i",
      "st y",
      "c d",
      "play ed",
      "month s",
      "al ready",
      "c li",
      "v ir",
      "au ghter",
      "hour s",
      "ch oo",
      "t ed",
      "po t",
      "in es",
      "am p",
      "gu it",
      "ex pen",
      "comfort able",
      "ap point",
      "el se",
      "i ent",
      "bo dy",
      "st ick",
      "f le",
      "f er",
      "th or",
      "ro ck",
      "en se",
      "ter s",
      "co st",
      "may be",
      "po ss",
      "d aughter",
      "ro om",
      "wor d",
      "al though",
      "inst e",
      "feat ures",
      "quick ly",
      "per for",
      "p an",
      "dur ing",
      "b ar",
      "ver s",
      "pie ce",
      "inste ad",
      "le arn",
      "m ing",
      "out side",
      "turn ed",
      "un it",
      "ite m",
      "be lie",
      "id ent",
      "li d",
      "act ion",
      "w ood",
      "sme ll",
      "at a",
      "b low",
      "l u",
      "go es",
      "bl ue",
      "e ither",
      "re plac",
      "we ight",
      "try ing",
      "or ies",
      "pa ir",
      "expen sive",
      "p ho",
      "in s",
      "gen er",
      "who le",
      "off ice",
      "ac ks",
      "p ly",
      "!! !",
      "long er",
      "5 0",
      "was n",
      "magaz ine",
      "ic ed",
      "batter y",
      "supp ort",
      "tr ue",
      "ab sol",
      "c able",
      "le ft",
      "b ag",
      "it ive",
      "sm oo",
      "are d",
      "or dered",
      "p ass",
      "id er",
      "buy ing",
      "ke y",
      "iz ed",
      "st ay",
      "was h",
      "p ast",
      "ta il",
      "do ing",
      "ty pe",
      "cont in",
      "charact er",
      "he ar",
      "list en",
      "clo se",
      "absol ute",
      "i b",
      "on s",
      "ar p",
      "l it",
      "perfect ly",
      "too l",
      "n y",
      "rece i",
      "c as",
      "com ing",
      "\" ,",
      "b all",
      "d ata",
      "p es",
      "k it",
      "exact ly",
      "\" .",
      "dis appoint",
      "some one",
      "spe ed",
      "t able",
      "ar k",
      "le a",
      "set ting",
      "you n",
      "1 2",
      "w all",
      "* *",
      "co ol",
      "num ber",
      "ar ri",
      "v an",
      "a il",
      "is ed",
      "pro te",
      "str u",
      "guit ar",
      "pi pe",
      "pho to",
      "ne ar",
      "al ong",
      "cont ro",
      "lo ts",
      "di o",
      "it ed",
      "ti ght",
      "card s",
      "ap er",
      "fin ally",
      "fa ir",
      "f our",
      "t ure",
      "up gr",
      "ch ange",
      "m ess",
      "chr ist",
      "aga inst",
      "start ed",
      "run ning",
      "f lo",
      "perfor man",
      "mem ber",
      "f all",
      "p y",
      "end s",
      "end ed",
      "than k",
      "nor mal",
      "graph ics",
      "ho pe",
      "issu e",
      "eas ier",
      "dif fic",
      "gr and",
      "p ed",
      "le ction",
      "ef fect",
      "cer tain",
      "ra ther",
      "se en",
      "ab ility",
      "re cor",
      "ch ang",
      "smoo th",
      "al s",
      "is ts",
      "pl us",
      "p c",
      "se arch",
      "scre w",
      "cour se",
      "wee k",
      "i mag",
      "foo t",
      "child ren",
      "h it",
      "mi x",
      "se ll",
      "us es",
      "c ra",
      "pl ic",
      "beg in",
      "sur pr",
      "z z",
      "g ar",
      ". \"",
      "r out",
      "j u",
      "m ater",
      "h or",
      "sw itch",
      "fo llow",
      "interest ing",
      "sc en",
      "ho t",
      "ma ch",
      "sim ply",
      "issu es",
      "b ing",
      "of ten",
      "fl avor",
      "tu res",
      "3 0",
      "n at",
      "sho es",
      "ic es",
      "exper ience",
      "gr ound",
      "hoo k",
      "li ked",
      "w are",
      "pres sure",
      "ou ch",
      "e lect",
      "sa ve",
      "not e",
      "th in",
      "b ul",
      "du e",
      "head set",
      "p or",
      "inst ru",
      "ha ven",
      "av ail",
      "absolute ly",
      "play er",
      "h um",
      "d a",
      "d re",
      "d ro",
      "id ed",
      "am ount",
      "b or",
      "ro ss",
      "po p",
      "s li",
      "t v",
      "every one",
      "add ition",
      "t le",
      "s al",
      "part ic",
      "spe cial",
      "n i",
      "o ption",
      "could n",
      "che ck",
      "p aper",
      "christ mas",
      "l ater",
      "sho p",
      "hand s",
      "itt en",
      "pro cess",
      "im port",
      "te ch",
      "ir d",
      "val ue",
      "recommend ed",
      "need s",
      "an k",
      "1 5",
      "g s",
      "fin ish",
      "bre ak",
      "gl ad",
      "pl u",
      "some times",
      "o c",
      "ist ance",
      "ga ve",
      "re member",
      "ho se",
      "j or",
      "so lid",
      "ion al",
      "w o",
      "i an",
      "s ou",
      "avail able",
      "su p",
      "mater ial",
      "elect r",
      "s at",
      "under stand",
      "it self",
      "hu ge",
      "wr itten",
      "c ast",
      "bu ild",
      "tr ans",
      "wr ong",
      "friend s",
      "concer t",
      "recei ved",
      "tr ack",
      "im pro",
      "my self",
      "pre vious",
      "f ood",
      "vo ice",
      "re cent",
      "m ul",
      "s l",
      "pr of",
      "color s",
      "m en",
      "s un",
      "cons ider",
      "ver t",
      "8 0",
      "belie ve",
      "h ist",
      "f ill",
      "happ en",
      "amer ic",
      "enjoy ed",
      "un ch",
      "if ic",
      "ad just",
      "upd ate",
      "med i",
      "in form",
      "th ick",
      "be at",
      "in ts",
      "re turn",
      "s n",
      "m ine",
      "partic ular",
      "l and",
      "like ly",
      "cut e",
      "cus tom",
      "c um",
      "r id",
      "bl ade",
      "spr ay",
      "c red",
      "res h",
      "ad es",
      "re su",
      "il t",
      "b right",
      "g ir",
      "6 4",
      "t ouch",
      "st er",
      "on t",
      "in ess",
      "pres ent",
      "arri ved",
      "at or",
      "gi ven",
      "u red",
      "n b",
      "sty le",
      "would n",
      "but ton",
      "l ic",
      "de tail",
      "sh ip",
      "f its",
      ". )",
      "feat ure",
      "il ar",
      "fant astic",
      "s ign",
      "tas te",
      "performan ce",
      "old er",
      "1 00",
      "ide a",
      "ent er",
      "s es",
      "fle x",
      "micro soft",
      "clo ck",
      "ent ire",
      "po sed",
      "wh ite",
      "us er",
      "fe et",
      "sa fe",
      "youn g",
      "d ark",
      "bot tom",
      "no vel",
      "mul ti",
      "o per",
      "poss ible",
      "diffic ult",
      "ma il",
      "dri ve",
      "pic tures",
      "dec ided",
      "t it",
      "it ies",
      "ser vice",
      "pro vid",
      "us ually",
      "z e",
      "ou ble",
      "b on",
      "wor ds",
      "add ed",
      "un i",
      "g ed",
      "attach ed",
      "na me",
      "wi fe",
      "f ive",
      "o s",
      "stand ard",
      "t est",
      "pie ces",
      "sound s",
      "col lection",
      "fort un",
      "me tal",
      "ren t",
      "bro ke",
      "y ing",
      "in y",
      "se ction",
      "h us",
      "bu ilt",
      "hand le",
      "dire ct",
      "le av",
      "l ing",
      "ant ly",
      "me an",
      "than ks",
      "em ent",
      "ap plic",
      "-- --",
      "install ed",
      "compl ain",
      "ust r",
      "s we",
      "su m",
      "your self",
      "to day",
      "sp ace",
      "ke pt",
      "b us",
      "s or",
      "ex t",
      "small er",
      "pro ject",
      "nb sp",
      "hus band",
      "ad s",
      "can not",
      "fi re",
      "p age",
      "down load",
      "de p",
      "m id",
      "te m",
      "de vice",
      "reg ular",
      "too th",
      "con tain",
      "gi ves",
      "i v",
      "au thor",
      "vis ta",
      "p ages",
      "sing le",
      "it es",
      "fe lt",
      "ex tre",
      "f ra",
      "e vent",
      "d ust",
      "id es",
      "comp any",
      "are a",
      "inclu ded",
      "im pres",
      "\" >",
      "r v",
      "re mo",
      "disappoint ed",
      "s co",
      "feel s",
      "k ill",
      "st ra",
      "b al",
      "6 0",
      "v il",
      "x p",
      "b ased",
      "he art",
      "k y",
      "i red",
      "gu ess",
      "fr ont",
      "um p",
      "m il",
      "extre me",
      "contro l",
      "s light",
      "tr act",
      "s il",
      "in ch",
      "wr iting",
      "clock wise",
      "l an",
      "d en",
      "ru b",
      "to y",
      "st ur",
      "n ed",
      "m b",
      "sc ent",
      "c u",
      "s ense",
      "ta x",
      "res istance",
      "it al",
      "st ep",
      "pe t",
      "upgr ade",
      "cond ition",
      "h y",
      "g ing",
      "pic ture",
      "i li",
      "c ab",
      "s i",
      "he ard",
      "ut ion",
      "tr ain",
      "st re",
      "n on",
      "ac cess",
      "c atch",
      "differen ce",
      "fortun ately",
      "mach ine",
      "ap art",
      "inform ation",
      "complete ly",
      "on line",
      "qu est",
      "as ter",
      "no ok",
      "mot or",
      "fi x",
      "!! !!",
      "ag ed",
      "il s",
      "mar k",
      "shi pping",
      "cl ut",
      "choo l",
      "ex p",
      "fun ction",
      "= =",
      "li m",
      "pa int",
      "an ti",
      "c m",
      "su gg",
      "m ap",
      "le g",
      "k new",
      "con f",
      "lea ve",
      "< /",
      "com b",
      "tra vel",
      "dre am",
      "ve lo",
      "with in",
      "l ish",
      "res s",
      "h ind",
      "ex am",
      "c ount",
      "char ge",
      "d p",
      "say s",
      "ad vert",
      "s le",
      "ic t",
      "u me",
      "ter ri",
      "p per",
      "l ts",
      "re move",
      "pl ain",
      "b ir",
      "ser ious",
      "link ed",
      "stur dy",
      "un less",
      "recent ly",
      "au dio",
      "ri ll",
      ", \"",
      "b ers",
      "o t",
      "st ories",
      "ter n",
      "f 8",
      "ment ion",
      "par ts",
      "d am",
      "de li",
      "m atter",
      "re li",
      "b ase",
      "l er",
      "l in",
      "lo st",
      "f resh",
      "ie ty",
      "ar r",
      "ut f8",
      "l eng",
      "h on",
      "t ast",
      "so on",
      "sc ri",
      "leng th",
      "descri bed",
      "a king",
      "t xt",
      "co py",
      "clut ch",
      "cm _",
      "sugg est",
      "d _",
      "z er",
      "ch all",
      "cr _",
      "extreme ly",
      "cm_ cr_",
      "g ard",
      "gr ou",
      "exce pt",
      "sto p",
      "vac u",
      "i or",
      "re ci",
      "lo c",
      "sim ilar",
      "2 4",
      "ta ge",
      "ex c",
      "h ref",
      "ou d",
      "n am",
      "_ txt",
      "o d",
      "s and",
      "_ d_",
      "w _txt",
      "=\" /",
      "arp _d_",
      "rv w_txt",
      "cm_cr_ arp_d_",
      "cm_cr_arp_d_ rvw_txt",
      "for ce",
      "ch an",
      "f ans",
      "1 1",
      "c ket",
      "nat ur",
      "hand y",
      "instru ctions",
      "r or",
      "r ound",
      "s chool",
      "pack age",
      "vacu um",
      "re ct",
      "inclu ding",
      "read er",
      "m or",
      "show s",
      "mode l",
      "bo y",
      "sc r",
      "s it",
      "ed ition",
      "be come",
      "itt ing",
      "p lot",
      "ta king",
      "e ye",
      "he al",
      "po se",
      "sup posed",
      "con ven",
      "do cum",
      "po or",
      "ph ones",
      "b urn",
      "i en",
      "d ig",
      "wr ite",
      "look ed",
      "re place",
      "wa it",
      "g es",
      "b en",
      "app ly",
      "kind le",
      "op in",
      "spe ak",
      "is m",
      "hel ps",
      "be hind",
      "video s",
      "e qu",
      "o ve",
      "ple ased",
      "do or",
      "fair ly",
      "sat is",
      "tru ly",
      "prof ess",
      "g n",
      "cook er",
      "replac ement",
      "seem ed",
      "as y",
      "import ant",
      "program s",
      "ite ms",
      "d an",
      "on d",
      "ed ge",
      "lo se",
      "gre en",
      "too ls",
      "in v",
      "bus iness",
      "2 5",
      "m ount",
      "fe e",
      "prote ct",
      "f ly",
      "h un",
      "hist ory",
      "an ts",
      "car ry",
      "flex ible",
      "ra in",
      "us b",
      "bot tle",
      "fil es",
      "de velo",
      "pre fer",
      "gg ed",
      "un fortunately",
      "pr int",
      "inter net",
      "s ent",
      "fin al",
      "band s",
      "version s",
      "f ight",
      "o h",
      "lar ger",
      "ma jor",
      "se ts",
      "man ual",
      "o il",
      "pro per",
      "rele ase",
      "s po",
      "pu bl",
      "ad ap",
      "use ful",
      "ad vent",
      "ent y",
      "me ans",
      "wee ks",
      "swe et",
      "re ach",
      "r ich",
      "per form",
      "ie ld",
      "person al",
      "ort on",
      "ad o",
      "as ing",
      "l ay",
      "s am",
      "cur rent",
      "g ri",
      "4 0",
      "inclu de",
      "d ir",
      "art ic",
      "call ed",
      "le ad",
      "pre ci",
      "cor rect",
      "1 6",
      "de cent",
      "mas ter",
      "bas ic",
      "ok ay",
      "think ing",
      "ta ct",
      "res p",
      "for ward",
      "te a",
      "lo cal",
      "ne cess",
      "tri p",
      "dra w",
      "g un",
      "ch u",
      "contin ue",
      "c ing",
      "om en",
      "dog s",
      "americ an",
      "ten sion",
      "l as",
      "at ic",
      "l ap",
      "is on",
      "lo g",
      "mo v",
      "ear ly",
      "enter tain",
      "me t",
      "keep s",
      "fe ed",
      "e yes",
      "an no",
      "mo ther",
      "leav es",
      "g one",
      "e le",
      "ce pt",
      "gu ide",
      "fl at",
      "spe c",
      "st ri",
      "f li",
      "is ter",
      "gi ving",
      "ve red",
      "opin ion",
      "gu y",
      "c at",
      "light s",
      "c amer",
      "mov ies",
      "f low",
      "g an",
      "su c",
      "b att",
      "cre am",
      "sho e",
      "r ing",
      "ent ly",
      "feel ing",
      "ar ning",
      "play ers",
      "f ing",
      "po w",
      "pr act",
      "exam ple",
      "keep ing",
      "ent ial",
      "r an",
      "le arning",
      "ce ll",
      "n orton",
      "in ser",
      "f ut",
      "tu be",
      "b 00",
      "u es",
      "comp ared",
      "not ice",
      "in ed",
      "ap pro",
      "ic ks",
      "co vered",
      "stra ight",
      "in cred",
      "b ab",
      "sp an",
      "ab ove",
      "th read",
      "ver se",
      "watch ing",
      "19 9",
      "mem ory",
      "open ing",
      "se cur",
      "other wise",
      "dis c",
      "b i",
      "e at",
      "an e",
      "any way",
      "ap preci",
      "pro du",
      "vir us",
      "s us",
      "se par",
      "a im",
      "blue tooth",
      "se l",
      "mar ket",
      "de ad",
      "ist ic",
      "cut s",
      "pr iced",
      "wi re",
      "g on",
      "stru ction",
      "slight ly",
      "s ens",
      "rele ased",
      "certain ly",
      "p ing",
      "tight en",
      "plu g",
      "th row",
      "vol ume",
      "do ll",
      "sp ir",
      "grou p",
      "fl u",
      "f ile",
      "p li",
      "ta ken",
      "cre ate",
      "secur ity",
      "m atch",
      "p as",
      "fa il",
      "b lock",
      "t t",
      "g row",
      "that s",
      "cho ice",
      "impro ve",
      "r um",
      "m r",
      "heal th",
      "ad van",
      "se ason",
      "fi ed",
      "po st",
      "flo or",
      "ha ps",
      "te ach",
      "ple as",
      "cor d",
      "t ap",
      "mo ving",
      "a h",
      "b end",
      "ro ad",
      "st or",
      "install ation",
      "not iced",
      "bu d",
      "mal e",
      "per haps",
      "level s",
      "t or",
      "cheap er",
      "near ly",
      "to ld",
      "int ro",
      "appe ar",
      "ent ion",
      "re main",
      "br ing",
      "allow s",
      "be ll",
      "ob vious",
      "end er",
      "var iety",
      "ro y",
      "fig ure",
      "m it",
      "lo ose",
      "resu lts",
      "var ious",
      "hon est",
      "conven ient",
      "can t",
      "d le",
      "bas ically",
      "so ld",
      "dur able",
      "for d",
      "tr ouble",
      "man u",
      "au to",
      "lu ck",
      "sp end",
      "wo man",
      "fut ure",
      "st ate",
      "de ep",
      "wear ing",
      "b t",
      "h ang",
      "th ird",
      "lo gy",
      "f ac",
      "to t",
      "d est",
      "ho le",
      "im medi",
      "turn s",
      "; <",
      "advert ised",
      "gir l",
      "g ro",
      "con st",
      "tw ist",
      "r ange",
      "power ful",
      "lan gu",
      "camer a",
      "c ro",
      "ag ing",
      "f re",
      "fo ld",
      "d ie",
      "se x",
      "app li",
      "u ce",
      "natur al",
      "pl enty",
      "ho les",
      "p ink",
      "fl aw",
      "sto ck",
      "to wn",
      "begin ning",
      "tot ally",
      "mp oo",
      "r ic",
      "v in",
      "s qu",
      "sha mpoo",
      "back up",
      "we b",
      "help ful",
      "a x",
      "l ines",
      "r ad",
      "nice ly",
      "tr ad",
      "ren ch",
      "own ed",
      "act iv",
      "in ation",
      "t ic",
      "po lish",
      "tu bing",
      "al one",
      "pull ing",
      "ib ly",
      "scen es",
      "wh ate",
      "fig ured",
      "dire ctions",
      "whate ver",
      "w omen",
      "hold s",
      "ac cur",
      "n ut",
      "us ers",
      "comm on",
      "profess ional",
      "ac ross",
      "fun ny",
      "know n",
      "d ist",
      "j ack",
      "the s",
      "an im",
      "re pe",
      "sub scri",
      "wi de",
      "advent ure",
      "j am",
      "s can",
      "bl ades",
      "vo cal",
      "multi ple",
      "d in",
      "m at",
      "s ort",
      "cr ash",
      "po ints",
      "s que",
      "mo ist",
      "1 8",
      "l ad",
      "so ap",
      "sh arp",
      "sp ent",
      "n one",
      "off er",
      "manu fact",
      "us s",
      "as se",
      "h ar",
      "s ad",
      "7 0",
      "is ing",
      "l ack",
      "r ating",
      "b ath",
      "a ver",
      "rout er",
      "uni que",
      "b an",
      "imag es",
      "in it",
      "di al",
      "cut ting",
      "span ish",
      "r ul",
      "bab y",
      ": )",
      "u ri",
      "ro t",
      "he at",
      "play s",
      "cons ist",
      "da ily",
      "le y",
      "connect ed",
      "or gan",
      "as k",
      "le ts",
      "gre e",
      "no ise",
      "un k",
      "in cre",
      "to tal",
      "c ir",
      "design ed",
      "re search",
      "spe ct",
      "b ur",
      "t ion",
      "t ur",
      "bro ther",
      "st ain",
      "fant asy",
      "se qu",
      "1 4",
      "suc cess",
      "an a",
      "her o",
      "se c",
      "mo der",
      "de v",
      "pa in",
      "z y",
      "col lect",
      "pos ition",
      "safe ty",
      "b es",
      "in a",
      "langu age",
      "b lo",
      "con ds",
      "min i",
      "s en",
      "9 0",
      "ming way",
      "de lic",
      "se conds",
      "anno ying",
      "re co",
      "push ed",
      "char ger",
      "bro ken",
      ".. ...",
      "oc cas",
      "st ation",
      "go ld",
      "inter face",
      "att ention",
      "d ou",
      "hum an",
      "custom er",
      "li kes",
      "sp in",
      "el f",
      "1 3",
      "gu e",
      "b ill",
      "w ind",
      "c amp",
      "form at",
      "ex tension",
      "cy cle",
      "immedi ately",
      "f ur",
      "rub ber",
      "bu cks",
      "f aster",
      "was te",
      "lap top",
      "gl ue",
      "f ab",
      "choo se",
      "p aren",
      "con tact",
      "tit le",
      "sum mer",
      "g as",
      "app ed",
      "e mail",
      "i i",
      "m oun",
      "s ch",
      "some what",
      "chang ed",
      "necess ary",
      "chu ck",
      "h n",
      "t un",
      "de ath",
      "av o",
      "i gh",
      "we ak",
      "batt le",
      "se cre",
      "inser t",
      "e vil",
      "sto res",
      "h es",
      "ste el",
      "c up",
      "l am",
      "sho t",
      "scre ws",
      "ar ing",
      "clear ly",
      "descri ption",
      "per io",
      "ation al",
      "cli p",
      "r ay",
      "he ld",
      "game play",
      "most ly",
      "stand ing",
      "quick en",
      "cook ing",
      "stu d",
      "exp lo",
      "for get",
      "j our",
      "ple ase",
      "g b",
      "put ting",
      "st age",
      "ang er",
      "w ow",
      "he mingway",
      "big ger",
      "cl aim",
      "surpr ised",
      "des p",
      "feren ce",
      "p al",
      "me chan",
      "applic ation",
      "ne g",
      "option s",
      "fra gr",
      "g oo",
      "lit er",
      "k er",
      "p at",
      "mar io",
      "high er",
      "sell er",
      "thor ough",
      "si x",
      "ex plain",
      "tw ice",
      "whe el",
      "see ing",
      "li ving",
      "pres s",
      "cl ick",
      "recor d",
      "impres sed",
      "through out",
      "cover s",
      "on to",
      "part y",
      "fil ter",
      "docum ent",
      "fr ustr",
      "fam ili",
      "ke ts",
      "whe ther",
      "tr acks",
      "l at",
      "ar m",
      "back ground",
      "sion s",
      "inv est",
      "pow der",
      "ol a",
      "vis ion",
      "are ly",
      "prote ction",
      "m es",
      "w ants",
      "be l",
      "artic les",
      "po cket",
      "min im",
      "sel ves",
      "is k",
      "lit ter",
      "jo hn",
      "chall eng",
      "comm un",
      "pa id",
      "go d",
      "b ri",
      "cab les",
      "show er",
      "not es",
      "any more",
      "an ces",
      "li er",
      "smell s",
      "b ass",
      "ic a",
      "got ten",
      "deli very",
      "ha m",
      "my ster",
      "id ge",
      "a int",
      "cont roll",
      "r ate",
      "clo thes",
      "tre at",
      "un like",
      "desp ite",
      "l au",
      "li br",
      "we bs",
      "was her",
      "str ate",
      "mis sing",
      "coun ter",
      "k no",
      "mas k",
      "exper ien",
      "en er",
      "batter ies",
      "blow er",
      "? ?",
      "y ard",
      "ch ance",
      "cra ft",
      "f ield",
      "us ual",
      "mid dle",
      "p up",
      "tas k",
      "reco gn",
      "n ie",
      "star ts",
      "clean ed",
      "fa ther",
      "gener al",
      "tal k",
      "ti es",
      "reci pes",
      "ch es",
      "pos itive",
      "lo d",
      "inclu des",
      "wa iting",
      "electr ical",
      "cr it",
      "adap ter",
      "sk y",
      "stu dio",
      "d ate",
      "n al",
      "t iny",
      "fl ash",
      "ch i",
      "bo ther",
      "is es",
      "en gl",
      "ti p",
      "pu zz",
      "s pot",
      "n u",
      "sol ution",
      "effect s",
      "happ ens",
      "es e",
      "great est",
      "make up",
      "ward s",
      "ren d",
      "appreci ate",
      "you ve",
      "gl ass",
      "i ally",
      "k itch",
      "li ves",
      "chang es",
      "sec ure",
      "in vol",
      "pur pose",
      "l ate",
      "des k",
      "t ab",
      "i ed",
      "l oud",
      "t ough",
      "wal k",
      "is s",
      "hoo ked",
      "bag s",
      "l aw",
      "ed it",
      "me as",
      "run s",
      "terri ble",
      "se al",
      "reg ard",
      "effect ive",
      "plac es",
      "lim ited",
      "so lo",
      "co re",
      "ur ing",
      "aver age",
      "mo m",
      "wal t",
      "c ross",
      "m ou",
      "t one",
      "ex ist",
      "windo w",
      "s ized",
      "l inte",
      "r it",
      "n ic",
      "p oo",
      "mor ning",
      "so le",
      "act ual",
      "mag ic",
      "linte ater",
      "l az",
      "eng ine",
      "h ate",
      "s pl",
      "ho l",
      "kitch en",
      "as es",
      "te en",
      "say ing",
      "appe ars",
      "int en",
      "ul ous",
      "sor ry",
      "dream cast",
      "satis fied",
      "are as",
      "d ut",
      "sto pped",
      "complain ts",
      "s ides",
      "m ad",
      "r am",
      "th us",
      "pro vide",
      "em p",
      "trad ition",
      "ul tim",
      "ang le",
      "wr it",
      "publ ic",
      "t ch",
      "h d",
      "photo s",
      "c of",
      "perio d",
      "provid es",
      "st ren",
      "up on",
      "sp ending",
      "t ext",
      "com ment",
      "hor ri",
      "m ill",
      "de f",
      "as su",
      "be y",
      "compl aint",
      "k ni",
      "comp at",
      "ib ility",
      "w ing",
      "y arn",
      "mar y",
      "stor age",
      "s ite",
      "to ys",
      "de walt",
      "te mp",
      "ind i",
      "ex pan",
      "sh oo",
      "watch ed",
      "mou th",
      "a me",
      "ap ple",
      "ff ic",
      "l or",
      "ne ck",
      "int u",
      "gu ys",
      "e mot",
      "them selves",
      "replac ed",
      "moder n",
      "p ump",
      "ne y",
      "exce ption",
      "h ur",
      "l ab",
      "ill ustr",
      "str ings",
      "mis s",
      "aren t",
      "_ _",
      "bul bs",
      "off ers",
      "delic ious",
      "sa uce",
      "secre t",
      "b unch",
      "lau gh",
      "c ry",
      "con struction",
      "enjoy able",
      "particular ly",
      "pop ular",
      "libr ary",
      "stren g",
      "t ex",
      "ro ber",
      "quest ion",
      "i ves",
      "t our",
      "or ge",
      "iz es",
      "cof fee",
      "au di",
      "---- ----",
      "las ts",
      "r ide",
      "tal king",
      "requ ire",
      "manufact ure",
      "stu ck",
      "provid ed",
      "we l",
      "fore ver",
      "hard ware",
      "b a",
      "coun try",
      "scen e",
      "ill a",
      "ear lier",
      "scr atch",
      "fragr ance",
      "ph ys",
      "ri ed",
      "brand s",
      "consider ing",
      "proper ly",
      "s our",
      "+ +",
      "hold ing",
      "dro p",
      "h ood",
      "us ion",
      "son y",
      "oper ating",
      "p ad",
      "te red",
      "dri ving",
      "him self",
      "bir th",
      "pri me",
      "know s",
      "button s",
      "motor ola",
      "dam age",
      "laz y",
      "event ually",
      "serious ly",
      "indi vid",
      "d ouble",
      "re mind",
      "happen ed",
      "medi um",
      "d ers",
      "f requ",
      "act ing",
      "product ion",
      "low er",
      "last ed",
      "separ ate",
      "sur face",
      "listen ing",
      "comple x",
      "lo ss",
      "gre ss",
      "sit u",
      "dut y",
      "t end",
      "setting s",
      "bor ing",
      "hand les",
      "== ==",
      "! )",
      "a ks",
      "find ing",
      "gard en",
      "ic ated",
      "purch asing",
      "applic ations",
      "i ma",
      "tr ay",
      "ro o",
      "clean er",
      "min or",
      "p atch",
      "se ctions",
      "i res",
      "na il",
      "pl es",
      "str ap",
      "sens itive",
      "moist uri",
      "h id",
      "set up",
      "contin u",
      "dig ital",
      "famili ar",
      "k ick",
      "rad io",
      "g est",
      "fe male",
      "mention ed",
      "e ts",
      "cont ent",
      "s end",
      "le af",
      "ck ed",
      "ele ments",
      "c ity",
      "found ation",
      "conne ction",
      "spr ing",
      "learn ed",
      "cra zy",
      "h ill",
      "doll ars",
      "inst rum",
      "addition al",
      "electr ic",
      "cal end",
      "webs ite",
      "ffic ient",
      "ly r",
      "bon us",
      "ef fort",
      "p ical",
      "ac count",
      "war m",
      "pli ers",
      "v s",
      "co ll",
      "ex er",
      "mis sed",
      "sk ill",
      "m m",
      "ing red",
      "pas te",
      "at ure",
      "sy n",
      "fa ult",
      "4 5",
      "manufacture r",
      "v ia",
      "com pe",
      "pack aging",
      "200 7",
      "contro ls",
      "f ash",
      "ide as",
      "favor ites",
      "mess age",
      "s itting",
      "des er",
      "fur ther",
      "il ities",
      "read ers",
      "** **",
      "st one",
      "r p",
      "ch ap",
      "entertain ing",
      "ang les",
      "surpr ise",
      "dev ices",
      "incred ible",
      "7 5",
      "tr ust",
      "te e",
      "co ld",
      "d im",
      "h s",
      "c in",
      "th rill",
      "ho ping",
      "cr ack",
      "streng th",
      "vis it",
      "interest ed",
      "accur ate",
      "e u",
      "wor se",
      "imag ine",
      "eas e",
      "cent er",
      "nor m",
      "n 64",
      "tr an",
      "iz ing",
      "comp ar",
      "requ ired",
      "exer c",
      "add ing",
      "slow er",
      "asse m",
      "rul es",
      "al tern",
      "br ought",
      "as pect",
      "bo w",
      "dr am",
      "be comes",
      "bey ond",
      "be came",
      "love ly",
      "in de",
      "sc al",
      "resu lt",
      "pro s",
      "dry ing",
      "b its",
      "l on",
      "ne l",
      "na ils",
      "we t",
      "pre vent",
      "ball s",
      "n an",
      "min ute",
      "attach ment",
      "any where",
      "care ful",
      "o pp",
      "start ing",
      "albu ms",
      "chr is",
      "fight ing",
      "ma x",
      "ty pes",
      "rel ative",
      "dep th",
      "paren ts",
      "j ump",
      "bor n",
      "f ru",
      "h its",
      "at o",
      "train ing",
      "sha pe",
      "avo id",
      "s ister",
      "sa ving",
      "stu me",
      "app arent",
      "sle ep",
      "boo t",
      "tu ne",
      "comput ers",
      "sun g",
      "co stume",
      "con tr",
      "m ir",
      "br ings",
      "want ing",
      "cover age",
      "twist ed",
      "fash ion",
      "n ers",
      "the me",
      "tech no",
      "play station",
      "or able",
      "200 8",
      "previous ly",
      "ac cept",
      "review ers",
      "mem bers",
      "rel ation",
      "ti ve",
      "ch ick",
      "char ging",
      "stay s",
      "resp on",
      "dou bt",
      "c am",
      "obvious ly",
      "p ure",
      "instru ction",
      "i th",
      "su ite",
      "ty pical",
      "b ra",
      "00 0",
      "real ize",
      "exc ited",
      "comp are",
      "fill ed",
      "bud get",
      "ul ts",
      "light weight",
      "dri es",
      "cre ated",
      "lyr ics",
      "s an",
      "en vir",
      "wor st",
      "um in",
      "man age",
      "bir ds",
      "am ong",
      "au tom",
      "person ally",
      "stru ct",
      "intro du",
      "m art",
      "we ap",
      "r ated",
      "recor ding",
      "n s",
      "ad ult",
      "envir on",
      "r ough",
      "ad ds",
      "be lt",
      "mo b",
      "ans wer",
      "mil k",
      "3 2",
      "neg ative",
      "sm art",
      "subscri ption",
      "he ll",
      "ti red",
      "a a",
      "g ps",
      "ag er",
      "c ident",
      "ima ge",
      "tr ick",
      "win ter",
      "c ats",
      "comp an",
      "const antly",
      "norm ally",
      "1 7",
      "h ic",
      "be ar",
      "mo ment",
      "a gree",
      "ge l",
      "lod ged",
      "new s",
      "cook ies",
      "per s",
      "bo ss",
      "expan sion",
      "n inten",
      "follow ed",
      "ninten do",
      "3 d",
      "pro m",
      "sp y",
      "help ed",
      "dr um",
      "e li",
      "re vol",
      "ro le",
      "wi ld",
      "fr ank",
      "at tract",
      "detail s",
      "tem pt",
      "f y",
      "n av",
      "mar vel",
      "impro ved",
      "grow ing",
      "re pair",
      "ri es",
      "if y",
      "int ended",
      "beg an",
      "requ ires",
      "sign ific",
      "zer o",
      "call s",
      "build ing",
      "goo g",
      "gr ab",
      "c ult",
      "wor ry",
      "bl es",
      "smooth ly",
      "event s",
      "9 9",
      "ro b",
      "for ced",
      "vocal s",
      "lat est",
      "ur y",
      "ga in",
      "gard us",
      "es ts",
      "sou l",
      "g ent",
      "w rench",
      "se lect",
      "ind ust",
      "micro phone",
      "follow ing",
      "p ac",
      "de light",
      "b loo",
      "work out",
      "less ly",
      "r ant",
      "por ts",
      "i ans",
      "ad mit",
      "mo ves",
      "ra z",
      "pot ential",
      "in expensive",
      "finish ed",
      "stre et",
      "develo p",
      "re turned",
      "on ic",
      "bre ath",
      "youn ger",
      "open ed",
      "u ght",
      "st al",
      "m att",
      "th ro",
      "ti ps",
      "sha re",
      "key board",
      "tur bo",
      "al i",
      "up s",
      "act ive",
      "f u",
      "g il",
      "i phone",
      "as ked",
      "ll s",
      "li ft",
      "av id",
      "char ged",
      "str ange",
      "af ford",
      "wr ap",
      "pay ing",
      "individ ual",
      "b ible",
      "z en",
      "en ge",
      "project s",
      "pract ice",
      "and s",
      "vis ual",
      "table t",
      "p ound",
      "sc ar",
      "tell s",
      "wash ing",
      "upgr ad",
      "? \"",
      "ter ms",
      "calend ar",
      "sing ing",
      "fi ghter",
      "num bers",
      "hist or",
      "strate gy",
      "r ac",
      "install ing",
      "gg le",
      "fact or",
      "war ning",
      "tell ing",
      "ob ject",
      "ener gy",
      "engl ish",
      "ant ic",
      "fir m",
      "shi ps",
      "fing er",
      "init ial",
      "ed iting",
      "im possible",
      "ye llow",
      "fo cus",
      "ve hic",
      "s now",
      "ion ally",
      "mo wer",
      "un its",
      "tri m",
      "att ack",
      "g ig",
      "bl u",
      "pick ed",
      "dir ty",
      "fe ar",
      "spec ific",
      "t rend",
      "ed u",
      "ul a",
      "gr ass",
      "dr ink",
      "tal ent",
      "out standing",
      "reason able",
      "spr ink",
      "f as",
      "r up",
      "ble w",
      "over priced",
      "expect ing",
      "birth day",
      "n is",
      "con cept",
      "ish ed",
      "trans fer",
      "loc ation",
      "honest ly",
      "i ents",
      "p atter",
      "ch or",
      "audi ence",
      "u ne",
      "re ference",
      "origin ally",
      "remain s",
      "c ul",
      "or ts",
      "fe red",
      "fo l",
      "net work",
      "d red",
      "n d",
      "de fect",
      "su gar",
      "sp ac",
      "d ance",
      "g id",
      "th re",
      "qu ie",
      "pre p",
      "bro wn",
      "lad y",
      "v able",
      "y d",
      "on ics",
      "contain s",
      "g al",
      "w ed",
      "big gest",
      "horri ble",
      "vi br",
      "ju d",
      "advan tage",
      "system s",
      "beautiful ly",
      "improve ment",
      "> &",
      "k n",
      "for th",
      "ir rit",
      "bu b",
      "hid den",
      "e gg",
      "z a",
      "de ter",
      "cas es",
      "tast es",
      "er y",
      "al mon",
      "meas ure",
      "direct ly",
      "hun dred",
      "sque ak",
      "re ly",
      "am s",
      "new er",
      "upd ates",
      "en cy",
      "ck ing",
      "b arely",
      "er a",
      "pa th",
      "li f",
      "art ist",
      "pleas ant",
      "dest roy",
      "a head",
      "z ard",
      "but ter",
      "rom ance",
      "mon it",
      "a i",
      "b rill",
      "re du",
      "er ing",
      "li ghter",
      "ca pe",
      "order ing",
      "grand son",
      "kni fe",
      "son ic",
      "detail ed",
      "every day",
      "19 7",
      "americ a",
      "minim al",
      "mob ile",
      "g all",
      "g um",
      "dis play",
      "j unk",
      "wal king",
      "res id",
      "sou p",
      "f at",
      "is o",
      "en ces",
      "ro pe",
      "doesn t",
      "ear th",
      "gir ls",
      "rober t",
      "dis k",
      "mix ed",
      "sign al",
      "box es",
      "myster y",
      "ho li",
      "mus ical",
      "a my",
      "en sure",
      "act ions",
      "conf using",
      "n arr",
      "ir on",
      "gg ing",
      "flo yd",
      ". ,",
      "friend ly",
      "live red",
      "puzz les",
      "g ly",
      "l end",
      "ch em",
      "di ed",
      "tech n",
      "de livered",
      "reason s",
      "shi pped",
      "sl ash",
      "res our",
      "has n",
      "chall enge",
      "gri p",
      "brill i",
      "we ird",
      "de ck",
      "bre aking",
      "techno logy",
      "f ro",
      "ar ms",
      "sh ar",
      "ingred ients",
      "od d",
      "sam sung",
      "ll ing",
      "sh ut",
      "lot ion",
      "dri ver",
      "sal t",
      "quest ions",
      "ser v",
      "cal i",
      "y um",
      "res pect",
      "sa ved",
      "comp act",
      "relative ly",
      "se uss",
      "super b",
      "we igh",
      "ess ential",
      "equ ip",
      "ad ults",
      "sh ine",
      "med ia",
      "reli able",
      "incre ase",
      "bl ing",
      "-- -",
      "supp li",
      "fab ric",
      "fe ll",
      "un ge",
      "te le",
      "pull ed",
      "fing ers",
      "2 1",
      "lo l",
      "aw are",
      "gam ing",
      "sub st",
      "pro mis",
      "use less",
      "par k",
      "controll er",
      "d ar",
      "tri es",
      "att ic",
      "j ane",
      "beaut y",
      "surpr ising",
      "a ther",
      "r isk",
      "ultim ate",
      "gr ade",
      "port ion",
      "tri ps",
      "men u",
      "experien ced",
      "d ru",
      "h p",
      "j er",
      "mo ved",
      "what s",
      "leav ing",
      "d f",
      "v hs",
      "st able",
      "tu red",
      "nat ure",
      "st ates",
      "so c",
      "li p",
      "mar ks",
      "reli g",
      "us a",
      "im m",
      "fli ms",
      "d anger",
      "al ot",
      "st icks",
      "pl ate",
      "low est",
      "fil ms",
      "mis sion",
      "gener ally",
      "r ace",
      "pe pper",
      "r al",
      "s wi",
      "t ree",
      "camp ing",
      "chang ing",
      "plu gged",
      "spin ning",
      "hum or",
      "stain less",
      "a ke",
      "e k",
      "r d",
      "me ant",
      "co at",
      "bul b",
      "j es",
      "o z",
      "al umin",
      "she lf",
      "tru ck",
      "re o",
      "load ed",
      "incred ibly",
      "nan cy",
      "c and",
      "en e",
      "out look",
      "pre mi",
      "pack ed",
      "200 9",
      "air s",
      "docum ents",
      "wire less",
      "fo am",
      "health y",
      "squ are",
      "chick en",
      "e per",
      "com pet",
      "cred it",
      "mean ing",
      "writ er",
      "r and",
      "s d",
      "ic y",
      "sub ject",
      "poss ibly",
      "remo ved",
      "con su",
      "mem ories",
      "gun s",
      "t ar",
      "sc ience",
      "s have",
      "s ant",
      "sh iny",
      "col le",
      "real istic",
      "sn ap",
      "bal ance",
      "me et",
      "res ident",
      "sp read",
      "exce l",
      "pri or",
      "diffic ul",
      "equip ment",
      "r on",
      "po lit",
      "inte gr",
      "spir it",
      "m ab",
      "foo tage",
      "su it",
      "instrum ent",
      "flims y",
      "alumin um",
      "pe el",
      "te am",
      "ber g",
      "inch es",
      "tighten ed",
      "ex ter",
      "contain er",
      "sour ce",
      "me al",
      "ve t",
      "ac y",
      "cr is",
      "super ior",
      "dire ction",
      "dra gon",
      "liter ally",
      "sant ana",
      "qu id",
      "war rant",
      "hear ing",
      "van illa",
      "comb ination",
      "at ically",
      "mode ls",
      "speak er",
      "in su",
      "ld a",
      "con ce",
      "der mab",
      "chi ps",
      "c ars",
      "who m",
      "cre ative",
      "performan ces",
      "gr ad",
      "dis covered",
      "mp 3",
      "fra me",
      "dir t",
      "apparent ly",
      "s ne",
      "bo ys",
      "ber ry",
      "pres ident",
      "magaz ines",
      "appe al",
      "current ly",
      "desk top",
      "quie t",
      "m our",
      "re gre",
      "head phones",
      "app ing",
      "exter ior",
      "is ion",
      "wor n",
      "sli de",
      "environ ment",
      "k in",
      "s ar",
      "z ing",
      "un screw",
      "19 8",
      "at tempt",
      "co rel",
      "cli ps",
      "re in",
      "ri p",
      "ep iso",
      "add ress",
      "plan e",
      "c ate",
      "head sets",
      "gen re",
      "p in",
      "ro cks",
      "ad vice",
      "ra id",
      "ind ic",
      "inter view",
      "dial o",
      "s izes",
      "ie l",
      "put s",
      "fix ed",
      "sell ing",
      "map s",
      "! \"",
      "en h",
      "as ide",
      "bl ues",
      "or ange",
      "ed s",
      "man ner",
      "200 0",
      "sal e",
      "rot ary",
      "you tube",
      "bo at",
      "listen ed",
      "dermab lend",
      "be low",
      "ct or",
      "res to",
      "hor ror",
      "pack aged",
      "mag net",
      "j an",
      "we red",
      "ac cident",
      "ma id",
      "im p",
      "appli ed",
      "jour nal",
      "jes us",
      "e con",
      "ke ys",
      "ex tr",
      "sh if",
      "bro w",
      "la wn",
      "la unch",
      "an ced",
      "se ga",
      "co lo",
      "if ied",
      "thin ks",
      "fail ed",
      "repe at",
      "challeng ing",
      "e fficient",
      "p df",
      "s mo",
      "for ms",
      "pro gress",
      "pr in",
      "ous ly",
      "th o",
      "st up",
      "no zz",
      "pro of",
      "wa ve",
      "plac ed",
      "dec ide",
      "grand daughter",
      "stre tch",
      "t in",
      "co de",
      "iz ation",
      "comp li",
      "b ird",
      "en coun",
      "ze lda",
      "stand s",
      "3 5",
      "d avid",
      "n es",
      "br it",
      "20 10",
      "invol ved",
      "tradition al",
      "weap ons",
      "d ict",
      "m ca",
      "y a",
      "gu ard",
      "str ing",
      "spo ts",
      "appli ance",
      "tex ture",
      "sp ice",
      "dis connected",
      "turn ing",
      "tal e",
      "appro ach",
      "e ve",
      "lo y",
      "ab ilities",
      "spe aking",
      "b one",
      "m c",
      "de te",
      "dro pped",
      "t an",
      "se at",
      "me at",
      "fic tion",
      "correct ly",
      "v a",
      "v am",
      "ll o",
      "ref resh",
      "exc iting",
      "tap ing",
      "fac es",
      "warrant y",
      "f ist",
      "f ish",
      "j ap",
      "an al",
      "co p",
      "gif ts",
      "fall ing",
      "fol ks",
      "m ur",
      "u de",
      "en ga",
      "tri but",
      "rid gid",
      "tast y",
      "met all",
      "te ar",
      "wr apped",
      "ste reo",
      "rp g",
      "b by",
      "f ence",
      "in ing",
      "fru it",
      "a ven",
      "st airs",
      "ro te",
      "pass able",
      "bloo d",
      "2 nd",
      "b in",
      "so ph",
      "ser ver",
      "led ge",
      "moun tain",
      "altern ative",
      "m ass",
      "clo sed",
      "vac ation",
      "stup id",
      "jap an",
      "cap ital",
      "wheel s",
      "frustr ating",
      "lu x",
      "anim als",
      "g ers",
      "r hy",
      "ic ing",
      "expect ations",
      "dep ending",
      "catch er",
      "sand er",
      "an n",
      "ti e",
      "sh ir",
      "duct ion",
      "bl ed",
      "every where",
      "leg end",
      "pup py",
      "vam pi",
      "dis h",
      "last ing",
      "real ized",
      "lea ther",
      "histor ical",
      "e ating",
      "m ood",
      "mis take",
      "rand om",
      "er man",
      "sho wn",
      "200 5",
      "ped al",
      "gent le",
      "per f",
      "when ever",
      "hard er",
      "tru th",
      "stick y",
      "hope fully",
      "defect ive",
      "monit or",
      "d ated",
      "re ve",
      "st ated",
      "lo ving",
      "do ors",
      "gar age",
      "colo red",
      "ent ry",
      "com ments",
      "impres sive",
      "advan ced",
      "tee th",
      "le ak",
      "ly n",
      "ra w",
      "connect or",
      "appro pri",
      "inde ed",
      "gil mour",
      "fin ds",
      "pre c",
      "sur vi",
      "compat ible",
      "re port",
      "ton s",
      "nam ed",
      "we ren",
      "ye ah",
      "bl end",
      "know ing",
      "story line",
      "w rote",
      "fact ory",
      "allow ed",
      "ed ges",
      "ar row",
      "li quid",
      "itt ed",
      "upd ated",
      "fall s",
      "novel s",
      "i um",
      "con verse",
      "ca ught",
      "e red",
      "j un",
      "st ic",
      "ti les",
      "sp ort",
      "develo ped",
      "illustr ations",
      "relation ship",
      "po d",
      "ton y",
      "function ality",
      "explo re",
      "mca fee",
      "p red",
      "ne at",
      "pl at",
      "po l",
      "ign ed",
      "cost s",
      "intu itive",
      "b ust",
      "b ars",
      "n ational",
      "er al",
      "se lection",
      "fam ous",
      "vi ol",
      "chap ter",
      "t ro",
      "or din",
      "ap o",
      "comm er",
      "form er",
      "present ed",
      "5 00",
      "in fo",
      "iv ity",
      "d ad",
      "to wards",
      "sto ve",
      "nav ig",
      "some where",
      "premi um",
      "a ur",
      "h at",
      "w w",
      "in fl",
      "ic ulous",
      "be e",
      "sp are",
      "dis cus",
      "hur t",
      "he y",
      "ti er",
      "em ies",
      "che ese",
      "rece ive",
      "tern al",
      "b00 0",
      "sus pect",
      "nut s",
      "ge ar",
      "direct or",
      "sil ver",
      "e ars",
      "k ink",
      "en emies",
      "cor por",
      "num er",
      "jor dan",
      "j aw",
      "er ror",
      "dis lodged",
      "brilli ant",
      "difficul ty",
      "an o",
      "mar ked",
      "comp on",
      "m and",
      "s ight",
      "we ather",
      "con side",
      "con vers",
      "oun ce",
      "ste am",
      "ob struction",
      "dra g",
      "condition er",
      "spo il",
      "child hood",
      "perform ed",
      "conside red",
      "r are",
      "r ice",
      "w ads",
      "should er",
      "sy m",
      "dep end",
      "sco re",
      "b ound",
      "mo ments",
      "if f",
      "clo ds",
      "su ff",
      "im passable",
      "pres to",
      "clo sing",
      "compl icated",
      "thank fully",
      "sco tt",
      "bub ble",
      "5 8",
      "ar c",
      "ti v",
      "su ction",
      "wo re",
      "clutch ed",
      "review er",
      "sus pen",
      "sequ el",
      "bes ides",
      "re c",
      "ch ina",
      "list ed",
      "graph y",
      "terri fic",
      "qu o",
      "art ists",
      "lim it",
      "blo cks",
      "situ ation",
      "goog le",
      "gall on",
      "of fered",
      "wi e",
      "will ing",
      "cl usion",
      "her self",
      "var i",
      "d d",
      "be ans",
      "ac cor",
      "all en",
      "carry ing",
      "m ild",
      "t les",
      "cl ar",
      "bri ef",
      "continu ed",
      "t ack",
      "su d",
      "gre w",
      "sh ield",
      "show ing",
      "sup pose",
      "b un",
      "do min",
      "ca ke",
      "fun ctions",
      "main tain",
      "fire wall",
      "spl it",
      "some how",
      "pr inter",
      "price y",
      "let ters",
      "loo sen",
      "plan ning",
      "gy m",
      "gener ation",
      "z ed",
      "oo oo",
      "tra il",
      "compar ison",
      "colle ge",
      "accor ding",
      "g orge",
      "t es",
      "en ing",
      "mar x",
      "hard ly",
      "entire ly",
      "ti re",
      "ps 2",
      "cre ating",
      "color ful",
      "heav ily",
      "cult ure",
      "egg s",
      "r s",
      "ac coun",
      "ben e",
      "ne ither",
      "dis cover",
      "hi p",
      "test ed",
      "mount ed",
      "con sole",
      "who se",
      "aw ful",
      "sne ak",
      "sud den",
      "is land",
      "de cor",
      "cr u",
      "cho col",
      "se am",
      "am a",
      "head s",
      "ens ive",
      "sub tle",
      "push ing",
      "occas ionally",
      "r ap",
      "ch ose",
      "ga u",
      "there fore",
      "she et",
      "supp ly",
      "pos es",
      "off ic",
      "produ ced",
      "z ip",
      "act ors",
      "bl an",
      "add ic",
      "heav ier",
      "op tim",
      "thread s",
      "' ,",
      "th um",
      "ger y",
      "reci pe",
      "r ack",
      "v ill",
      "x ic",
      "en ed",
      "ti ll",
      "concer ned",
      "por ter",
      "sil ly",
      "gorge ous",
      "in no",
      "ex e",
      "200 3",
      "mess y",
      "prom pt",
      "regre t",
      "d istance",
      "us ive",
      "light ing",
      "b ly",
      "un lock",
      "cre at",
      "contin ues",
      "br idge",
      "review ing",
      "kno ck",
      "m int",
      "rid iculous",
      "tit les",
      "edu c",
      "g ger",
      "vel cro",
      "port able",
      "ste vie",
      "main ly",
      "cate g",
      "r ust",
      "let ter",
      "kind a",
      "la ther",
      "download ed",
      "gold en",
      "jour ney",
      "eu rope",
      "sol ve",
      "graph ic",
      "sou th",
      "ext ended",
      "techn ical",
      "l ou",
      "anti virus",
      "frequ ently",
      "develop ment",
      "numer ous",
      "c row",
      "w ars",
      "cl um",
      "nam es",
      "st un",
      "mo on",
      "he ight",
      "int ense",
      "ach ie",
      "conf ident",
      "chocol ate",
      "ro set",
      "ch ain",
      "pp y",
      "plan tr",
      "/ /",
      "b io",
      "f ying",
      "ex ternal",
      "know ledge",
      "form ula",
      "sing er",
      "cra f",
      "tor n",
      "vehic le",
      "ge orge",
      "adjust ment",
      "in put",
      "de l",
      "char m",
      "sur round",
      "sha me",
      "recor ded",
      "present ation",
      "f rench",
      "j acks",
      "im ent",
      "dri ves",
      "val u",
      "la bel",
      "hes it",
      "lam b",
      "stud ents",
      "nozz le",
      "n est",
      "p ine",
      "on na",
      "int ri",
      "sp iel",
      "bro ad",
      "moun ting",
      "attract ive",
      "comm and",
      "enjoy ing",
      "opp ort",
      "a while",
      "j um",
      "om b",
      "war ned",
      "thick er",
      "p ig",
      "r in",
      "belie vable",
      "spray er",
      "spect ive",
      "ch op",
      "ent ially",
      "con ver",
      "sc ared",
      "iz on",
      "por tray",
      "function al",
      "plantr onics",
      "e ight",
      "in spir",
      "in flu",
      "du ll",
      "ca used",
      "ru le",
      "care er",
      "ene my",
      "extr as",
      "' .",
      "9 5",
      "h arr",
      "o ily",
      "guit ars",
      "cord less",
      "appropri ate",
      "so cial",
      "ps y",
      "fa ith",
      "remind s",
      "skill s",
      "patter n",
      "3 00",
      "p unch",
      "id ol",
      "sha ving",
      "thorough ly",
      "dete ct",
      "d ies",
      "i us",
      "o st",
      "ad v",
      "ha el",
      "bu gs",
      "don t",
      "ade qu",
      "ton es",
      "autom atically",
      "introdu ced",
      "suppli ed",
      "o scar",
      "en na",
      "pl ant",
      "tr ash",
      "di v",
      "pur ple",
      "mach ines",
      "comb at",
      "i est",
      "w at",
      "oo m",
      "ap ps",
      "win s",
      "mic hael",
      "beg ins",
      "exp and",
      "commer cial",
      "3 rd",
      "u d",
      "le ash",
      "se ven",
      "bo b",
      "ide al",
      "allow ing",
      "pass ion",
      "cab ine",
      "__ __",
      "econ om",
      "ar ies",
      "do m",
      "am ps",
      "cent ury",
      "200 1",
      "vir tu",
      "o bs",
      "an na",
      "ex change",
      "sound track",
      "strong er",
      "entertain ment",
      "spiel berg",
      "l en",
      "st ree",
      "ch er",
      "should n",
      "slow ly",
      "rel ated",
      "init ially",
      "? )",
      "sol ved",
      "apply ing",
      "fly ing",
      "notice able",
      "turbo tax",
      "j im",
      "pe ace",
      "cho ices",
      "poor ly",
      "n arrow",
      "ch a",
      "id io",
      "photo shop",
      "roset ta",
      "obs ess",
      "w ine",
      "co t",
      "perf ume",
      "ar ily",
      "read s",
      "af fect",
      "pick ing",
      "understand ing",
      "complain ing",
      "stud ent",
      "spy ware",
      "suspen se",
      "b ank",
      "n ia",
      "ch art",
      "go ver",
      "sh or",
      "gr ain",
      "dv ds",
      "search ing",
      "stree ts",
      "l bs",
      "re tail",
      "out s",
      "con vin",
      "car tr",
      "natur ally",
      "h en",
      "l ately",
      "al ien",
      "ro se",
      "bl ast",
      "less ons",
      "disappoint ing",
      "process or",
      "travel ing",
      "ado be",
      "hill erman",
      "promis ed",
      "ch ip",
      "lo cks",
      "up per",
      "op ard",
      "asse mb",
      "exerc ise",
      "go al",
      "sh ad",
      "dri vers",
      "music ians",
      "as king",
      "ab ra",
      "pe ter",
      "pr ices",
      "br ac",
      "sk ip",
      "adjust able",
      "mad onna",
      "dim en",
      "the at",
      "me th",
      "gh ost",
      "con struct",
      "il ing",
      "fl or",
      "pen s",
      "in vent",
      "le ads",
      "de ce",
      "com ed",
      "pen c",
      "ten nis",
      "worth y",
      "appe ared",
      "oc cur",
      "mark ers",
      "spec if",
      "temp or",
      "[ ...",
      "d c",
      "m ber",
      "le opard",
      "se ph",
      "need les",
      "clean ser",
      "ste al",
      "roll er",
      "pass ed",
      "reach ed",
      "b rain",
      "the less",
      "is try",
      "am ing",
      "bu m",
      "pres sed",
      "ak ed",
      "indust ry",
      "gal ax",
      "k o",
      "ne igh",
      "dis connect",
      "mar ia",
      "class ics",
      "clu b",
      "bot tles",
      "respon se",
      "shif t",
      "[... ]",
      "a er",
      "we ls",
      "ac ou",
      "pa ul",
      "la x",
      "compan ies",
      "re verse",
      "itt y",
      "bas is",
      "cli m",
      "h ilar",
      "li ved",
      "sh ade",
      "had n",
      "inst ant",
      "sprink ler",
      "fas cin",
      "assemb ly",
      "f ed",
      "il ly",
      "h all",
      "al ive",
      "res ses",
      "man aged",
      "fig uring",
      "chem ical",
      "h tt",
      "t all",
      "gr y",
      "too d",
      "fo x",
      "stu dy",
      "kind s",
      "replac ing",
      "ins ight",
      "remo ving",
      "rich ard",
      "or ial",
      "ing ly",
      "es cape",
      "ex cess",
      "sa ves",
      "back ed",
      "show ed",
      "surprising ly",
      "li ps",
      "cl amp",
      "cur ve",
      "wonder fully",
      "word perfect",
      "sn ack",
      "fli p",
      "phys ical",
      "g gl",
      "al le",
      "lo sing",
      "che w",
      "sn u",
      "thrill ed",
      "raz or",
      "dialo gue",
      "imp act",
      "2 2",
      "k not",
      "p ul",
      "ad orable",
      "ter ror",
      "po ly",
      "sc ient",
      "jo ints",
      "sque e",
      "fab ulous",
      "==== ====",
      "g ate",
      "o g",
      "y or",
      "re lax",
      "un ity",
      "ma ker",
      "sh ure",
      "dis aster",
      "tas ks",
      "print ed",
      "tic ket",
      "g low",
      "r arely",
      "re fun",
      "to ss",
      "sto ps",
      "stri pped",
      "luck y",
      "afford able",
      ": //",
      "p he",
      "qu ar",
      "um es",
      "for nia",
      "drill ing",
      "ni ke",
      "1 st",
      "3 60",
      "b b",
      "al e",
      "sa ke",
      "av es",
      "af raid",
      "cap ac",
      "dam aged",
      "san ta",
      "b acks",
      "ab sor",
      "cor n",
      "reason ably",
      "pan el",
      "bi ke",
      "cali fornia",
      "! ).",
      "d unge",
      "f light",
      "us able",
      "galax y",
      "ti an",
      "de mo",
      "au th",
      "pur poses",
      "thr u",
      "return ing",
      "mil es",
      "holi day",
      "tar get",
      "bu ds",
      "produ ce",
      "const ant",
      "brit ish",
      "s ick",
      "to ps",
      "en counter",
      "le gs",
      "lo s",
      "us age",
      "hand ful",
      "cor ner",
      "material s",
      "jam es",
      "yum my",
      "metall ica",
      "gau ge",
      "auth ors",
      "d ent",
      "al er",
      "sc roll",
      "jo ined",
      "clo ser",
      "aw k",
      "cons ists",
      "care fully",
      "mot ion",
      "bur st",
      "assu med",
      "j et",
      "v it",
      "re ality",
      "mis sions",
      "perfor ms",
      "invest ment",
      "regard less",
      "shar pen",
      "d ress",
      "p ace",
      "min us",
      "cr ap",
      "sing s",
      "val ve",
      "d ice",
      "~ ~",
      "fr an",
      "vers at",
      "cas ual",
      "moisturi zer",
      "g or",
      "at temp",
      "cour age",
      "pot ato",
      "iss ors",
      "f on",
      "j ar",
      "w is",
      "ac le",
      "repe ated",
      "claim s",
      "shor ter",
      "c it",
      "su cked",
      "last ly",
      "hu b",
      "zz y",
      "document ary",
      "insu l",
      "bene fit",
      "7 00",
      "b ay",
      "p ts",
      "p acks",
      "z omb",
      "er r",
      "not ch",
      "po wered",
      "sound ed",
      "hal lo",
      "rout e",
      "pleas ure",
      "hang ing",
      "gro wn",
      "encoun ters",
      "meth od",
      "s lo",
      "it ary",
      "se a",
      "com fy",
      "own er",
      "mix ing",
      "sli p",
      "mart in",
      "signific ant",
      "awk ward",
      "- )",
      "m ouse",
      "re play",
      "ed ger",
      "be li",
      "ex tract",
      "sc issors",
      "standard s",
      "kill er",
      "bal anced",
      "lay er",
      "gro cer",
      "emot ional",
      "-------- --------",
      "l ly",
      "v end",
      "st iff",
      "ab les",
      "pres ents",
      "amaz ed",
      "tre as",
      "pan try",
      "dro ps",
      "din ner",
      "consist ent",
      "resour ces",
      "specif ically",
      "it ude",
      "st itch",
      "ant enna",
      "over ly",
      "life time",
      "feat ured",
      "bar gain",
      "burn ing",
      "intu it",
      "upgrad ed",
      "lo ver",
      "wh el",
      "du al",
      "la be",
      "check ed",
      "uni vers",
      "situ ations",
      "opport unity",
      "3 6",
      "f if",
      "l unch",
      "con clusion",
      "ci vil",
      "mon o",
      "screw ed",
      "soc iety",
      "hallo ween",
      "l b",
      "in sp",
      "wor ried",
      "can s",
      "car ri",
      "rece ption",
      "b age",
      "e e",
      "p our",
      "per man",
      "br an",
      "br is",
      "gam ers",
      "regular ly",
      "kill ed",
      "sad ly",
      "organ ic",
      "pal m",
      "eli min",
      "197 7",
      "jun ction",
      "9 8",
      "con fl",
      "will i",
      "part ment",
      "loo p",
      "cour t",
      "dre w",
      "fill ing",
      "master piece",
      "teach er",
      "revol ution",
      "tele vision",
      "acou stic",
      "h h",
      "k ers",
      "z one",
      "me ter",
      "clo th",
      "else where",
      "ju li",
      "brother s",
      "g in",
      "r ush",
      "w es",
      "w ers",
      "w est",
      "do ctor",
      "rest aur",
      "ref lect",
      "remo te",
      "shoo t",
      "lor d",
      "phys ics",
      "aspect s",
      "gover n",
      ", ,",
      "k u",
      "t ank",
      "mo ld",
      "ac qu",
      "dy nam",
      "mem orable",
      "night s",
      "bul ky",
      "oc to",
      "appear ance",
      "harr ison",
      "( \"",
      "z o",
      "th y",
      "to ward",
      "ap s",
      "po em",
      "she ets",
      "thought s",
      "food s",
      "step s",
      "log ical",
      "tor que",
      "cand y",
      "japan ese",
      "hilar ious",
      "p un",
      "st at",
      "be red",
      "pe ts",
      "res er",
      "em er",
      "inte ll",
      "brush es",
      "descri be",
      "80 s",
      "scr ab",
      "lead ing",
      "thread ed",
      "almon ds",
      "i lo",
      "sp ark",
      "ph r",
      "sho cking",
      "world s",
      "rein force",
      "compli ments",
      "h ous",
      "i pod",
      "ge o",
      "not ed",
      "cap able",
      "dark er",
      "pract ical",
      "sex y",
      "saving s",
      "octo ber",
      "c s",
      "d ash",
      "to wels",
      "ar an",
      "ter m",
      "enjoy s",
      "card board",
      "hold er",
      "job s",
      "bre aks",
      "ines e",
      "bon d",
      "scal p",
      "ordin ary",
      "l av",
      "v ict",
      "is y",
      "ch inese",
      "for ces",
      "cl oud",
      "cap ture",
      "design s",
      "recor ds",
      "paint ing",
      "refresh ing",
      "th ir",
      "st ers",
      "be ha",
      "un able",
      "de bris",
      "per spective",
      "bu cket",
      "sto pping",
      "sur gery",
      "scri pt",
      "emp ty",
      "compat ibility",
      "deter min",
      "scrab ble",
      "r is",
      "ho ped",
      "gre asy",
      "res ist",
      "bu ff",
      "sim pli",
      "win ner",
      "gar bage",
      "hor se",
      "sal es",
      "custom ers",
      "g loss",
      "t ut",
      "te l",
      "sound ing",
      "wo lf",
      "tem per",
      "magnet ic",
      "f av",
      "s ites",
      "t ends",
      "al co",
      "st atic",
      "ic on",
      "he aven",
      "gr a",
      "pre h",
      "stick ers",
      "bust er",
      "me ets",
      "ha zard",
      "per fe",
      "sho pping",
      "begin ner",
      "tech ni",
      "ele ment",
      "exerc ises",
      "sudden ly",
      "l ers",
      "v iny",
      "be coming",
      "mo dif",
      "clo gged",
      "flavor s",
      "occas ional",
      "dram a",
      "dru g",
      "adequ ate",
      "govern ment",
      "ro ses",
      "time less",
      "br uce",
      "she l",
      "cre ep",
      "cook ed",
      "je ans",
      "hundred s",
      "jacks on",
      "m ous",
      "r us",
      "ho ses",
      "ga ther",
      "sp orts",
      "even ing",
      "less on",
      ".... ..",
      "plan et",
      "fan cy",
      "draw ing",
      "tap ed",
      "be ats",
      "fo c",
      "clean s",
      "attach ing",
      "mess ages",
      "speak ers",
      "artic le",
      "extension s",
      "idio t",
      "l ists",
      "or ing",
      "ar io",
      "dec ades",
      "bul k",
      "flaw s",
      "x l",
      "in sur",
      "re new",
      "pe ach",
      "sk and",
      "multi player",
      "cu ri",
      "success ful",
      "lam in",
      "ali ens",
      "washing ton",
      "cabine t",
      "intell ig",
      "d res",
      "do zen",
      "un comfortable",
      "de fault",
      "ex plan",
      "ess entially",
      "cl es",
      "19 6",
      "accept able",
      "pound s",
      "> .",
      "p ill",
      "st ress",
      "be ef",
      "ck er",
      "ser ve",
      "min is",
      "mar ily",
      "open s",
      "cli mb",
      "flow ing",
      "\" )",
      "y o",
      "ll a",
      "cle ver",
      "check ing",
      "craf ts",
      "d ado",
      "e y",
      "h int",
      "ro me",
      "upgrad ing",
      "h ated",
      "ac compl",
      "de le",
      "gr ay",
      "di ame",
      "dec ision",
      "danger ous",
      "cop ies",
      "viny l",
      "v y",
      "ch ur",
      "ri ff"
    ]
  }
}